{
  "version": "1.0",
  "truncation": null,
  "padding": null,
  "added_tokens": [
    {
      "id": 0,
      "content": "[PAD]",
      "single_word": false,
      "lstrip": false,
      "rstrip": false,
      "normalized": false,
      "special": true
    },
    {
      "id": 1,
      "content": "[UNK]",
      "single_word": false,
      "lstrip": false,
      "rstrip": false,
      "normalized": false,
      "special": true
    },
    {
      "id": 2,
      "content": "[BOS]",
      "single_word": false,
      "lstrip": false,
      "rstrip": false,
      "normalized": false,
      "special": true
    },
    {
      "id": 3,
      "content": "[EOS]",
      "single_word": false,
      "lstrip": false,
      "rstrip": false,
      "normalized": false,
      "special": true
    },
    {
      "id": 4,
      "content": "[SEP]",
      "single_word": false,
      "lstrip": false,
      "rstrip": false,
      "normalized": false,
      "special": true
    },
    {
      "id": 5,
      "content": "[CLS]",
      "single_word": false,
      "lstrip": false,
      "rstrip": false,
      "normalized": false,
      "special": true
    },
    {
      "id": 6,
      "content": "[MASK]",
      "single_word": false,
      "lstrip": false,
      "rstrip": false,
      "normalized": false,
      "special": true
    }
  ],
  "normalizer": {
    "type": "Sequence",
    "normalizers": [
      {
        "type": "NFKC"
      }
    ]
  },
  "pre_tokenizer": {
    "type": "ByteLevel",
    "add_prefix_space": false,
    "trim_offsets": true,
    "use_regex": true
  },
  "post_processor": null,
  "decoder": {
    "type": "ByteLevel",
    "add_prefix_space": true,
    "trim_offsets": true,
    "use_regex": true
  },
  "model": {
    "type": "BPE",
    "dropout": null,
    "unk_token": "[UNK]",
    "continuing_subword_prefix": null,
    "end_of_word_suffix": null,
    "fuse_unk": false,
    "byte_fallback": true,
    "ignore_merges": false,
    "vocab": {
      "[PAD]": 0,
      "[UNK]": 1,
      "[BOS]": 2,
      "[EOS]": 3,
      "[SEP]": 4,
      "[CLS]": 5,
      "[MASK]": 6,
      "!": 7,
      "\"": 8,
      "#": 9,
      "$": 10,
      "%": 11,
      "&": 12,
      "'": 13,
      "(": 14,
      ")": 15,
      "*": 16,
      "+": 17,
      ",": 18,
      "-": 19,
      ".": 20,
      "/": 21,
      "0": 22,
      "1": 23,
      "2": 24,
      "3": 25,
      "4": 26,
      "5": 27,
      "6": 28,
      "7": 29,
      "8": 30,
      "9": 31,
      ":": 32,
      ";": 33,
      "<": 34,
      "=": 35,
      ">": 36,
      "?": 37,
      "@": 38,
      "A": 39,
      "B": 40,
      "C": 41,
      "D": 42,
      "E": 43,
      "F": 44,
      "G": 45,
      "H": 46,
      "I": 47,
      "J": 48,
      "K": 49,
      "L": 50,
      "M": 51,
      "N": 52,
      "O": 53,
      "P": 54,
      "Q": 55,
      "R": 56,
      "S": 57,
      "T": 58,
      "U": 59,
      "V": 60,
      "W": 61,
      "X": 62,
      "Y": 63,
      "Z": 64,
      "[": 65,
      "\\": 66,
      "]": 67,
      "^": 68,
      "_": 69,
      "`": 70,
      "a": 71,
      "b": 72,
      "c": 73,
      "d": 74,
      "e": 75,
      "f": 76,
      "g": 77,
      "h": 78,
      "i": 79,
      "j": 80,
      "k": 81,
      "l": 82,
      "m": 83,
      "n": 84,
      "o": 85,
      "p": 86,
      "q": 87,
      "r": 88,
      "s": 89,
      "t": 90,
      "u": 91,
      "v": 92,
      "w": 93,
      "x": 94,
      "y": 95,
      "z": 96,
      "{": 97,
      "|": 98,
      "}": 99,
      "~": 100,
      "¡": 101,
      "¢": 102,
      "£": 103,
      "¤": 104,
      "¥": 105,
      "¦": 106,
      "§": 107,
      "¨": 108,
      "©": 109,
      "ª": 110,
      "«": 111,
      "¬": 112,
      "®": 113,
      "¯": 114,
      "°": 115,
      "±": 116,
      "²": 117,
      "³": 118,
      "´": 119,
      "µ": 120,
      "¶": 121,
      "·": 122,
      "¸": 123,
      "¹": 124,
      "º": 125,
      "»": 126,
      "¼": 127,
      "½": 128,
      "¾": 129,
      "¿": 130,
      "À": 131,
      "Á": 132,
      "Â": 133,
      "Ã": 134,
      "Ä": 135,
      "Å": 136,
      "Æ": 137,
      "Ç": 138,
      "È": 139,
      "É": 140,
      "Ê": 141,
      "Ë": 142,
      "Ì": 143,
      "Í": 144,
      "Î": 145,
      "Ï": 146,
      "Ð": 147,
      "Ñ": 148,
      "Ò": 149,
      "Ó": 150,
      "Ô": 151,
      "Õ": 152,
      "Ö": 153,
      "×": 154,
      "Ø": 155,
      "Ù": 156,
      "Ú": 157,
      "Û": 158,
      "Ü": 159,
      "Ý": 160,
      "Þ": 161,
      "ß": 162,
      "à": 163,
      "á": 164,
      "â": 165,
      "ã": 166,
      "ä": 167,
      "å": 168,
      "æ": 169,
      "ç": 170,
      "è": 171,
      "é": 172,
      "ê": 173,
      "ë": 174,
      "ì": 175,
      "í": 176,
      "î": 177,
      "ï": 178,
      "ð": 179,
      "ñ": 180,
      "ò": 181,
      "ó": 182,
      "ô": 183,
      "õ": 184,
      "ö": 185,
      "÷": 186,
      "ø": 187,
      "ù": 188,
      "ú": 189,
      "û": 190,
      "ü": 191,
      "ý": 192,
      "þ": 193,
      "ÿ": 194,
      "Ā": 195,
      "ā": 196,
      "Ă": 197,
      "ă": 198,
      "Ą": 199,
      "ą": 200,
      "Ć": 201,
      "ć": 202,
      "Ĉ": 203,
      "ĉ": 204,
      "Ċ": 205,
      "ċ": 206,
      "Č": 207,
      "č": 208,
      "Ď": 209,
      "ď": 210,
      "Đ": 211,
      "đ": 212,
      "Ē": 213,
      "ē": 214,
      "Ĕ": 215,
      "ĕ": 216,
      "Ė": 217,
      "ė": 218,
      "Ę": 219,
      "ę": 220,
      "Ě": 221,
      "ě": 222,
      "Ĝ": 223,
      "ĝ": 224,
      "Ğ": 225,
      "ğ": 226,
      "Ġ": 227,
      "ġ": 228,
      "Ģ": 229,
      "ģ": 230,
      "Ĥ": 231,
      "ĥ": 232,
      "Ħ": 233,
      "ħ": 234,
      "Ĩ": 235,
      "ĩ": 236,
      "Ī": 237,
      "ī": 238,
      "Ĭ": 239,
      "ĭ": 240,
      "Į": 241,
      "į": 242,
      "İ": 243,
      "ı": 244,
      "Ĳ": 245,
      "ĳ": 246,
      "Ĵ": 247,
      "ĵ": 248,
      "Ķ": 249,
      "ķ": 250,
      "ĸ": 251,
      "Ĺ": 252,
      "ĺ": 253,
      "Ļ": 254,
      "ļ": 255,
      "Ľ": 256,
      "ľ": 257,
      "Ŀ": 258,
      "ŀ": 259,
      "Ł": 260,
      "ł": 261,
      "Ń": 262,
      "on": 263,
      "at": 264,
      "ãĢ": 265,
      "ä¸": 266,
      "in": 267,
      "Ġ-": 268,
      "ç¶": 269,
      "æľ": 270,
      "ar": 271,
      "éĢ": 272,
      "èģ": 273,
      "es": 274,
      "Ġt": 275,
      "æĪ": 276,
      "ion": 277,
      "æĸ": 278,
      "æĸ°": 279,
      "ee": 280,
      "åł": 281,
      "è²": 282,
      "èĨ": 283,
      "ļèĨ": 284,
      "éĢļèĨ": 285,
      "éĢļèĨ¨": 286,
      "ĠT": 287,
      "ç¶ĵ": 288,
      "lat": 289,
      "Ġå": 290,
      "ed": 291,
      "°ç": 292,
      "¾İ": 293,
      "ç¾İ": 294,
      "Ġs": 295,
      "ç¶²": 296,
      "èģŀ": 297,
      "æĸ°èģŀ": 298,
      "an": 299,
      "ata": 300,
      "ing": 301,
      "lation": 302,
      "Fed": 303,
      "In": 304,
      "flation": 305,
      "åľ": 306,
      "éĩ": 307,
      "è²¡": 308,
      "ic": 309,
      "ĠC": 310,
      "Ġd": 311,
      "he": 312,
      "om": 313,
      "äº": 314,
      "ĠIn": 315,
      "al": 316,
      "or": 317,
      "ĠS": 318,
      "eek": 319,
      "is": 320,
      "åį": 321,
      "åı": 322,
      "æģ": 323,
      "è¡": 324,
      "é»": 325,
      "ĠW": 326,
      "Ńæ": 327,
      "èģ¯": 328,
      "er": 329,
      "et": 330,
      "ĠA": 331,
      "æĶ": 332,
      "èĤ": 333,
      "ãĢģ": 334,
      "ä¸Ģ": 335,
      "æľĥ": 336,
      "ings": 337,
      "éĩĳ": 338,
      "èĤ¡": 339,
      "Ġo": 340,
      "Ġto": 341,
      "AI": 342,
      "nings": 343,
      "ä¼": 344,
      "å¤": 345,
      "å®": 346,
      "å¸": 347,
      "åħ": 348,
      "æķ": 349,
      "ĠE": 350,
      "Ġä¸": 351,
      "ĻĤ": 352,
      "arnings": 353,
      "æĪ°ç": 354,
      "åł±": 355,
      "åł´": 356,
      "åľĭ": 357,
      "è²¡ç¶ĵ": 358,
      "é»ŀ": 359,
      "ĠD": 360,
      "ĠM": 361,
      "Ġin": 362,
      "åĪ": 363,
      "æ³": 364,
      "æ¿": 365,
      "èĪ": 366,
      "é«": 367,
      "éĽ": 368,
      "ĠB": 369,
      "Ġw": 370,
      "ĪŃ": 371,
      "įç": 372,
      "ãĢĮ": 373,
      "ãĢį": 374,
      "æĸ°èģŀç¶²": 375,
      "Ġdata": 376,
      "åįĩ": 377,
      "æĪ°çĪŃ": 378,
      "èĪĩ": 379,
      "ay": 380,
      "his": 381,
      "il": 382,
      "Ġof": 383,
      "US": 384,
      "as": 385,
      "ec": 386,
      "ey": 387,
      "it": 388,
      "¯Į": 389,
      "¹´": 390,
      "ä»": 391,
      "å°": 392,
      "å»": 393,
      "å¹´": 394,
      "æĹ": 395,
      "ç´": 396,
      "è¦": 397,
      "è§": 398,
      "éĢ±": 399,
      "ç¶ĵæ¿": 400,
      "ĠInflation": 401,
      "æģ¯": 402,
      "æķ¸": 403,
      "ç¶ĵæ¿Ł": 404,
      "im": 405,
      "Ġm": 406,
      "Ġthis": 407,
      "ad": 408,
      "com": 409,
      "en": 410,
      "ket": 411,
      "ro": 412,
      "åĥ": 413,
      "åĭ": 414,
      "åĲ": 415,
      "æĬ": 416,
      "æĵ": 417,
      "èª": 418,
      "è·": 419,
      "ĠUS": 420,
      "arket": 421,
      "and": 422,
      "è¡Į": 423,
      "å¸Ĥ": 424,
      "Ġinflation": 425,
      "é«ĺ": 426,
      "æĹ¥": 427,
      "è§Ģ": 428,
      "ch": 429,
      "ew": 430,
      "ri": 431,
      "ĠF": 432,
      "Ġa": 433,
      "Ġb": 434,
      "Ġl": 435,
      "est": 436,
      "ĠSt": 437,
      "ia": 438,
      "ve": 439,
      "¢¨": 440,
      "³ĩ": 441,
      "å±": 442,
      "åī": 443,
      "åĬ": 444,
      "åĳ": 445,
      "æº": 446,
      "çı": 447,
      "çĽ": 448,
      "èĩ": 449,
      "èŃ": 450,
      "è³ĩ": 451,
      "éģ": 452,
      "éĹ": 453,
      "Ġf": 454,
      "Ġn": 455,
      "Ġp": 456,
      "ĭç": 457,
      "Ĳæ": 458,
      "ļĦ": 459,
      "ä¸į": 460,
      "æľŁ": 461,
      "ess": 462,
      "æĪ°": 463,
      "Ġå¯Į": 464,
      "ç¾İèĤ¡": 465,
      "äºº": 466,
      "åı°": 467,
      "ĠWeek": 468,
      "ŃæĻĤ": 469,
      "èģ¯ç¶²": 470,
      "ä¼Ĭ": 471,
      "Ġä¸ŃæĻĤ": 472,
      "ĠData": 473,
      "åĪ©": 474,
      "æķ¸æĵ": 475,
      "åĥ¹": 476,
      "ews": 477,
      "çı¾": 478,
      "éĹľ": 479,
      "Ġå¯Įèģ¯ç¶²": 480,
      "Ġä¸ŃæĻĤæĸ°èģŀç¶²": 481,
      "æķ¸æĵļ": 482,
      "ver": 483,
      "Ġweek": 484,
      "PI": 485,
      "earnings": 486,
      "id": 487,
      "ly": 488,
      "oo": 489,
      "ree": 490,
      "sh": 491,
      "ªģ": 492,
      "®Ĭ": 493,
      "ä½": 494,
      "åĨ": 495,
      "æ¸": 496,
      "æĺ": 497,
      "æĻĤ": 498,
      "çİ": 499,
      "çĶ": 500,
      "çļĦ": 501,
      "çªģ": 502,
      "è©": 503,
      "èµ": 504,
      "è®Ĭ": 505,
      "éĬ": 506,
      "éį": 507,
      "éļ": 508,
      "é¢¨": 509,
      "ĠJ": 510,
      "ĠO": 511,
      "Ġc": 512,
      "Ġk": 513,
      "Ġand": 514,
      "Ġearnings": 515,
      "ĥ½": 516,
      "İ¨": 517,
      "ķè³ĩ": 518,
      "ĸæľĥ": 519,
      "Ŀ±": 520,
      "Ŀçªģ": 521,
      "Ńåľĭ": 522,
      "onom": 523,
      "æľª": 524,
      "arsh": 525,
      "ĠThe": 526,
      "head": 527,
      "è¡Ŀçªģ": 528,
      "èģ¯æº": 529,
      "å¤§": 530,
      "ĠEarnings": 531,
      "æ³¢": 532,
      "æ³ķ": 533,
      "éĽ»": 534,
      "åįĩæģ¯": 535,
      "è¦ĸ": 536,
      "Ġmarket": 537,
      "æĬķè³ĩ": 538,
      "å¸Ĥåł´": 539,
      "è§Ģé»ŀ": 540,
      "çĽĽ": 541,
      "Ġfor": 542,
      "éĹľéį": 543,
      "éĬĢ": 544,
      "onomic": 545,
      "èģ¯æºĸæľĥ": 546,
      "éĹľéįµ": 547,
      "10": 548,
      "ct": 549,
      "ld": 550,
      "un": 551,
      "ĠG": 552,
      "one": 553,
      "ĠTim": 554,
      "13": 555,
      "20": 556,
      "DP": 557,
      "Ya": 558,
      "ce": 559,
      "ck": 560,
      "ge": 561,
      "gr": 562,
      "ha": 563,
      "hoo": 564,
      "oin": 565,
      "ric": 566,
      "up": 567,
      "ut": 568,
      "vest": 569,
      "¦åĳ": 570,
      "ªçĶ": 571,
      "±è²¡ç¶ĵ": 572,
      "³å": 573,
      "ºå": 574,
      "ä¹": 575,
      "åĢ": 576,
      "åĤ": 577,
      "åĩ": 578,
      "åĵ": 579,
      "åĶ": 580,
      "åĽ": 581,
      "åŁ": 582,
      "æ²": 583,
      "æĨ": 584,
      "æı": 585,
      "æĽ": 586,
      "çĤ": 587,
      "çĩ": 588,
      "çĲ": 589,
      "è¿": 590,
      "èĢ": 591,
      "èĥ½": 592,
      "éĸ": 593,
      "éĿ": 594,
      "éł": 595,
      "ĠN": 596,
      "ĠQ": 597,
      "ĠFed": 598,
      "Ġec": 599,
      "Ġèĩ": 600,
      "ĠYa": 601,
      "ĤAI": 602,
      "Ĩè": 603,
      "Ĭå¹´": 604,
      "ķĨ": 605,
      "oney": 606,
      "ãĢĭ": 607,
      "ä¸Ĭ": 608,
      "ä¸Ńæ": 609,
      "æľ¬": 610,
      "æĪĲ": 611,
      "ç¾İåľĭ": 612,
      "ç¾İä¼Ĭ": 613,
      "è²¡åł±": 614,
      "äº¤": 615,
      "ĠAhead": 616,
      "ä¼°": 617,
      "å¤ĸ": 618,
      "åħĥ": 619,
      "å°ĩ": 620,
      "ent": 621,
      "åĲĳ": 622,
      "èªª": 623,
      "è·Į": 624,
      "é«ĺçĽĽ": 625,
      "rive": 626,
      "åīįç": 627,
      "èŃ¦åĳ": 628,
      "Ġpric": 629,
      "åĪ©çİ": 630,
      "ä½İ": 631,
      "åĨį": 632,
      "è©ķ": 633,
      "İ¨åįĩ": 634,
      "éĬĢè¡Į": 635,
      "ĠTimes": 636,
      "gress": 637,
      "ªçĶ±è²¡ç¶ĵ": 638,
      "åĩº": 639,
      "æĨĤAI": 640,
      "Ġeconomic": 641,
      "ĠèĩªçĶ±è²¡ç¶ĵ": 642,
      "ĠYahoo": 643,
      "ä¸ŃæĿ±": 644,
      "èŃ¦åĳĬ": 645,
      "Ġprices": 646,
      "åĪ©çİĩ": 647,
      "St": 648,
      "eas": 649,
      "hat": 650,
      "por": 651,
      "ran": 652,
      "st": 653,
      "ur": 654,
      "Ġr": 655,
      "ĠAct": 656,
      "ill": 657,
      "Ġmay": 658,
      "202": 659,
      "eason": 660,
      "port": 661,
      "'s": 662,
      "..": 663,
      "07": 664,
      "AN": 665,
      "CPI": 666,
      "Go": 667,
      "GDP": 668,
      "IT": 669,
      "Iran": 670,
      "Key": 671,
      "Money": 672,
      "Re": 673,
      "SM": 674,
      "TW": 675,
      "Week": 676,
      "Warsh": 677,
      "cn": 678,
      "dl": 679,
      "dia": 680,
      "ff": 681,
      "fl": 682,
      "hin": 683,
      "ir": 684,
      "ks": 685,
      "lar": 686,
      "op": 687,
      "olat": 688,
      "oom": 689,
      "ock": 690,
      "pe": 691,
      "pee": 692,
      "rad": 693,
      "sin": 694,
      "sion": 695,
      "sia": 696,
      "uge": 697,
      "usin": 698,
      "volat": 699,
      "yes": 700,
      "yst": 701,
      "¢èĩ": 702,
      "£ĵ": 703,
      "¤§": 704,
      "¥Ń": 705,
      "¨çĲ": 706,
      "¨åīįç": 707,
      "©º": 708,
      "©į": 709,
      "©Ł": 710,
      "ªĴ": 711,
      "¯Ķ": 712,
      "µĤ": 713,
      "¶Ī": 714,
      "·£": 715,
      "ºķ": 716,
      "ºä¸": 717,
      "ºå»": 718,
      "¿ħ": 719,
      "ä¾": 720,
      "ä¿": 721,
      "å¾": 722,
      "åŀ": 723,
      "å¯Į": 724,
      "å£ĵ": 725,
      "åºķ": 726,
      "æ°": 727,
      "æµ": 728,
      "æ½": 729,
      "æĥ": 730,
      "æħ": 731,
      "æĭ": 732,
      "æĴ": 733,
      "æŃ": 734,
      "æ¥Ń": 735,
      "æ©Ł": 736,
      "æ¶Ī": 737,
      "ç«": 738,
      "ç·": 739,
      "ç¸": 740,
      "çĥ": 741,
      "çľ": 742,
      "ç©º": 743,
      "èī": 744,
      "èķ": 745,
      "èŀ": 746,
      "é©": 747,
      "ĠP": 748,
      "Ġ|": 749,
      "Ġæĸ°": 750,
      "Ġè²¡ç¶ĵ": 751,
      "Ġç¶ĵæ¿Ł": 752,
      "Ġup": 753,
      "ĠRe": 754,
      "Ġvolat": 755,
      "Ġèķ": 756,
      "ģ«": 757,
      "ĥæĸ°èģŀ": 758,
      "ĥéĩĳ": 759,
      "ĦæľŁ": 760,
      "Ĭèī": 761,
      "ĭä¸į": 762,
      "įæ": 763,
      "Ĳç´": 764,
      "Ĳäºº": 765,
      "Ķé": 766,
      "ŀ»": 767,
      "ŁæĶ": 768,
      "ony": 769,
      "ation": 770,
      "atch": 771,
      "ãĢĪ": 772,
      "ãĢī": 773,
      "ãĢĬ": 774,
      "ãĢĲ": 775,
      "ãĢĳ": 776,
      "ä¸ī": 777,
      "ä¸ĭ": 778,
      "æľĪ": 779,
      "æľī": 780,
      "æľĹ": 781,
      "Ġthe": 782,
      "Ġten": 783,
      "æĪĸ": 784,
      "æĸ°ä¸Ģ": 785,
      "è²¨": 786,
      "éĢļèĨ¨èĪĩ": 787,
      "éĢļèĨ¨èĢ": 788,
      "ĠTo": 789,
      "Ġåħ": 790,
      "Ġå¤§": 791,
      "°ç©į": 792,
      "°ç·£": 793,
      "Ġsil": 794,
      "FedæĨĤAI": 795,
      "åľ°ç·£": 796,
      "éĩįç": 797,
      "icks": 798,
      "ĠCMoney": 799,
      "ĠCTW": 800,
      "Ġdrive": 801,
      "äºĭ": 802,
      "ĠInvest": 803,
      "ĠIndia": 804,
      "alay": 805,
      "alyst": 806,
      "ors": 807,
      "ĠSet": 808,
      "ision": 809,
      "åįĬå¹´": 810,
      "åıĬ": 811,
      "åı°ç©į": 812,
      "æģĲæ": 813,
      "é»ĥéĩĳ": 814,
      "ĠWarsh": 815,
      "ĠAn": 816,
      "æĶ¯": 817,
      "æĶ¾": 818,
      "ä¸Ģåł´": 819,
      "ä¸Ģåĳ": 820,
      "éĩĳèŀ": 821,
      "å®¶": 822,
      "å®ļ": 823,
      "ĠEas": 824,
      "Ġä¸Ńåľĭ": 825,
      "è²¡ç¶ĵéĢ±": 826,
      "é»ŀçļĦ": 827,
      "ĠMarket": 828,
      "ĠMid": 829,
      "ĠMalay": 830,
      "åĪĨ": 831,
      "éĽ£": 832,
      "ĠBusin": 833,
      "èĪĩAI": 834,
      "ile": 835,
      "ecision": 836,
      "ity": 837,
      "å°İ": 838,
      "å»¶": 839,
      "ç´ļ": 840,
      "ç´Ĳç´": 841,
      "è¦ĭç": 842,
      "éĢ±äº": 843,
      "ç¶ĵæ¿Łæķ¸æĵļ": 844,
      "imony": 845,
      "rogress": 846,
      "åĭ¢": 847,
      "åĭķ": 848,
      "åĭĿ": 849,
      "æĹ¥åł±": 850,
      "ches": 851,
      "Ġbut": 852,
      "Ġli": 853,
      "estimony": 854,
      "ĠStar": 855,
      "å±Ģ": 856,
      "åīįæ": 857,
      "åĬĩ": 858,
      "åĬĽ": 859,
      "èŃī": 860,
      "éģĬèī": 861,
      "Ġnews": 862,
      "æĪ°äºĭ": 863,
      "ç¾İèĤ¡è¿": 864,
      "ç¾İèĤ¡éĿ": 865,
      "åı°èĤ¡": 866,
      "ä¼ĬæľĹ": 867,
      "åĪ©éĽ£": 868,
      "reet": 869,
      "æ¸Ľ": 870,
      "æĺ¯": 871,
      "èµ°": 872,
      "èµ·": 873,
      "è®Ĭæķ¸": 874,
      "éļª": 875,
      "é¢¨éļª": 876,
      "ĠOff": 877,
      "Ġkey": 878,
      "æ³¢éĢļèĨ¨": 879,
      "æ³ķäºº": 880,
      "æ³ķèªª": 881,
      "éĽ»è¦ĸ": 882,
      "Ġmarkets": 883,
      "æĬķè³ĩè§Ģé»ŀ": 884,
      "hape": 885,
      "³åªĴ": 886,
      "åĤ³åªĴ": 887,
      "åĶĲäºº": 888,
      "åĽŀ": 889,
      "åŁºå»": 890,
      "æĽ´": 891,
      "çĩŁæĶ": 892,
      "æľ¬éĢ±": 893,
      "ç¾İä¼Ĭè¡Ŀçªģ": 894,
      "é«ĺçĽĽèŃ¦åĳĬ": 895,
      "åĨįèµ·": 896,
      "éĬĢè¡Įè²¡åł±": 897,
      "2026": 898,
      "ANT": 899,
      "Gold": 900,
      "cnyes": 901,
      "dle": 902,
      "peeches": 903,
      "sions": 904,
      "¢èĩ¨": 905,
      "¨çĲĥ": 906,
      "¨åīįçŀ»": 907,
      "µĤé»ŀçļĦ": 908,
      "åŀĭ": 909,
      "çľĭä¸į": 910,
      "Ġæĸ°åĶĲäºº": 911,
      "ĠReport": 912,
      "Ġvolatile": 913,
      "Ġèķĥæĸ°èģŀ": 914,
      "ĦæľŁéĩĳ": 915,
      "Ġtensions": 916,
      "æĸ°ä¸Ģæ³¢éĢļèĨ¨": 917,
      "Ġsilver": 918,
      "FedæĨĤAIåŁºå»": 919,
      "ĠCTWANT": 920,
      "åı°ç©įéĽ»": 921,
      "ä¸Ģåł´çľĭä¸į": 922,
      "ä¸Ģåĳ¨åīįçŀ»": 923,
      "éĩĳèŀį": 924,
      "ĠEast": 925,
      "è²¡ç¶ĵéĢ±åł±": 926,
      "ĠMarkets": 927,
      "ĠMiddle": 928,
      "ĠMalaysia": 929,
      "ĠBusiness": 930,
      "ç´Ĳç´ĦæľŁéĩĳ": 931,
      "è¦ĭçµĤé»ŀçļĦ": 932,
      "éģĬèīĩ": 933,
      "ç¾İèĤ¡è¿İ": 934,
      "ç¾İèĤ¡éĿ¢èĩ¨": 935,
      "éĽ»è¦ĸåı°": 936,
      "çĩŁæĶ¶": 937,
      "Ġæĸ°åĶĲäººéĽ»è¦ĸåı°": 938,
      "è¦ĭçµĤé»ŀçļĦæĪ°çĪŃ": 939,
      "coin": 940,
      "ely": 941,
      "ig": 942,
      "kely": 943,
      "ol": 944,
      "pt": 945,
      "ra": 946,
      "ry": 947,
      "ta": 948,
      "ter": 949,
      "Ġan": 950,
      "ate": 951,
      "ince": 952,
      "Ġsince": 953,
      "ĠClar": 954,
      "ĠCry": 955,
      "itcoin": 956,
      "row": 957,
      "Ġam": 958,
      "ĠJu": 959,
      "ĠJun": 960,
      "Ġcr": 961,
      "Ġlikely": 962,
      "pto": 963,
      "ĠClarity": 964,
      "ĠCrypto": 965,
      "ĠJune": 966,
      "18": 967,
      "22": 968,
      "35": 969,
      "95": 970,
      "AR": 971,
      "ASM": 972,
      "Bur": 973,
      "CE": 974,
      "Cè·Į": 975,
      "Dal": 976,
      "ES": 977,
      "ET": 978,
      "Earnings": 979,
      "Ge": 980,
      "GIT": 981,
      "HK": 982,
      "Ha": 983,
      "He": 984,
      "Huge": 985,
      "IM": 986,
      "IæĬķè³ĩ": 987,
      "IGIT": 988,
      "Kicks": 989,
      "Loom": 990,
      "LåıĬ": 991,
      "LAR": 992,
      "MO": 993,
      "Mor": 994,
      "News": 995,
      "OW": 996,
      "PCE": 997,
      "PMor": 998,
      "RE": 999,
      "The": 1000,
      "What": 1001,
      "av": 1002,
      "ave": 1003,
      "act": 1004,
      "auge": 1005,
      "aNews": 1006,
      "bl": 1007,
      "ber": 1008,
      "ca": 1009,
      "con": 1010,
      "cree": 1011,
      "conomic": 1012,
      "de": 1013,
      "ds": 1014,
      "dat": 1015,
      "day": 1016,
      "ef": 1017,
      "eg": 1018,
      "gg": 1019,
      "gan": 1020,
      "hings": 1021,
      "has": 1022,
      "ix": 1023,
      "ial": 1024,
      "ive": 1025,
      "kk": 1026,
      "loo": 1027,
      "loom": 1028,
      "ment": 1029,
      "ner": 1030,
      "news": 1031,
      "nation": 1032,
      "nment": 1033,
      "over": 1034,
      "oun": 1035,
      "pec": 1036,
      "rrive": 1037,
      "sa": 1038,
      "the": 1039,
      "tay": 1040,
      "tro": 1041,
      "um": 1042,
      "uation": 1043,
      "ude": 1044,
      "xpec": 1045,
      "¡§": 1046,
      "¡°": 1047,
      "¡å°": 1048,
      "¡è©ķ": 1049,
      "¢±": 1050,
      "¢æĸ°èģŀ": 1051,
      "¢æ¥Ń": 1052,
      "¢å®¶": 1053,
      "£®": 1054,
      "£ħ": 1055,
      "£Ĩ": 1056,
      "£ľ": 1057,
      "£åł´": 1058,
      "£éĸ": 1059,
      "¤ç": 1060,
      "¤åīįæ": 1061,
      "¥²": 1062,
      "¥å": 1063,
      "¥é": 1064,
      "¥éģĬèīĩ": 1065,
      "¦¦": 1066,
      "¦Ļ": 1067,
      "¦ľ": 1068,
      "¦ç¾İåľĭ": 1069,
      "§ĳ": 1070,
      "§åľ": 1071,
      "§å¯Į": 1072,
      "¨Ĥ": 1073,
      "¨ħ": 1074,
      "¨ĺ": 1075,
      "¨Ńæ": 1076,
      "©æ": 1077,
      "©åł´": 1078,
      "©åĥ¹": 1079,
      "©åŁ": 1080,
      "ªå®": 1081,
      "ªåħĥ": 1082,
      "«ĥ": 1083,
      "«ĸ": 1084,
      "«åħ": 1085,
      "¬Ĭ": 1086,
      "¬Ŀ": 1087,
      "¬æľŁ": 1088,
      "¬ç«": 1089,
      "®ä¸": 1090,
      "®åı": 1091,
      "®æ¿": 1092,
      "®è·": 1093,
      "®è¡Į": 1094,
      "®æķ¸æĵļ": 1095,
      "®æ°": 1096,
      "®¢æĸ°èģŀ": 1097,
      "¯ç": 1098,
      "¯Ĩ": 1099,
      "¯ç¶ĵæ¿Ł": 1100,
      "¯èĥ½": 1101,
      "¯æĺ¯": 1102,
      "°ĩ": 1103,
      "°æľĥ": 1104,
      "°AI": 1105,
      "±º": 1106,
      "±ķ": 1107,
      "±ä¹": 1108,
      "±æ½": 1109,
      "²¹": 1110,
      "²å¤": 1111,
      "²è¡Į": 1112,
      "²åĪ©éĽ£": 1113,
      "³´": 1114,
      "³»": 1115,
      "³é»ŀ": 1116,
      "³åĥ": 1117,
      "´é": 1118,
      "´ı": 1119,
      "´ä¸": 1120,
      "´éĩ": 1121,
      "´éł": 1122,
      "´éĩĳèŀį": 1123,
      "´²å¤": 1124,
      "µç": 1125,
      "¶ħ": 1126,
      "¶ä¸Ģ": 1127,
      "¶åĶ": 1128,
      "·»": 1129,
      "·å®": 1130,
      "·åħ": 1131,
      "·¥å": 1132,
      "·®è·": 1133,
      "¸å": 1134,
      "¸æĸ": 1135,
      "¹ĥ": 1136,
      "¹è®Ĭ": 1137,
      "ºæ": 1138,
      "ºè": 1139,
      "ºªåħĥ": 1140,
      "»ç": 1141,
      "»åł´": 1142,
      "»è¦": 1143,
      "»éģ": 1144,
      "»èĢ": 1145,
      "»å°İ": 1146,
      "¼ë": 1147,
      "¼ķ": 1148,
      "¼è¿": 1149,
      "¼éĢļèĨ¨èĢ": 1150,
      "¼²è¡Į": 1151,
      "½¹": 1152,
      "½ī": 1153,
      "½Ĭ": 1154,
      "½ç¶ĵ": 1155,
      "½èŃī": 1156,
      "¾Ĺ": 1157,
      "¾è¡": 1158,
      "¾åĪĨ": 1159,
      "¿ĥ": 1160,
      "¿Ķ": 1161,
      "¿èģ¯": 1162,
      "¿å¸": 1163,
      "¿æ²": 1164,
      "âĢ": 1165,
      "âĶ": 1166,
      "åĴ": 1167,
      "åŃ": 1168,
      "å¿ħ": 1169,
      "å¯Ĩ": 1170,
      "å·®è·": 1171,
      "å½¹": 1172,
      "æĢ": 1173,
      "æĦ": 1174,
      "æī": 1175,
      "æĿ": 1176,
      "æł": 1177,
      "æİ¨": 1178,
      "æĿ±": 1179,
      "æ¯Ķ": 1180,
      "æ£®": 1181,
      "æ¦ľ": 1182,
      "æ¨Ĥ": 1183,
      "æ«ĥ": 1184,
      "æ¬Ĭ": 1185,
      "æ±º": 1186,
      "æ·»": 1187,
      "æ¼²è¡Į": 1188,
      "çĦ": 1189,
      "çĨ": 1190,
      "çī": 1191,
      "çĭ": 1192,
      "çį": 1193,
      "çĳ": 1194,
      "çĴ": 1195,
      "çĸ": 1196,
      "çĻ": 1197,
      "çŀ": 1198,
      "ç§ĳ": 1199,
      "ç¨ħ": 1200,
      "ç³»": 1201,
      "ç¹ĥ": 1202,
      "çºªåħĥ": 1203,
      "ç¿Ķ": 1204,
      "èı": 1205,
      "è£ľ": 1206,
      "è«ĸ": 1207,
      "è¬Ŀ": 1208,
      "è´ı": 1209,
      "è¶ħ": 1210,
      "éħ": 1211,
      "éĭ": 1212,
      "éĮ": 1213,
      "éĺ": 1214,
      "éľ": 1215,
      "é¡§": 1216,
      "é¢±": 1217,
      "é£Ĩ": 1218,
      "é¦Ļ": 1219,
      "ìĦ": 1220,
      "ìĿ": 1221,
      "ì¡°": 1222,
      "Ġ$": 1223,
      "Ġ3": 1224,
      "Ġ4": 1225,
      "Ġ:": 1226,
      "ĠU": 1227,
      "Ġg": 1228,
      "ĠéĢļèĨ¨": 1229,
      "Ġèģ¯": 1230,
      "ĠæĪ°çĪŃ": 1231,
      "Ġas": 1232,
      "ĠæĹ": 1233,
      "Ġæĺ": 1234,
      "Ġé¢¨": 1235,
      "Ġèģ¯æºĸæľĥ": 1236,
      "Ġge": 1237,
      "Ġä¹": 1238,
      "ĠéĿ": 1239,
      "Ġ07": 1240,
      "ĠIran": 1241,
      "ĠKey": 1242,
      "Ġæ°": 1243,
      "ĠæĽ´": 1244,
      "Ġ2026": 1245,
      "ĠHa": 1246,
      "ĠKicks": 1247,
      "ĠLoom": 1248,
      "Ġhas": 1249,
      "ĠæĦ": 1250,
      "Ġé¦Ļ": 1251,
      "Ġì¡°": 1252,
      "Ģæĸ°": 1253,
      "ĢéĢļèĨ¨": 1254,
      "Ģé«ĺ": 1255,
      "ĢçĤ": 1256,
      "Ģå°ĩ": 1257,
      "ģéĹľéįµ": 1258,
      "ģæ¥Ń": 1259,
      "ģéĢļèĨ¨èĢ": 1260,
      "Ĥé£Ĩ": 1261,
      "ĥä»": 1262,
      "ĥä¼°": 1263,
      "ĥé©": 1264,
      "ĥç¶ĵæ¿Łæķ¸æĵļ": 1265,
      "ĥå±Ģ": 1266,
      "ĥçŀ": 1267,
      "Ħçĥ": 1268,
      "ħéł": 1269,
      "ħåı°èĤ¡": 1270,
      "ħåĪ©éĽ£": 1271,
      "Ĩè²¡": 1272,
      "Ĩæģ": 1273,
      "ĨæĪ°çĪŃ": 1274,
      "Ĩåħĥ": 1275,
      "ĨåĲĳ": 1276,
      "ĨçĻ": 1277,
      "ĩĥ": 1278,
      "ĩī": 1279,
      "Īæĸ°èģŀç¶²": 1280,
      "Īæ³¢": 1281,
      "Ī¾è¡": 1282,
      "īåħ": 1283,
      "īç«": 1284,
      "īéĭ": 1285,
      "Ĭł": 1286,
      "Ĭå¸Ĥ": 1287,
      "ĬæĹ¥": 1288,
      "Ĭå°İ": 1289,
      "Ĭç¹ĥ": 1290,
      "ĭæĸ°èģŀ": 1291,
      "ĭæĶ": 1292,
      "ĭèĤ¡": 1293,
      "ĭè·": 1294,
      "ĭé»ĥéĩĳ": 1295,
      "ĭæ³ķèªª": 1296,
      "ĮF": 1297,
      "ĮæĻĤ": 1298,
      "ĮçļĦ": 1299,
      "Įåįĩæģ¯": 1300,
      "įéĢļèĨ¨": 1301,
      "įéĩĳ": 1302,
      "įåĪ": 1303,
      "įæģ¯": 1304,
      "įæĪĲ": 1305,
      "įæľī": 1306,
      "įä¸Ģåĳ¨åīįçŀ»": 1307,
      "İåł±": 1308,
      "İç¿Ķ": 1309,
      "İĥçŀ": 1310,
      "ıĪ": 1311,
      "ıæĪ°çĪŃ": 1312,
      "ıå¤ĸ": 1313,
      "ıæĽ´": 1314,
      "ĲæľŁ": 1315,
      "Ĳå¸Ĥåł´": 1316,
      "Ĳäº¤": 1317,
      "ĲåĬĩ": 1318,
      "Ĳĥç¶ĵæ¿Łæķ¸æĵļ": 1319,
      "ĳè¦ĸ": 1320,
      "ĳæħ": 1321,
      "ĳæ£®": 1322,
      "ĵºä¸": 1323,
      "ĶæĪ°": 1324,
      "Ķ³å": 1325,
      "Ķç³»": 1326,
      "ķçı¾": 1327,
      "ĸå±": 1328,
      "ĸçĳ": 1329,
      "ĹèŃ¦åĳĬ": 1330,
      "Ĺä¾": 1331,
      "ĺåĵ": 1332,
      "ĺåıĬ": 1333,
      "ĻçĶ": 1334,
      "Ļæľª": 1335,
      "Ļ¯æĺ¯": 1336,
      "Ļ¾åĪĨ": 1337,
      "Ļįæģ¯": 1338,
      "ļäºº": 1339,
      "ļç©º": 1340,
      "ļçĦ": 1341,
      "Ľī": 1342,
      "Ľè²¡ç¶ĵ": 1343,
      "Ľå¤§": 1344,
      "Ľè§Ģé»ŀ": 1345,
      "ĽåĬĽ": 1346,
      "Ľ¤ç": 1347,
      "Ľæ¨Ĥ": 1348,
      "ľå¾": 1349,
      "Ŀå®": 1350,
      "ŀľ": 1351,
      "ŀå»¶": 1352,
      "ŀå¯Ĩ": 1353,
      "Ł³": 1354,
      "ŁæľŁ": 1355,
      "ŁèĪĩAI": 1356,
      "łæģ¯": 1357,
      "łä½İ": 1358,
      "ł´éĩĳèŀį": 1359,
      "łìĿ": 1360,
      "Ńĸ": 1361,
      "ŃĨè": 1362,
      "ongress": 1363,
      "onfl": 1364,
      "onds": 1365,
      "ä¸Ńåľĭ": 1366,
      "inan": 1367,
      "æľĢæĸ°": 1368,
      "æľĽæ¨Ĥ": 1369,
      "ard": 1370,
      "art": 1371,
      "arch": 1372,
      "arrow": 1373,
      "éĢĨè": 1374,
      "éĢĨåĲĳ": 1375,
      "éĢĻçĶ": 1376,
      "éĢŁèĪĩAI": 1377,
      "èģ½èŃī": 1378,
      "èģļçĦ": 1379,
      "Ġtone": 1380,
      "Ġtrad": 1381,
      "Ġtestimony": 1382,
      "æĪĲæ": 1383,
      "æĪ´ä¸": 1384,
      "eep": 1385,
      "è²§å¯Į": 1386,
      "è²´éĩ": 1387,
      "è²»èĢ": 1388,
      "éĢļèĨ¨æķ¸æĵļ": 1389,
      "éĢļèĨ¨åĨ": 1390,
      "éĢļèĨ¨GDP": 1391,
      "éĢļèĨ¨å£ĵ": 1392,
      "éĢļèĨ¨æİ¨": 1393,
      "ĠThis": 1394,
      "ĠTri": 1395,
      "ĠTone": 1396,
      "ĠTSM": 1397,
      "ĠTrad": 1398,
      "ĠTestimony": 1399,
      "ĠThings": 1400,
      "lative": 1401,
      "Ġå¢¨": 1402,
      "ĠåķĨ": 1403,
      "Ġå®¢æĸ°èģŀ": 1404,
      "Ġå°ĩ": 1405,
      "Ġå±ķ": 1406,
      "Ġå·¥å": 1407,
      "ĠåĬł": 1408,
      "edia": 1409,
      "°çĲĥç¶ĵæ¿Łæķ¸æĵļ": 1410,
      "ç¾İéĬĢ": 1411,
      "ç¾İéĹľéįµ": 1412,
      "ç¾İåħĥ": 1413,
      "Ġsh": 1414,
      "Ġsing": 1415,
      "Ġset": 1416,
      "Ġsit": 1417,
      "Ġseason": 1418,
      "Ġshape": 1419,
      "Ġspeeches": 1420,
      "Ġstay": 1421,
      "ank": 1422,
      "ingKey": 1423,
      "Fedä»": 1424,
      "Fedä¸į": 1425,
      "Fedåįĩæģ¯": 1426,
      "FedæĪĸ": 1427,
      "Fedéĩįç": 1428,
      "FedèŃī": 1429,
      "Invest": 1430,
      "åľįä¸Ģåĳ¨åīįçŀ»": 1431,
      "ict": 1432,
      "ical": 1433,
      "icial": 1434,
      "ĠCPI": 1435,
      "ĠCha": 1436,
      "ĠChin": 1437,
      "ĠCLAR": 1438,
      "ĠCongress": 1439,
      "Ġdecision": 1440,
      "ĠInter": 1441,
      "all": 1442,
      "orld": 1443,
      "ĠSent": 1444,
      "ĠSeason": 1445,
      "ĠShape": 1446,
      "ĠSpeeches": 1447,
      "islative": 1448,
      "åįĬå°İ": 1449,
      "åı¯èĥ½": 1450,
      "æģĲåĬĩ": 1451,
      "ĠWhat": 1452,
      "ĠWill": 1453,
      "ĠWatch": 1454,
      "ĠWorld": 1455,
      "Ńæĵºä¸": 1456,
      "ŃæĽī": 1457,
      "etfl": 1458,
      "ĠAIæĬķè³ĩ": 1459,
      "ĠArrive": 1460,
      "æĶ»ç": 1461,
      "æĶ¿æ²": 1462,
      "æĶĢé«ĺ": 1463,
      "ä¸Ģå¸": 1464,
      "ä¸ĢéĢ±": 1465,
      "æľĥå±": 1466,
      "æľĥåįĩæģ¯": 1467,
      "æľĥç¾İåľĭ": 1468,
      "æľĥèģ½èŃī": 1469,
      "éĩĳåĥ¹": 1470,
      "éĩĳæ²": 1471,
      "éĩĳä¸Ĭ": 1472,
      "èĤ¡å¸Ĥ": 1473,
      "Ġoil": 1474,
      "Ġout": 1475,
      "AIéĢļèĨ¨": 1476,
      "AIè³ĩ": 1477,
      "AIçĨ": 1478,
      "ä¼ģæ¥Ń": 1479,
      "å¤ļç©º": 1480,
      "å®Ļ": 1481,
      "å®ĺåĵ": 1482,
      "å¸Ńåľĭ": 1483,
      "åħ¨çĲĥ": 1484,
      "åħ©åł´": 1485,
      "åħ·åħ": 1486,
      "æķĹ": 1487,
      "æķ´éł": 1488,
      "ĠET": 1489,
      "ĠEconomic": 1490,
      "ĠExpec": 1491,
      "Ġä¸īç«": 1492,
      "Ġä¸Ĭå¸Ĥ": 1493,
      "æĪ°çģ«": 1494,
      "åľĭéļ": 1495,
      "åľĭå¤ĸ": 1496,
      "ĠDecision": 1497,
      "ĠDIGIT": 1498,
      "ĠMay": 1499,
      "ĠMoney": 1500,
      "é«Ķé": 1501,
      "é«Ķç³»": 1502,
      "éĽ¶åĶ": 1503,
      "éĽĨçĻ": 1504,
      "ĠBri": 1505,
      "ĠBitcoin": 1506,
      "ĠBloom": 1507,
      "ĠBonds": 1508,
      "ĠBarch": 1509,
      "ĠBank": 1510,
      "Ġwit": 1511,
      "Ġwatch": 1512,
      "Ġwave": 1513,
      "įçĩĥ": 1514,
      "įçĽ¤ç": 1515,
      "įçŃĸ": 1516,
      "ãĢį:": 1517,
      "ãĢį?": 1518,
      "ãĢįâĶ": 1519,
      "åįĩæº": 1520,
      "æĪ°çĪŃåĲ": 1521,
      "æĪ°çĪŃéļ": 1522,
      "æĪ°çĪŃè¡Ŀçªģ": 1523,
      "èĪĩçı¾": 1524,
      "èĪĩæ¶Ī": 1525,
      "èĪĩéĬĢè¡Įè²¡åł±": 1526,
      "èĪĩFedèŃī": 1527,
      "Ġoff": 1528,
      "ecoin": 1529,
      "itical": 1530,
      "ä»£": 1531,
      "ä»ĬæĹ¥": 1532,
      "ä»įæľī": 1533,
      "ä»ĸå±": 1534,
      "ä»ĺåıĬ": 1535,
      "å°įçŃĸ": 1536,
      "å»£åł´": 1537,
      "å»ºè": 1538,
      "å»łä½İ": 1539,
      "å¹´ä½İ": 1540,
      "å¹´åºķ": 1541,
      "å¹´æ¸Ľ": 1542,
      "ç´ħåĪ©éĽ£": 1543,
      "è§Ĵ": 1544,
      "ç¶ĵæ¿ŁæĪĸ": 1545,
      "ç¶ĵæ¿ŁåĽŀ": 1546,
      "iment": 1547,
      "åĲį": 1548,
      "åĲĪæĸ°èģŀç¶²": 1549,
      "æĬµç": 1550,
      "æĬĢéĢļèĨ¨": 1551,
      "æĵįçĽ¤ç": 1552,
      "èª°æľĥ": 1553,
      "èª¿å¸": 1554,
      "èªįåĪ": 1555,
      "è·¯": 1556,
      "andard": 1557,
      "è¡Įç©º": 1558,
      "é«ĺè©ķ": 1559,
      "é«ĺåĪ©çİĩ": 1560,
      "æĹ¥åįĬå°İ": 1561,
      "è§Ģæ¸": 1562,
      "ĠFX": 1563,
      "ĠFree": 1564,
      "ĠFig": 1565,
      "ĠFinan": 1566,
      "Ġahead": 1567,
      "Ġby": 1568,
      "Ġband": 1569,
      "Ġbill": 1570,
      "Ġla": 1571,
      "Ġleg": 1572,
      "ĠStock": 1573,
      "ĠStreet": 1574,
      "ĠStandard": 1575,
      "å±¬æľŁ": 1576,
      "åĬłæģ¯": 1577,
      "çĽ¤åīįæ": 1578,
      "éģĶ": 1579,
      "éģ©æ": 1580,
      "Ġfact": 1581,
      "Ġno": 1582,
      "Ġnarrow": 1583,
      "Ġprogress": 1584,
      "ĭçģ«": 1585,
      "ĭçĻ¾åĪĨ": 1586,
      "ĭçŁ³": 1587,
      "Ĳæ²¹": 1588,
      "Ĳæ´²å¤": 1589,
      "ļĦéĹľéįµ": 1590,
      "ä¸įèĥ½": 1591,
      "ä¸įéľ": 1592,
      "æĪ°æ©Ł": 1593,
      "ç¾İèĤ¡è²¡åł±": 1594,
      "åı°æµ": 1595,
      "åĥ¹ä½": 1596,
      "åĥ¹ç´ħåĪ©éĽ£": 1597,
      "çı¾æĭ": 1598,
      "çı¾åĪĨ": 1599,
      "éĹľç¨ħ": 1600,
      "æķ¸æĵļåīįç": 1601,
      "æ¸¯ç¶ĵæ¿Ł": 1602,
      "æĺŁæľŁ": 1603,
      "æĻĤåł±": 1604,
      "æĻĤè«ĸ": 1605,
      "æĻĤä»£": 1606,
      "çİĭæ³ķèªª": 1607,
      "è©ŀå¯Ĩ": 1608,
      "è®Ĭçı¾æĭ": 1609,
      "é¢¨éĢļèĨ¨GDP": 1610,
      "ĠJPMor": 1611,
      "ĠOver": 1612,
      "ĠOthe": 1613,
      "Ġconfl": 1614,
      "Ġkicks": 1615,
      "Ġkeep": 1616,
      "ĥ½æľī": 1617,
      "æľªèĥ½": 1618,
      "æľªä¾": 1619,
      "æľªå¿ħ": 1620,
      "è¡Ŀçªģæľªèĥ½": 1621,
      "å¤§éĩįç": 1622,
      "å¤§æ¯Ķ": 1623,
      "å¤§å»łä½İ": 1624,
      "æ³¢è´ı": 1625,
      "åįĩæģ¯æĬµç": 1626,
      "è¦ĸè§Ĵ": 1627,
      "æĬķè³ĩæ©Ł": 1628,
      "å¸Ĥåł´èµ°": 1629,
      "å¸Ĥåł´æľ¬éĢ±": 1630,
      "å¸Ĥåł´è§Ģæ¸": 1631,
      "çĽĽæľĥå±": 1632,
      "èģ¯æºĸæľĥåĪ©çİĩ": 1633,
      "èģ¯æºĸæľĥå®ĺåĵ": 1634,
      "èģ¯æºĸæľĥåĬłæģ¯": 1635,
      "ĠGDP": 1636,
      "ĠGauge": 1637,
      "ĠGover": 1638,
      "ºåķĨ": 1639,
      "ºå¼ķ": 1640,
      "ºå¾Ĺ": 1641,
      "ä¹ħ": 1642,
      "åĢ¼è¿": 1643,
      "åĢĭèĤ¡": 1644,
      "åĢĭçĻ¾åĪĨ": 1645,
      "åĤĳæ£®": 1646,
      "åĵ¥éģĬèīĩ": 1647,
      "åĵģéĢļèĨ¨èĢ": 1648,
      "åĽĽå¤§": 1649,
      "æ²ĥä»": 1650,
      "æıŃ": 1651,
      "æıĲäº¤": 1652,
      "æıŃæĽī": 1653,
      "æĽĿå®": 1654,
      "çĤºä¸": 1655,
      "çĤ¸æĸ": 1656,
      "çĩĴ": 1657,
      "çĲĨè²¡": 1658,
      "éĸĵ": 1659,
      "éĸĭçģ«": 1660,
      "éłŃæĵºä¸": 1661,
      "ĠNews": 1662,
      "ĠNOW": 1663,
      "ĠNetfl": 1664,
      "Ĩè¥²": 1665,
      "Ĭå¹´æľªå¿ħ": 1666,
      "ķĨæĻĤåł±": 1667,
      "ä¸ĬåįĬå¹´": 1668,
      "ä¸Ĭè¡Įç©º": 1669,
      "æľ¬æĶ¯": 1670,
      "æĪĲéĹľéįµ": 1671,
      "æĪĲçĤºä¸": 1672,
      "ç¾İåľĭæł": 1673,
      "ç¾İä¼ĬåĨį": 1674,
      "äº¤æĪ°": 1675,
      "äº¤ä»ĺåıĬ": 1676,
      "ä¼°ä¸ŃæĿ±": 1677,
      "ä¼°å¹´åºķ": 1678,
      "å¤ĸåľįä¸Ģåĳ¨åīįçŀ»": 1679,
      "å°ĩå£ĵ": 1680,
      "å°ĩæıŃæĽī": 1681,
      "åĲĳçı¾åĪĨ": 1682,
      "åĲĳæĪĲéĹľéįµ": 1683,
      "é«ĺçĽĽä¼°å¹´åºķ": 1684,
      "ä½İéĢļèĨ¨": 1685,
      "è©ķä¼°ä¸ŃæĿ±": 1686,
      "İ¨åįĩæĸ°ä¸Ģæ³¢éĢļèĨ¨": 1687,
      "İ¨åįĩçī": 1688,
      "İ¨åįĩç¾İåľĭæł": 1689,
      "åĩºç¸": 1690,
      "åĩºå¸Ńåľĭ": 1691,
      "æĨĤAIæĶ»ç": 1692,
      "ĠYahooèĤ¡å¸Ĥ": 1693,
      "ä¸ŃæĿ±å±Ģ": 1694,
      "ä¸ŃæĿ±æĪ°çģ«": 1695,
      "åĪ©çİĩæĪĲçĤºä¸": 1696,
      "Stock": 1697,
      "Street": 1698,
      "ures": 1699,
      "Ġrate": 1700,
      "...": 1701,
      "0713": 1702,
      "CPIæķ¸æĵļåīįç": 1703,
      "ITY": 1704,
      "opol": 1705,
      "opedia": 1706,
      "¯Ķæĥ": 1707,
      "¿ħå°ĩå£ĵ": 1708,
      "ä¿¡è©ķ": 1709,
      "ä¿Ħçĥ": 1710,
      "å¾ĮçļĦ": 1711,
      "å¯ĮçĲĨè²¡": 1712,
      "åºķæıĲäº¤": 1713,
      "æµ®æ¿": 1714,
      "æ½ĽåĬĽ": 1715,
      "æĥħ": 1716,
      "æħĭæĶ": 1717,
      "æĭ¼": 1718,
      "æĴĲå¸Ĥåł´": 1719,
      "æĴĲæ²¹": 1720,
      "æŃ§": 1721,
      "æŃĲæ´²å¤": 1722,
      "æ¶Īæģ¯": 1723,
      "ç·©": 1724,
      "ç·Ĭç¹ĥ": 1725,
      "ç¸½ç¶ĵ": 1726,
      "çĥĪæ³¢": 1727,
      "é©ļäºº": 1728,
      "ĠPPI": 1729,
      "ĠProgress": 1730,
      "Ġç¶ĵæ¿ŁæĹ¥åł±": 1731,
      "Ġupdat": 1732,
      "Ķé½Ĭ": 1733,
      "ä¸īè®Ĭæķ¸": 1734,
      "ä¸īå¤§éĩįç": 1735,
      "ä¸ĭåįĬå¹´": 1736,
      "ä¸ĭæ³¢è´ı": 1737,
      "æľĪåºķæıĲäº¤": 1738,
      "è²¨éĩĳä¸Ĭ": 1739,
      "éĢļèĨ¨èĪĩéĽ¶åĶ": 1740,
      "éĢļèĨ¨èĪĩåĪ©çİĩæĪĲçĤºä¸": 1741,
      "ĠToday": 1742,
      "Ġåħ¨çĲĥ": 1743,
      "Ġåħ§åľ": 1744,
      "Ġå¤§åŀĭ": 1745,
      "Ġå¤§çºªåħĥ": 1746,
      "åľ°ç·£æĶ¿æ²": 1747,
      "åľ°ç·£è¡Ŀçªģæľªèĥ½": 1748,
      "ĠInvestor": 1749,
      "ĠInvestopedia": 1750,
      "alysts": 1751,
      "æģĲæİ¨åįĩç¾İåľĭæł": 1752,
      "æģĲæ¯Ķæĥ": 1753,
      "é»ĥéĩĳåĥ¹ä½": 1754,
      "ĠAnd": 1755,
      "ĠAnalysts": 1756,
      "æĶ¯æĴĲæ²¹": 1757,
      "æĶ¾æ¦ľ": 1758,
      "æĶ¾ç·©": 1759,
      "å®ļåĭĿ": 1760,
      "å®ļéĮ": 1761,
      "Ġä¸Ńåľĭæķ´éł": 1762,
      "Ġä¸Ńåľĭç¶ĵæ¿ŁæĪĸ": 1763,
      "èĪĩAIå»ºè": 1764,
      "å»¶çĩĴ": 1765,
      "ç´ļæĺŁæľŁ": 1766,
      "ç´ļæµ®æ¿": 1767,
      "éĢ±äºĮ": 1768,
      "éĢ±äºĶé½Ĭ": 1769,
      "ç¶ĵæ¿Łæķ¸æĵļæ²ĥä»": 1770,
      "åĭ¢èĪĩéĬĢè¡Įè²¡åł±": 1771,
      "åĭķåĲĳæĪĲéĹľéįµ": 1772,
      "åĭĿåĩº": 1773,
      "æĹ¥åł±HK": 1774,
      "åīįæĻ¯æĺ¯": 1775,
      "åĬĩè²§å¯Į": 1776,
      "åĬĽåĨįèµ·": 1777,
      "æĪ°äºĭåĨįèµ·": 1778,
      "æĪ°äºĭèĪĩAIå»ºè": 1779,
      "ä¼ĬæľĹæĪ°çĪŃè¡Ŀçªģ": 1780,
      "ä¼ĬæľĹæĪ°äºĭèĪĩAIå»ºè": 1781,
      "æ¸ĽéĢŁèĪĩAI": 1782,
      "æĺ¯ä¸ĭæ³¢è´ı": 1783,
      "èµ°åĲĳçı¾åĪĨ": 1784,
      "ĠOfficial": 1785,
      "æ³ķäººè§Ģé»ŀ": 1786,
      "æ³ķäººæĽĿå®": 1787,
      "æ³ķèªªå¤ļç©º": 1788,
      "Ġmarketscree": 1789,
      "åĽŀè·Į": 1790,
      "æľ¬éĢ±æĵįçĽ¤ç": 1791,
      "ç¾İä¼Ĭè¡ĿçªģçļĦ": 1792,
      "ç¾İä¼Ĭè¡Ŀçªģåįĩæº": 1793,
      "é«ĺçĽĽèŃ¦åĳĬä¼ģæ¥Ń": 1794,
      "éĬĢè¡Įè²¡åł±èĪĩFedèŃī": 1795,
      "åŀĭæħĭæĶ": 1796,
      "ĠReports": 1797,
      "FedæĨĤAIåŁºå»ºæ": 1798,
      "FedæĨĤAIåŁºå»ºå¼ķ": 1799,
      "åı°ç©įéĽ»æĶ¾æ¦ľ": 1800,
      "åı°ç©įéĽ»æ³ķèªªå¤ļç©º": 1801,
      "éĩĳèŀįèĤ¡": 1802,
      "ç´Ĳç´ĦæľŁéĩĳèĪĩçı¾": 1803,
      "ç´Ĳç´ĦæľŁéĩĳåĽŀè·Į": 1804,
      "éģĬèīĩäº¤ä»ĺåıĬ": 1805,
      "ç¾İèĤ¡è¿İè¶ħ": 1806,
      "çĩŁæĶ¶å¹´æ¸Ľ": 1807,
      "çĩŁæĶ¶èªįåĪ": 1808,
      "tao": 1809,
      "Ġanalyst": 1810,
      "Ġamid": 1811,
      "ĠJuly": 1812,
      "Ġcrude": 1813,
      "1895": 1814,
      "ASMLåıĬ": 1815,
      "Bursa": 1816,
      "Cè·Įåĥ¹ç´ħåĪ©éĽ£": 1817,
      "Dalal": 1818,
      "Geopol": 1819,
      "Heav": 1820,
      "IMES": 1821,
      "MORE": 1822,
      "PCEéģĶ": 1823,
      "blecoin": 1824,
      "berg": 1825,
      "contro": 1826,
      "efing": 1827,
      "gger": 1828,
      "kkaNews": 1829,
      "look": 1830,
      "newsä»ĬæĹ¥": 1831,
      "national": 1832,
      "¡å°įéĢļèĨ¨": 1833,
      "£ħç¶ĵæ¿Łæķ¸æĵļæ²ĥä»": 1834,
      "£éĸĭè·": 1835,
      "¥éĻįæģ¯": 1836,
      "¦¦éĢļèĨ¨": 1837,
      "¦ç¾İåľĭä¸īå¤§éĩįç": 1838,
      "¨Ńæİ¨åįĩçī": 1839,
      "©åŁĶæĪ°": 1840,
      "ªå®¢å®¶": 1841,
      "«åħ¼éĢļèĨ¨èĢ": 1842,
      "¬ç«Ļ": 1843,
      "®ä¸»å°İ": 1844,
      "®åıįæĪĲ": 1845,
      "®è¡ĮæĨĤAIæĶ»ç": 1846,
      "®æ°´é": 1847,
      "¯çĪ¾è¡": 1848,
      "°AIçĽĽæľĥå±": 1849,
      "±ä¹ĭçŁ³": 1850,
      "±æ½®åıįæĪĲ": 1851,
      "²åĪ©éĽ£æĴĲå¸Ĥåł´": 1852,
      "³é»ŀåĲį": 1853,
      "³åĥıæĽ´": 1854,
      "¶ä¸Ģè·¯": 1855,
      "·å®īåħ": 1856,
      "¸å¿ĥ": 1857,
      "¹è®Ĭå¾ĮçļĦ": 1858,
      "»è¦ģéĹľéįµ": 1859,
      "»éģŀå»¶": 1860,
      "¼ë³´": 1861,
      "¿èģ¯éħ": 1862,
      "âĢĻ": 1863,
      "åĴĮF": 1864,
      "åŃ£éĸĭè·": 1865,
      "å·®è·Ŀ": 1866,
      "æĢ¥éĻįæģ¯": 1867,
      "æīĭ": 1868,
      "æĿİç¿Ķ": 1869,
      "æĿ±åĵ¥éģĬèīĩ": 1870,
      "æ¬Ĭçİĭæ³ķèªª": 1871,
      "æ±ºå®ļåĭĿ": 1872,
      "æ·»è®Ĭæķ¸": 1873,
      "æ¼²è¡Įæĥħ": 1874,
      "çĭĤé£Ĩ": 1875,
      "çį²åĪ©éĽ£æĴĲå¸Ĥåł´": 1876,
      "çĴ°çĲĥç¶ĵæ¿Łæķ¸æĵļ": 1877,
      "çĸĳæħ": 1878,
      "ç§ĳæĬĢéĢļèĨ¨": 1879,
      "èı¯çĪ¾è¡": 1880,
      "è£ľæ¼²è¡Įæĥħ": 1881,
      "è¬Ŀéĩĳæ²": 1882,
      "éĺ¿èģ¯éħ": 1883,
      "é¢±é¢¨éĢļèĨ¨GDP": 1884,
      "ìĦłìĿ": 1885,
      "ĠéĢļèĨ¨çĸĳæħ": 1886,
      "Ġèģ¯åĲĪæĸ°èģŀç¶²": 1887,
      "ĠæĪ°çĪŃåŀĭæħĭæĶ": 1888,
      "ĠæĹºå¾Ĺ": 1889,
      "Ġæĺİåł±": 1890,
      "Ġé¢¨åĤ³åªĴ": 1891,
      "Ġgear": 1892,
      "Ġä¹Ļæľª": 1893,
      "ĠéĿľå¾": 1894,
      "Ġæ°ĳè¦ĸ": 1895,
      "ĠæĽ´ä¸įéľ": 1896,
      "Ġ20260713": 1897,
      "ĠHakkaNews": 1898,
      "ĠLooms": 1899,
      "ĠæĦıå¤ĸ": 1900,
      "Ġé¦Ļæ¸¯ç¶ĵæ¿Ł": 1901,
      "Ġì¡°ìĦłìĿ": 1902,
      "ĢçĤºåķĨ": 1903,
      "Ģå°ĩåĩºå¸Ńåľĭ": 1904,
      "ĥä¼°åĢ¼è¿": 1905,
      "ĥé©Ĺä¾": 1906,
      "ĥå±Ģä¸įèĥ½": 1907,
      "ħéłĲæľŁ": 1908,
      "ħåı°èĤ¡æ¬Ĭçİĭæ³ķèªª": 1909,
      "Ĩæģ©åŁĶæĪ°": 1910,
      "ĨæĪ°çĪŃèª°æľĥ": 1911,
      "Ĩåħĥæ½ĽåĬĽ": 1912,
      "ĩīæ±ºå®ļåĭĿ": 1913,
      "īéĭ¸": 1914,
      "ĭé»ĥéĩĳå¸Ĥåł´æľ¬éĢ±": 1915,
      "ĮæĻĤé©ļäºº": 1916,
      "įéĩĳå±¬æľŁ": 1917,
      "İĥçŀĦ": 1918,
      "ıæĪ°çĪŃå»¶çĩĴ": 1919,
      "Ķ³å¿ħå°ĩå£ĵ": 1920,
      "ķçı¾æľĢæĸ°": 1921,
      "ĸçĳĽè§Ģé»ŀ": 1922,
      "ł´éĩĳèŀįé«Ķç³»": 1923,
      "ŃĨè¨ĺ": 1924,
      "ä¸ŃåľĭGDP": 1925,
      "æľĽæ¨Ĥè§Ģ": 1926,
      "éĢĨè½ī": 1927,
      "éĢĨåĲĳæĬķè³ĩæ©Ł": 1928,
      "éĢĻçĶ¢æ¥Ń": 1929,
      "èģļçĦ¦ç¾İåľĭä¸īå¤§éĩįç": 1930,
      "Ġtrade": 1931,
      "æĪĲæŀľ": 1932,
      "æĪ´ä¸ĸçĳĽè§Ģé»ŀ": 1933,
      "è²´éĩįéĩĳå±¬æľŁ": 1934,
      "è²»èĢħéłĲæľŁ": 1935,
      "éĢļèĨ¨åĨįçĩĥ": 1936,
      "éĢļèĨ¨å£ĵåĬĽåĨįèµ·": 1937,
      "éĢļèĨ¨æİ¨æīĭ": 1938,
      "ĠTrigger": 1939,
      "ĠTSMC": 1940,
      "ĠTradingKey": 1941,
      "Ġå¢¨æĸ°èģŀ": 1942,
      "ĠåķĨåĤ³åªĴ": 1943,
      "Ġå°ĩæĺ¯ä¸ĭæ³¢è´ı": 1944,
      "Ġå±ķæľĽæ¨Ĥè§Ģ": 1945,
      "Ġå·¥åķĨæĻĤåł±": 1946,
      "ĠåĬłåĬĩè²§å¯Į": 1947,
      "ç¾İéĬĢæıŃ": 1948,
      "ç¾İéĹľéįµéĢļèĨ¨èĪĩéĽ¶åĶ": 1949,
      "ç¾İåħĥçĭĤé£Ĩ": 1950,
      "Ġsingtao": 1951,
      "Ġsituation": 1952,
      "Fedä»Ĭå¹´æľªå¿ħ": 1953,
      "Fedä¸įæĢ¥éĻįæģ¯": 1954,
      "FedæĪĸåįĩæģ¯æĬµç": 1955,
      "FedéĩįçĶ³å¿ħå°ĩå£ĵ": 1956,
      "Investors": 1957,
      "ĠChair": 1958,
      "ĠChina": 1959,
      "ĠCLARITY": 1960,
      "ĠInternational": 1961,
      "ĠSentiment": 1962,
      "æģĲåĬĩçĥĪæ³¢": 1963,
      "ĠAIæĬķè³ĩèĪĩæ¶Ī": 1964,
      "ä¸Ģå¸¶ä¸Ģè·¯": 1965,
      "ä¸ĢéĢ±ç¶ĵæ¿ŁåĽŀ": 1966,
      "æľĥç¾İåľĭéĩĳèŀįèĤ¡": 1967,
      "Ġoutlook": 1968,
      "AIè³ĩæľ¬æĶ¯": 1969,
      "AIçĨ±æ½®åıįæĪĲ": 1970,
      "åħ¨çĲĥå¸Ĥåł´è§Ģæ¸": 1971,
      "åħ©åł´æĪ°çĪŃåĲ": 1972,
      "åħ·åħĨåħĥæ½ĽåĬĽ": 1973,
      "ĠExpect": 1974,
      "Ġä¸īç«ĭæĸ°èģŀ": 1975,
      "Ġä¸Ĭå¸Ĥæ«ĥ": 1976,
      "åľĭéļĽè²¡ç¶ĵ": 1977,
      "åľĭå¤ĸæ¶Īæģ¯": 1978,
      "ĠDIGITIMES": 1979,
      "ĠMoneycontro": 1980,
      "é«ĶéıĪ": 1981,
      "éĽĨçĻ»åł´": 1982,
      "ĠBriefing": 1983,
      "ĠBloomberg": 1984,
      "ĠBarchart": 1985,
      "Ġwithin": 1986,
      "ãĢįâĶĢ": 1987,
      "æĪ°çĪŃéļĨæģ©åŁĶæĪ°": 1988,
      "ä»įæľīä¸Ĭè¡Įç©º": 1989,
      "ä»ĸå±±ä¹ĭçŁ³": 1990,
      "å¹´ä½İé»ŀ": 1991,
      "èª¿å¸ĥå±Ģä¸įèĥ½": 1992,
      "é«ĺè©ķç´ļæµ®æ¿": 1993,
      "é«ĺåĪ©çİĩæĻĤä»£": 1994,
      "æĹ¥åįĬå°İé«ĶéıĪ": 1995,
      "ĠFigures": 1996,
      "ĠFinance": 1997,
      "Ġbillion": 1998,
      "Ġlegislative": 1999,
      "çĽ¤åīįæİĥçŀĦ": 2000,
      "éģ©æĩīæ±ºå®ļåĭĿ": 2001,
      "Ġfactors": 2002,
      "ļĦéĹľéįµé¢¨éļª": 2003,
      "æĪ°æ©ŁåĴĮF": 2004,
      "ç¾İèĤ¡è²¡åł±åŃ£éĸĭè·": 2005,
      "åı°æµ·å®īåħ": 2006,
      "æĻĤè«ĸå»£åł´": 2007,
      "è©ŀå¯ĨéĽĨçĻ»åł´": 2008,
      "è®Ĭçı¾æĭīéĭ¸": 2009,
      "ĠJPMorgan": 2010,
      "ĠOther": 2011,
      "Ġconflict": 2012,
      "ĥ½æľīåı¯èĥ½": 2013,
      "æľªä¾ĨæĪ°çĪŃèª°æľĥ": 2014,
      "å¤§æ¯Ķæĭ¼": 2015,
      "å¸Ĥåł´èµ°åĭ¢": 2016,
      "èģ¯æºĸæľĥåĬłæģ¯é¢¨éļª": 2017,
      "ĠGovernment": 2018,
      "åĢĭçĻ¾åĪĨé»ŀ": 2019,
      "åĤĳæ£®è¦ĸè§Ĵ": 2020,
      "åĵģéĢļèĨ¨èĢĮåįĩæģ¯": 2021,
      "çĤ¸æĸ·": 2022,
      "éłŃæĵºä¸ªå®¢å®¶": 2023,
      "ĠNOWnewsä»ĬæĹ¥": 2024,
      "ĠNetflix": 2025,
      "ä¸ĬåįĬå¹´çĩŁæĶ¶å¹´æ¸Ľ": 2026,
      "ç¾İä¼ĬåĨįéĸĭçģ«": 2027,
      "åĩºç¸®æ°´é": 2028,
      "ä¿¡è©ķéĢļèĨ¨": 2029,
      "ä¿ĦçĥıæĪ°çĪŃå»¶çĩĴ": 2030,
      "å¯ĮçĲĨè²¡ç¶²": 2031,
      "æŃĲæ´²å¤®è¡ĮæĨĤAIæĶ»ç": 2032,
      "ç·Ĭç¹ĥéĢ±äºĮ": 2033,
      "ç¸½ç¶ĵæ¸ĽéĢŁèĪĩAI": 2034,
      "Ġupdates": 2035,
      "ä¸īè®Ĭæķ¸å°ĩæıŃæĽī": 2036,
      "æľĪåºķæıĲäº¤å°įçŃĸ": 2037,
      "è²¨éĩĳä¸ĬéĢ±äºĶé½Ĭ": 2038,
      "Ġåħ¨çĲĥè²¡ç¶ĵ": 2039,
      "Ġåħ§åľ°AIçĽĽæľĥå±": 2040,
      "Ġå¤§åŀĭéĬĢè¡Į": 2041,
      "åľ°ç·£æĶ¿æ²»éģŀå»¶": 2042,
      "æģĲæİ¨åįĩç¾İåľĭæł¸å¿ĥ": 2043,
      "æģĲæ¯Ķæĥ³åĥıæĽ´": 2044,
      "é»ĥéĩĳåĥ¹ä½į": 2045,
      "æĶ¯æĴĲæ²¹åĥ¹": 2046,
      "å®ļéĮ¨": 2047,
      "Ġä¸Ńåľĭæķ´éłĵ": 2048,
      "Ġä¸Ńåľĭç¶ĵæ¿ŁæĪĸæĶ¾ç·©": 2049,
      "ç´ļæĺŁæľŁä¸Ģ": 2050,
      "æĹ¥åł±HKET": 2051,
      "åīįæĻ¯æĺ¯ç¾İèĤ¡éĿ¢èĩ¨": 2052,
      "èµ°åĲĳçı¾åĪĨæŃ§": 2053,
      "ĠOfficially": 2054,
      "æ³ķäººæĽĿå®ĥä¼°åĢ¼è¿": 2055,
      "Ġmarketscreener": 2056,
      "æľ¬éĢ±æĵįçĽ¤çŃĨè¨ĺ": 2057,
      "çĩŁæĶ¶èªįåĪĹ": 2058,
      "ASMLåıĬåı°ç©įéĽ»æĶ¾æ¦ľ": 2059,
      "Cè·Įåĥ¹ç´ħåĪ©éĽ£çı¾": 2060,
      "Geopolitical": 2061,
      "Heavy": 2062,
      "¨Ńæİ¨åįĩçī©åĥ¹": 2063,
      "«åħ¼éĢļèĨ¨èĢĥé©Ĺä¾": 2064,
      "®ä¸»å°İå¸Ĥåł´èµ°åĭ¢": 2065,
      "¹è®Ĭå¾ĮçļĦåı°æµ·å®īåħ": 2066,
      "æĿİç¿Ķå®Ļ": 2067,
      "ç§ĳæĬĢéĢļèĨ¨æĶĢé«ĺ": 2068,
      "èı¯çĪ¾è¡ĹèŃ¦åĳĬ": 2069,
      "è¬Ŀéĩĳæ²³é»ŀåĲį": 2070,
      "ĠæĹºå¾Ĺå¯ĮçĲĨè²¡ç¶²": 2071,
      "Ġæĺİåł±æĸ°èģŀç¶²": 2072,
      "Ġæ°ĳè¦ĸæĸ°èģŀç¶²": 2073,
      "ĠæĽ´ä¸įéľĢçĤºåķĨ": 2074,
      "ĠæĦıå¤ĸçĤ¸æĸ·": 2075,
      "Ġé¦Ļæ¸¯ç¶ĵæ¿ŁæĹ¥åł±HKET": 2076,
      "Ġì¡°ìĦłìĿ¼ë³´": 2077,
      "Ģå°ĩåĩºå¸Ńåľĭæľĥèģ½èŃī": 2078,
      "ĮæĻĤé©ļäººéĢĨè½ī": 2079,
      "ķçı¾æľĢæĸ°æĪĲæŀľ": 2080,
      "éĢĨåĲĳæĬķè³ĩæ©Łæľĥ": 2081,
      "è²´éĩįéĩĳå±¬æľŁè²¨": 2082,
      "è²»èĢħéłĲæľŁæ·»è®Ĭæķ¸": 2083,
      "Ġå°ĩæĺ¯ä¸ĭæ³¢è´ıå®¶": 2084,
      "ĠåĬłåĬĩè²§å¯Įå·®è·Ŀ": 2085,
      "æģĲåĬĩçĥĪæ³¢åĭķ": 2086,
      "ä¸ĢéĢ±ç¶ĵæ¿ŁåĽŀé¡§": 2087,
      "AIè³ĩæľ¬æĶ¯åĩºç¸®æ°´é": 2088,
      "åħ¨çĲĥå¸Ĥåł´è§Ģæ¸¬ç«Ļ": 2089,
      "ĠMoneycontrol": 2090,
      "æĪ°çĪŃéļĨæģ©åŁĶæĪ°å½¹": 2091,
      "ä»įæľīä¸Ĭè¡Įç©ºéĸĵ": 2092,
      "èª¿å¸ĥå±Ģä¸įèĥ½èªª": 2093,
      "é«ĺè©ķç´ļæµ®æ¿«": 2094,
      "éģ©æĩīæ±ºå®ļåĭĿæķĹ": 2095,
      "ç¾İèĤ¡è²¡åł±åŃ£éĸĭè·ĳ": 2096,
      "ĠNOWnewsä»ĬæĹ¥æĸ°èģŀ": 2097,
      "è²¨éĩĳä¸ĬéĢ±äºĶé½Ĭè·Į": 2098,
      "æģĲæ¯Ķæĥ³åĥıæĽ´ä¹ħ": 2099,
      "æ³ķäººæĽĿå®ĥä¼°åĢ¼è¿ĳ": 2100,
      "«åħ¼éĢļèĨ¨èĢĥé©Ĺä¾Ĩè¥²": 2101,
      "¹è®Ĭå¾ĮçļĦåı°æµ·å®īåħ¨": 2102
    },
    "merges": [
      [
        "o",
        "n"
      ],
      [
        "a",
        "t"
      ],
      [
        "ã",
        "Ģ"
      ],
      [
        "ä",
        "¸"
      ],
      [
        "i",
        "n"
      ],
      [
        "Ġ",
        "-"
      ],
      [
        "ç",
        "¶"
      ],
      [
        "æ",
        "ľ"
      ],
      [
        "a",
        "r"
      ],
      [
        "é",
        "Ģ"
      ],
      [
        "è",
        "ģ"
      ],
      [
        "e",
        "s"
      ],
      [
        "Ġ",
        "t"
      ],
      [
        "æ",
        "Ī"
      ],
      [
        "i",
        "on"
      ],
      [
        "æ",
        "ĸ"
      ],
      [
        "æĸ",
        "°"
      ],
      [
        "e",
        "e"
      ],
      [
        "å",
        "ł"
      ],
      [
        "è",
        "²"
      ],
      [
        "è",
        "Ĩ"
      ],
      [
        "ļ",
        "èĨ"
      ],
      [
        "éĢ",
        "ļèĨ"
      ],
      [
        "éĢļèĨ",
        "¨"
      ],
      [
        "Ġ",
        "T"
      ],
      [
        "ç¶",
        "ĵ"
      ],
      [
        "l",
        "at"
      ],
      [
        "Ġ",
        "å"
      ],
      [
        "e",
        "d"
      ],
      [
        "°",
        "ç"
      ],
      [
        "¾",
        "İ"
      ],
      [
        "ç",
        "¾İ"
      ],
      [
        "Ġ",
        "s"
      ],
      [
        "ç¶",
        "²"
      ],
      [
        "èģ",
        "ŀ"
      ],
      [
        "æĸ°",
        "èģŀ"
      ],
      [
        "a",
        "n"
      ],
      [
        "at",
        "a"
      ],
      [
        "in",
        "g"
      ],
      [
        "lat",
        "ion"
      ],
      [
        "F",
        "ed"
      ],
      [
        "I",
        "n"
      ],
      [
        "f",
        "lation"
      ],
      [
        "å",
        "ľ"
      ],
      [
        "é",
        "ĩ"
      ],
      [
        "è²",
        "¡"
      ],
      [
        "i",
        "c"
      ],
      [
        "Ġ",
        "C"
      ],
      [
        "Ġ",
        "d"
      ],
      [
        "h",
        "e"
      ],
      [
        "o",
        "m"
      ],
      [
        "ä",
        "º"
      ],
      [
        "Ġ",
        "In"
      ],
      [
        "a",
        "l"
      ],
      [
        "o",
        "r"
      ],
      [
        "Ġ",
        "S"
      ],
      [
        "ee",
        "k"
      ],
      [
        "i",
        "s"
      ],
      [
        "å",
        "į"
      ],
      [
        "å",
        "ı"
      ],
      [
        "æ",
        "ģ"
      ],
      [
        "è",
        "¡"
      ],
      [
        "é",
        "»"
      ],
      [
        "Ġ",
        "W"
      ],
      [
        "Ń",
        "æ"
      ],
      [
        "èģ",
        "¯"
      ],
      [
        "e",
        "r"
      ],
      [
        "e",
        "t"
      ],
      [
        "Ġ",
        "A"
      ],
      [
        "æ",
        "Ķ"
      ],
      [
        "è",
        "Ĥ"
      ],
      [
        "ãĢ",
        "ģ"
      ],
      [
        "ä¸",
        "Ģ"
      ],
      [
        "æľ",
        "ĥ"
      ],
      [
        "ing",
        "s"
      ],
      [
        "éĩ",
        "ĳ"
      ],
      [
        "èĤ",
        "¡"
      ],
      [
        "Ġ",
        "o"
      ],
      [
        "Ġt",
        "o"
      ],
      [
        "A",
        "I"
      ],
      [
        "n",
        "ings"
      ],
      [
        "ä",
        "¼"
      ],
      [
        "å",
        "¤"
      ],
      [
        "å",
        "®"
      ],
      [
        "å",
        "¸"
      ],
      [
        "å",
        "ħ"
      ],
      [
        "æ",
        "ķ"
      ],
      [
        "Ġ",
        "E"
      ],
      [
        "Ġ",
        "ä¸"
      ],
      [
        "Ļ",
        "Ĥ"
      ],
      [
        "ar",
        "nings"
      ],
      [
        "æĪ",
        "°ç"
      ],
      [
        "åł",
        "±"
      ],
      [
        "åł",
        "´"
      ],
      [
        "åľ",
        "ĭ"
      ],
      [
        "è²¡",
        "ç¶ĵ"
      ],
      [
        "é»",
        "ŀ"
      ],
      [
        "Ġ",
        "D"
      ],
      [
        "Ġ",
        "M"
      ],
      [
        "Ġ",
        "in"
      ],
      [
        "å",
        "Ī"
      ],
      [
        "æ",
        "³"
      ],
      [
        "æ",
        "¿"
      ],
      [
        "è",
        "Ī"
      ],
      [
        "é",
        "«"
      ],
      [
        "é",
        "Ľ"
      ],
      [
        "Ġ",
        "B"
      ],
      [
        "Ġ",
        "w"
      ],
      [
        "Ī",
        "Ń"
      ],
      [
        "į",
        "ç"
      ],
      [
        "ãĢ",
        "Į"
      ],
      [
        "ãĢ",
        "į"
      ],
      [
        "æĸ°èģŀ",
        "ç¶²"
      ],
      [
        "Ġd",
        "ata"
      ],
      [
        "åį",
        "ĩ"
      ],
      [
        "æĪ°ç",
        "ĪŃ"
      ],
      [
        "èĪ",
        "ĩ"
      ],
      [
        "a",
        "y"
      ],
      [
        "h",
        "is"
      ],
      [
        "i",
        "l"
      ],
      [
        "Ġo",
        "f"
      ],
      [
        "U",
        "S"
      ],
      [
        "a",
        "s"
      ],
      [
        "e",
        "c"
      ],
      [
        "e",
        "y"
      ],
      [
        "i",
        "t"
      ],
      [
        "¯",
        "Į"
      ],
      [
        "¹",
        "´"
      ],
      [
        "ä",
        "»"
      ],
      [
        "å",
        "°"
      ],
      [
        "å",
        "»"
      ],
      [
        "å",
        "¹´"
      ],
      [
        "æ",
        "Ĺ"
      ],
      [
        "ç",
        "´"
      ],
      [
        "è",
        "¦"
      ],
      [
        "è",
        "§"
      ],
      [
        "éĢ",
        "±"
      ],
      [
        "ç¶ĵ",
        "æ¿"
      ],
      [
        "ĠIn",
        "flation"
      ],
      [
        "æģ",
        "¯"
      ],
      [
        "æķ",
        "¸"
      ],
      [
        "ç¶ĵæ¿",
        "Ł"
      ],
      [
        "i",
        "m"
      ],
      [
        "Ġ",
        "m"
      ],
      [
        "Ġt",
        "his"
      ],
      [
        "a",
        "d"
      ],
      [
        "c",
        "om"
      ],
      [
        "e",
        "n"
      ],
      [
        "k",
        "et"
      ],
      [
        "r",
        "o"
      ],
      [
        "å",
        "ĥ"
      ],
      [
        "å",
        "ĭ"
      ],
      [
        "å",
        "Ĳ"
      ],
      [
        "æ",
        "Ĭ"
      ],
      [
        "æ",
        "ĵ"
      ],
      [
        "è",
        "ª"
      ],
      [
        "è",
        "·"
      ],
      [
        "Ġ",
        "US"
      ],
      [
        "ar",
        "ket"
      ],
      [
        "an",
        "d"
      ],
      [
        "è¡",
        "Į"
      ],
      [
        "å¸",
        "Ĥ"
      ],
      [
        "Ġin",
        "flation"
      ],
      [
        "é«",
        "ĺ"
      ],
      [
        "æĹ",
        "¥"
      ],
      [
        "è§",
        "Ģ"
      ],
      [
        "c",
        "h"
      ],
      [
        "e",
        "w"
      ],
      [
        "r",
        "i"
      ],
      [
        "Ġ",
        "F"
      ],
      [
        "Ġ",
        "a"
      ],
      [
        "Ġ",
        "b"
      ],
      [
        "Ġ",
        "l"
      ],
      [
        "es",
        "t"
      ],
      [
        "ĠS",
        "t"
      ],
      [
        "i",
        "a"
      ],
      [
        "v",
        "e"
      ],
      [
        "¢",
        "¨"
      ],
      [
        "³",
        "ĩ"
      ],
      [
        "å",
        "±"
      ],
      [
        "å",
        "ī"
      ],
      [
        "å",
        "Ĭ"
      ],
      [
        "å",
        "ĳ"
      ],
      [
        "æ",
        "º"
      ],
      [
        "ç",
        "ı"
      ],
      [
        "ç",
        "Ľ"
      ],
      [
        "è",
        "ĩ"
      ],
      [
        "è",
        "Ń"
      ],
      [
        "è",
        "³ĩ"
      ],
      [
        "é",
        "ģ"
      ],
      [
        "é",
        "Ĺ"
      ],
      [
        "Ġ",
        "f"
      ],
      [
        "Ġ",
        "n"
      ],
      [
        "Ġ",
        "p"
      ],
      [
        "ĭ",
        "ç"
      ],
      [
        "Ĳ",
        "æ"
      ],
      [
        "ļ",
        "Ħ"
      ],
      [
        "ä¸",
        "į"
      ],
      [
        "æľ",
        "Ł"
      ],
      [
        "es",
        "s"
      ],
      [
        "æĪ",
        "°"
      ],
      [
        "Ġå",
        "¯Į"
      ],
      [
        "ç¾İ",
        "èĤ¡"
      ],
      [
        "äº",
        "º"
      ],
      [
        "åı",
        "°"
      ],
      [
        "ĠW",
        "eek"
      ],
      [
        "Ńæ",
        "ĻĤ"
      ],
      [
        "èģ¯",
        "ç¶²"
      ],
      [
        "ä¼",
        "Ĭ"
      ],
      [
        "Ġä¸",
        "ŃæĻĤ"
      ],
      [
        "ĠD",
        "ata"
      ],
      [
        "åĪ",
        "©"
      ],
      [
        "æķ¸",
        "æĵ"
      ],
      [
        "åĥ",
        "¹"
      ],
      [
        "ew",
        "s"
      ],
      [
        "çı",
        "¾"
      ],
      [
        "éĹ",
        "ľ"
      ],
      [
        "Ġå¯Į",
        "èģ¯ç¶²"
      ],
      [
        "Ġä¸ŃæĻĤ",
        "æĸ°èģŀç¶²"
      ],
      [
        "æķ¸æĵ",
        "ļ"
      ],
      [
        "v",
        "er"
      ],
      [
        "Ġw",
        "eek"
      ],
      [
        "P",
        "I"
      ],
      [
        "e",
        "arnings"
      ],
      [
        "i",
        "d"
      ],
      [
        "l",
        "y"
      ],
      [
        "o",
        "o"
      ],
      [
        "r",
        "ee"
      ],
      [
        "s",
        "h"
      ],
      [
        "ª",
        "ģ"
      ],
      [
        "®",
        "Ĭ"
      ],
      [
        "ä",
        "½"
      ],
      [
        "å",
        "Ĩ"
      ],
      [
        "æ",
        "¸"
      ],
      [
        "æ",
        "ĺ"
      ],
      [
        "æ",
        "ĻĤ"
      ],
      [
        "ç",
        "İ"
      ],
      [
        "ç",
        "Ķ"
      ],
      [
        "ç",
        "ļĦ"
      ],
      [
        "ç",
        "ªģ"
      ],
      [
        "è",
        "©"
      ],
      [
        "è",
        "µ"
      ],
      [
        "è",
        "®Ĭ"
      ],
      [
        "é",
        "Ĭ"
      ],
      [
        "é",
        "į"
      ],
      [
        "é",
        "ļ"
      ],
      [
        "é",
        "¢¨"
      ],
      [
        "Ġ",
        "J"
      ],
      [
        "Ġ",
        "O"
      ],
      [
        "Ġ",
        "c"
      ],
      [
        "Ġ",
        "k"
      ],
      [
        "Ġ",
        "and"
      ],
      [
        "Ġ",
        "earnings"
      ],
      [
        "ĥ",
        "½"
      ],
      [
        "İ",
        "¨"
      ],
      [
        "ķ",
        "è³ĩ"
      ],
      [
        "ĸ",
        "æľĥ"
      ],
      [
        "Ŀ",
        "±"
      ],
      [
        "Ŀ",
        "çªģ"
      ],
      [
        "Ń",
        "åľĭ"
      ],
      [
        "on",
        "om"
      ],
      [
        "æľ",
        "ª"
      ],
      [
        "ar",
        "sh"
      ],
      [
        "ĠT",
        "he"
      ],
      [
        "he",
        "ad"
      ],
      [
        "è¡",
        "Ŀçªģ"
      ],
      [
        "èģ¯",
        "æº"
      ],
      [
        "å¤",
        "§"
      ],
      [
        "ĠE",
        "arnings"
      ],
      [
        "æ³",
        "¢"
      ],
      [
        "æ³",
        "ķ"
      ],
      [
        "éĽ",
        "»"
      ],
      [
        "åįĩ",
        "æģ¯"
      ],
      [
        "è¦",
        "ĸ"
      ],
      [
        "Ġm",
        "arket"
      ],
      [
        "æĬ",
        "ķè³ĩ"
      ],
      [
        "å¸Ĥ",
        "åł´"
      ],
      [
        "è§Ģ",
        "é»ŀ"
      ],
      [
        "çĽ",
        "Ľ"
      ],
      [
        "Ġf",
        "or"
      ],
      [
        "éĹľ",
        "éį"
      ],
      [
        "éĬ",
        "Ģ"
      ],
      [
        "onom",
        "ic"
      ],
      [
        "èģ¯æº",
        "ĸæľĥ"
      ],
      [
        "éĹľéį",
        "µ"
      ],
      [
        "1",
        "0"
      ],
      [
        "c",
        "t"
      ],
      [
        "l",
        "d"
      ],
      [
        "u",
        "n"
      ],
      [
        "Ġ",
        "G"
      ],
      [
        "on",
        "e"
      ],
      [
        "ĠT",
        "im"
      ],
      [
        "1",
        "3"
      ],
      [
        "2",
        "0"
      ],
      [
        "D",
        "P"
      ],
      [
        "Y",
        "a"
      ],
      [
        "c",
        "e"
      ],
      [
        "c",
        "k"
      ],
      [
        "g",
        "e"
      ],
      [
        "g",
        "r"
      ],
      [
        "h",
        "a"
      ],
      [
        "h",
        "oo"
      ],
      [
        "o",
        "in"
      ],
      [
        "r",
        "ic"
      ],
      [
        "u",
        "p"
      ],
      [
        "u",
        "t"
      ],
      [
        "v",
        "est"
      ],
      [
        "¦",
        "åĳ"
      ],
      [
        "ª",
        "çĶ"
      ],
      [
        "±",
        "è²¡ç¶ĵ"
      ],
      [
        "³",
        "å"
      ],
      [
        "º",
        "å"
      ],
      [
        "ä",
        "¹"
      ],
      [
        "å",
        "Ģ"
      ],
      [
        "å",
        "Ĥ"
      ],
      [
        "å",
        "ĩ"
      ],
      [
        "å",
        "ĵ"
      ],
      [
        "å",
        "Ķ"
      ],
      [
        "å",
        "Ľ"
      ],
      [
        "å",
        "Ł"
      ],
      [
        "æ",
        "²"
      ],
      [
        "æ",
        "Ĩ"
      ],
      [
        "æ",
        "ı"
      ],
      [
        "æ",
        "Ľ"
      ],
      [
        "ç",
        "Ĥ"
      ],
      [
        "ç",
        "ĩ"
      ],
      [
        "ç",
        "Ĳ"
      ],
      [
        "è",
        "¿"
      ],
      [
        "è",
        "Ģ"
      ],
      [
        "è",
        "ĥ½"
      ],
      [
        "é",
        "ĸ"
      ],
      [
        "é",
        "Ŀ"
      ],
      [
        "é",
        "ł"
      ],
      [
        "Ġ",
        "N"
      ],
      [
        "Ġ",
        "Q"
      ],
      [
        "Ġ",
        "Fed"
      ],
      [
        "Ġ",
        "ec"
      ],
      [
        "Ġ",
        "èĩ"
      ],
      [
        "Ġ",
        "Ya"
      ],
      [
        "Ĥ",
        "AI"
      ],
      [
        "Ĩ",
        "è"
      ],
      [
        "Ĭ",
        "å¹´"
      ],
      [
        "ķ",
        "Ĩ"
      ],
      [
        "on",
        "ey"
      ],
      [
        "ãĢ",
        "ĭ"
      ],
      [
        "ä¸",
        "Ĭ"
      ],
      [
        "ä¸",
        "Ńæ"
      ],
      [
        "æľ",
        "¬"
      ],
      [
        "æĪ",
        "Ĳ"
      ],
      [
        "ç¾İ",
        "åľĭ"
      ],
      [
        "ç¾İ",
        "ä¼Ĭ"
      ],
      [
        "è²¡",
        "åł±"
      ],
      [
        "äº",
        "¤"
      ],
      [
        "ĠA",
        "head"
      ],
      [
        "ä¼",
        "°"
      ],
      [
        "å¤",
        "ĸ"
      ],
      [
        "åħ",
        "ĥ"
      ],
      [
        "å°",
        "ĩ"
      ],
      [
        "en",
        "t"
      ],
      [
        "åĲ",
        "ĳ"
      ],
      [
        "èª",
        "ª"
      ],
      [
        "è·",
        "Į"
      ],
      [
        "é«ĺ",
        "çĽĽ"
      ],
      [
        "ri",
        "ve"
      ],
      [
        "åī",
        "įç"
      ],
      [
        "èŃ",
        "¦åĳ"
      ],
      [
        "Ġp",
        "ric"
      ],
      [
        "åĪ©",
        "çİ"
      ],
      [
        "ä½",
        "İ"
      ],
      [
        "åĨ",
        "į"
      ],
      [
        "è©",
        "ķ"
      ],
      [
        "İ¨",
        "åįĩ"
      ],
      [
        "éĬĢ",
        "è¡Į"
      ],
      [
        "ĠTim",
        "es"
      ],
      [
        "gr",
        "ess"
      ],
      [
        "ªçĶ",
        "±è²¡ç¶ĵ"
      ],
      [
        "åĩ",
        "º"
      ],
      [
        "æĨ",
        "ĤAI"
      ],
      [
        "Ġec",
        "onomic"
      ],
      [
        "Ġèĩ",
        "ªçĶ±è²¡ç¶ĵ"
      ],
      [
        "ĠYa",
        "hoo"
      ],
      [
        "ä¸Ńæ",
        "Ŀ±"
      ],
      [
        "èŃ¦åĳ",
        "Ĭ"
      ],
      [
        "Ġpric",
        "es"
      ],
      [
        "åĪ©çİ",
        "ĩ"
      ],
      [
        "S",
        "t"
      ],
      [
        "e",
        "as"
      ],
      [
        "h",
        "at"
      ],
      [
        "p",
        "or"
      ],
      [
        "r",
        "an"
      ],
      [
        "s",
        "t"
      ],
      [
        "u",
        "r"
      ],
      [
        "Ġ",
        "r"
      ],
      [
        "ĠA",
        "ct"
      ],
      [
        "il",
        "l"
      ],
      [
        "Ġm",
        "ay"
      ],
      [
        "20",
        "2"
      ],
      [
        "eas",
        "on"
      ],
      [
        "por",
        "t"
      ],
      [
        "'",
        "s"
      ],
      [
        ".",
        "."
      ],
      [
        "0",
        "7"
      ],
      [
        "A",
        "N"
      ],
      [
        "C",
        "PI"
      ],
      [
        "G",
        "o"
      ],
      [
        "G",
        "DP"
      ],
      [
        "I",
        "T"
      ],
      [
        "I",
        "ran"
      ],
      [
        "K",
        "ey"
      ],
      [
        "M",
        "oney"
      ],
      [
        "R",
        "e"
      ],
      [
        "S",
        "M"
      ],
      [
        "T",
        "W"
      ],
      [
        "W",
        "eek"
      ],
      [
        "W",
        "arsh"
      ],
      [
        "c",
        "n"
      ],
      [
        "d",
        "l"
      ],
      [
        "d",
        "ia"
      ],
      [
        "f",
        "f"
      ],
      [
        "f",
        "l"
      ],
      [
        "h",
        "in"
      ],
      [
        "i",
        "r"
      ],
      [
        "k",
        "s"
      ],
      [
        "l",
        "ar"
      ],
      [
        "o",
        "p"
      ],
      [
        "o",
        "lat"
      ],
      [
        "o",
        "om"
      ],
      [
        "o",
        "ck"
      ],
      [
        "p",
        "e"
      ],
      [
        "p",
        "ee"
      ],
      [
        "r",
        "ad"
      ],
      [
        "s",
        "in"
      ],
      [
        "s",
        "ion"
      ],
      [
        "s",
        "ia"
      ],
      [
        "u",
        "ge"
      ],
      [
        "u",
        "sin"
      ],
      [
        "v",
        "olat"
      ],
      [
        "y",
        "es"
      ],
      [
        "y",
        "st"
      ],
      [
        "¢",
        "èĩ"
      ],
      [
        "£",
        "ĵ"
      ],
      [
        "¤",
        "§"
      ],
      [
        "¥",
        "Ń"
      ],
      [
        "¨",
        "çĲ"
      ],
      [
        "¨",
        "åīįç"
      ],
      [
        "©",
        "º"
      ],
      [
        "©",
        "į"
      ],
      [
        "©",
        "Ł"
      ],
      [
        "ª",
        "Ĵ"
      ],
      [
        "¯",
        "Ķ"
      ],
      [
        "µ",
        "Ĥ"
      ],
      [
        "¶",
        "Ī"
      ],
      [
        "·",
        "£"
      ],
      [
        "º",
        "ķ"
      ],
      [
        "º",
        "ä¸"
      ],
      [
        "º",
        "å»"
      ],
      [
        "¿",
        "ħ"
      ],
      [
        "ä",
        "¾"
      ],
      [
        "ä",
        "¿"
      ],
      [
        "å",
        "¾"
      ],
      [
        "å",
        "ŀ"
      ],
      [
        "å",
        "¯Į"
      ],
      [
        "å",
        "£ĵ"
      ],
      [
        "å",
        "ºķ"
      ],
      [
        "æ",
        "°"
      ],
      [
        "æ",
        "µ"
      ],
      [
        "æ",
        "½"
      ],
      [
        "æ",
        "ĥ"
      ],
      [
        "æ",
        "ħ"
      ],
      [
        "æ",
        "ĭ"
      ],
      [
        "æ",
        "Ĵ"
      ],
      [
        "æ",
        "Ń"
      ],
      [
        "æ",
        "¥Ń"
      ],
      [
        "æ",
        "©Ł"
      ],
      [
        "æ",
        "¶Ī"
      ],
      [
        "ç",
        "«"
      ],
      [
        "ç",
        "·"
      ],
      [
        "ç",
        "¸"
      ],
      [
        "ç",
        "ĥ"
      ],
      [
        "ç",
        "ľ"
      ],
      [
        "ç",
        "©º"
      ],
      [
        "è",
        "ī"
      ],
      [
        "è",
        "ķ"
      ],
      [
        "è",
        "ŀ"
      ],
      [
        "é",
        "©"
      ],
      [
        "Ġ",
        "P"
      ],
      [
        "Ġ",
        "|"
      ],
      [
        "Ġ",
        "æĸ°"
      ],
      [
        "Ġ",
        "è²¡ç¶ĵ"
      ],
      [
        "Ġ",
        "ç¶ĵæ¿Ł"
      ],
      [
        "Ġ",
        "up"
      ],
      [
        "Ġ",
        "Re"
      ],
      [
        "Ġ",
        "volat"
      ],
      [
        "Ġ",
        "èķ"
      ],
      [
        "ģ",
        "«"
      ],
      [
        "ĥ",
        "æĸ°èģŀ"
      ],
      [
        "ĥ",
        "éĩĳ"
      ],
      [
        "Ħ",
        "æľŁ"
      ],
      [
        "Ĭ",
        "èī"
      ],
      [
        "ĭ",
        "ä¸į"
      ],
      [
        "į",
        "æ"
      ],
      [
        "Ĳ",
        "ç´"
      ],
      [
        "Ĳ",
        "äºº"
      ],
      [
        "Ķ",
        "é"
      ],
      [
        "ŀ",
        "»"
      ],
      [
        "Ł",
        "æĶ"
      ],
      [
        "on",
        "y"
      ],
      [
        "at",
        "ion"
      ],
      [
        "at",
        "ch"
      ],
      [
        "ãĢ",
        "Ī"
      ],
      [
        "ãĢ",
        "ī"
      ],
      [
        "ãĢ",
        "Ĭ"
      ],
      [
        "ãĢ",
        "Ĳ"
      ],
      [
        "ãĢ",
        "ĳ"
      ],
      [
        "ä¸",
        "ī"
      ],
      [
        "ä¸",
        "ĭ"
      ],
      [
        "æľ",
        "Ī"
      ],
      [
        "æľ",
        "ī"
      ],
      [
        "æľ",
        "Ĺ"
      ],
      [
        "Ġt",
        "he"
      ],
      [
        "Ġt",
        "en"
      ],
      [
        "æĪ",
        "ĸ"
      ],
      [
        "æĸ°",
        "ä¸Ģ"
      ],
      [
        "è²",
        "¨"
      ],
      [
        "éĢļèĨ¨",
        "èĪĩ"
      ],
      [
        "éĢļèĨ¨",
        "èĢ"
      ],
      [
        "ĠT",
        "o"
      ],
      [
        "Ġå",
        "ħ"
      ],
      [
        "Ġå",
        "¤§"
      ],
      [
        "°ç",
        "©į"
      ],
      [
        "°ç",
        "·£"
      ],
      [
        "Ġs",
        "il"
      ],
      [
        "Fed",
        "æĨĤAI"
      ],
      [
        "åľ",
        "°ç·£"
      ],
      [
        "éĩ",
        "įç"
      ],
      [
        "ic",
        "ks"
      ],
      [
        "ĠC",
        "Money"
      ],
      [
        "ĠC",
        "TW"
      ],
      [
        "Ġd",
        "rive"
      ],
      [
        "äº",
        "ĭ"
      ],
      [
        "ĠIn",
        "vest"
      ],
      [
        "ĠIn",
        "dia"
      ],
      [
        "al",
        "ay"
      ],
      [
        "al",
        "yst"
      ],
      [
        "or",
        "s"
      ],
      [
        "ĠS",
        "et"
      ],
      [
        "is",
        "ion"
      ],
      [
        "åį",
        "Ĭå¹´"
      ],
      [
        "åı",
        "Ĭ"
      ],
      [
        "åı",
        "°ç©į"
      ],
      [
        "æģ",
        "Ĳæ"
      ],
      [
        "é»",
        "ĥéĩĳ"
      ],
      [
        "ĠW",
        "arsh"
      ],
      [
        "ĠA",
        "n"
      ],
      [
        "æĶ",
        "¯"
      ],
      [
        "æĶ",
        "¾"
      ],
      [
        "ä¸Ģ",
        "åł´"
      ],
      [
        "ä¸Ģ",
        "åĳ"
      ],
      [
        "éĩĳ",
        "èŀ"
      ],
      [
        "å®",
        "¶"
      ],
      [
        "å®",
        "ļ"
      ],
      [
        "ĠE",
        "as"
      ],
      [
        "Ġä¸",
        "Ńåľĭ"
      ],
      [
        "è²¡ç¶ĵ",
        "éĢ±"
      ],
      [
        "é»ŀ",
        "çļĦ"
      ],
      [
        "ĠM",
        "arket"
      ],
      [
        "ĠM",
        "id"
      ],
      [
        "ĠM",
        "alay"
      ],
      [
        "åĪ",
        "Ĩ"
      ],
      [
        "éĽ",
        "£"
      ],
      [
        "ĠB",
        "usin"
      ],
      [
        "èĪĩ",
        "AI"
      ],
      [
        "il",
        "e"
      ],
      [
        "ec",
        "ision"
      ],
      [
        "it",
        "y"
      ],
      [
        "å°",
        "İ"
      ],
      [
        "å»",
        "¶"
      ],
      [
        "ç´",
        "ļ"
      ],
      [
        "ç´",
        "Ĳç´"
      ],
      [
        "è¦",
        "ĭç"
      ],
      [
        "éĢ±",
        "äº"
      ],
      [
        "ç¶ĵæ¿Ł",
        "æķ¸æĵļ"
      ],
      [
        "im",
        "ony"
      ],
      [
        "ro",
        "gress"
      ],
      [
        "åĭ",
        "¢"
      ],
      [
        "åĭ",
        "ķ"
      ],
      [
        "åĭ",
        "Ŀ"
      ],
      [
        "æĹ¥",
        "åł±"
      ],
      [
        "ch",
        "es"
      ],
      [
        "Ġb",
        "ut"
      ],
      [
        "Ġl",
        "i"
      ],
      [
        "est",
        "imony"
      ],
      [
        "ĠSt",
        "ar"
      ],
      [
        "å±",
        "Ģ"
      ],
      [
        "åī",
        "įæ"
      ],
      [
        "åĬ",
        "ĩ"
      ],
      [
        "åĬ",
        "Ľ"
      ],
      [
        "èŃ",
        "ī"
      ],
      [
        "éģ",
        "Ĭèī"
      ],
      [
        "Ġn",
        "ews"
      ],
      [
        "æĪ°",
        "äºĭ"
      ],
      [
        "ç¾İèĤ¡",
        "è¿"
      ],
      [
        "ç¾İèĤ¡",
        "éĿ"
      ],
      [
        "åı°",
        "èĤ¡"
      ],
      [
        "ä¼Ĭ",
        "æľĹ"
      ],
      [
        "åĪ©",
        "éĽ£"
      ],
      [
        "ree",
        "t"
      ],
      [
        "æ¸",
        "Ľ"
      ],
      [
        "æĺ",
        "¯"
      ],
      [
        "èµ",
        "°"
      ],
      [
        "èµ",
        "·"
      ],
      [
        "è®Ĭ",
        "æķ¸"
      ],
      [
        "éļ",
        "ª"
      ],
      [
        "é¢¨",
        "éļª"
      ],
      [
        "ĠO",
        "ff"
      ],
      [
        "Ġk",
        "ey"
      ],
      [
        "æ³¢",
        "éĢļèĨ¨"
      ],
      [
        "æ³ķ",
        "äºº"
      ],
      [
        "æ³ķ",
        "èªª"
      ],
      [
        "éĽ»",
        "è¦ĸ"
      ],
      [
        "Ġmarket",
        "s"
      ],
      [
        "æĬķè³ĩ",
        "è§Ģé»ŀ"
      ],
      [
        "ha",
        "pe"
      ],
      [
        "³å",
        "ªĴ"
      ],
      [
        "åĤ",
        "³åªĴ"
      ],
      [
        "åĶ",
        "Ĳäºº"
      ],
      [
        "åĽ",
        "ŀ"
      ],
      [
        "åŁ",
        "ºå»"
      ],
      [
        "æĽ",
        "´"
      ],
      [
        "çĩ",
        "ŁæĶ"
      ],
      [
        "æľ¬",
        "éĢ±"
      ],
      [
        "ç¾İä¼Ĭ",
        "è¡Ŀçªģ"
      ],
      [
        "é«ĺçĽĽ",
        "èŃ¦åĳĬ"
      ],
      [
        "åĨį",
        "èµ·"
      ],
      [
        "éĬĢè¡Į",
        "è²¡åł±"
      ],
      [
        "202",
        "6"
      ],
      [
        "AN",
        "T"
      ],
      [
        "Go",
        "ld"
      ],
      [
        "cn",
        "yes"
      ],
      [
        "dl",
        "e"
      ],
      [
        "pee",
        "ches"
      ],
      [
        "sion",
        "s"
      ],
      [
        "¢èĩ",
        "¨"
      ],
      [
        "¨çĲ",
        "ĥ"
      ],
      [
        "¨åīįç",
        "ŀ»"
      ],
      [
        "µĤ",
        "é»ŀçļĦ"
      ],
      [
        "åŀ",
        "ĭ"
      ],
      [
        "çľ",
        "ĭä¸į"
      ],
      [
        "Ġæĸ°",
        "åĶĲäºº"
      ],
      [
        "ĠRe",
        "port"
      ],
      [
        "Ġvolat",
        "ile"
      ],
      [
        "Ġèķ",
        "ĥæĸ°èģŀ"
      ],
      [
        "ĦæľŁ",
        "éĩĳ"
      ],
      [
        "Ġten",
        "sions"
      ],
      [
        "æĸ°ä¸Ģ",
        "æ³¢éĢļèĨ¨"
      ],
      [
        "Ġsil",
        "ver"
      ],
      [
        "FedæĨĤAI",
        "åŁºå»"
      ],
      [
        "ĠCTW",
        "ANT"
      ],
      [
        "åı°ç©į",
        "éĽ»"
      ],
      [
        "ä¸Ģåł´",
        "çľĭä¸į"
      ],
      [
        "ä¸Ģåĳ",
        "¨åīįçŀ»"
      ],
      [
        "éĩĳèŀ",
        "į"
      ],
      [
        "ĠEas",
        "t"
      ],
      [
        "è²¡ç¶ĵéĢ±",
        "åł±"
      ],
      [
        "ĠMarket",
        "s"
      ],
      [
        "ĠMid",
        "dle"
      ],
      [
        "ĠMalay",
        "sia"
      ],
      [
        "ĠBusin",
        "ess"
      ],
      [
        "ç´Ĳç´",
        "ĦæľŁéĩĳ"
      ],
      [
        "è¦ĭç",
        "µĤé»ŀçļĦ"
      ],
      [
        "éģĬèī",
        "ĩ"
      ],
      [
        "ç¾İèĤ¡è¿",
        "İ"
      ],
      [
        "ç¾İèĤ¡éĿ",
        "¢èĩ¨"
      ],
      [
        "éĽ»è¦ĸ",
        "åı°"
      ],
      [
        "çĩŁæĶ",
        "¶"
      ],
      [
        "Ġæĸ°åĶĲäºº",
        "éĽ»è¦ĸåı°"
      ],
      [
        "è¦ĭçµĤé»ŀçļĦ",
        "æĪ°çĪŃ"
      ],
      [
        "c",
        "oin"
      ],
      [
        "e",
        "ly"
      ],
      [
        "i",
        "g"
      ],
      [
        "k",
        "ely"
      ],
      [
        "o",
        "l"
      ],
      [
        "p",
        "t"
      ],
      [
        "r",
        "a"
      ],
      [
        "r",
        "y"
      ],
      [
        "t",
        "a"
      ],
      [
        "t",
        "er"
      ],
      [
        "Ġ",
        "an"
      ],
      [
        "at",
        "e"
      ],
      [
        "in",
        "ce"
      ],
      [
        "Ġs",
        "ince"
      ],
      [
        "ĠC",
        "lar"
      ],
      [
        "ĠC",
        "ry"
      ],
      [
        "it",
        "coin"
      ],
      [
        "ro",
        "w"
      ],
      [
        "Ġa",
        "m"
      ],
      [
        "ĠJ",
        "u"
      ],
      [
        "ĠJ",
        "un"
      ],
      [
        "Ġc",
        "r"
      ],
      [
        "Ġli",
        "kely"
      ],
      [
        "pt",
        "o"
      ],
      [
        "ĠClar",
        "ity"
      ],
      [
        "ĠCry",
        "pto"
      ],
      [
        "ĠJun",
        "e"
      ],
      [
        "1",
        "8"
      ],
      [
        "2",
        "2"
      ],
      [
        "3",
        "5"
      ],
      [
        "9",
        "5"
      ],
      [
        "A",
        "R"
      ],
      [
        "A",
        "SM"
      ],
      [
        "B",
        "ur"
      ],
      [
        "C",
        "E"
      ],
      [
        "C",
        "è·Į"
      ],
      [
        "D",
        "al"
      ],
      [
        "E",
        "S"
      ],
      [
        "E",
        "T"
      ],
      [
        "E",
        "arnings"
      ],
      [
        "G",
        "e"
      ],
      [
        "G",
        "IT"
      ],
      [
        "H",
        "K"
      ],
      [
        "H",
        "a"
      ],
      [
        "H",
        "e"
      ],
      [
        "H",
        "uge"
      ],
      [
        "I",
        "M"
      ],
      [
        "I",
        "æĬķè³ĩ"
      ],
      [
        "I",
        "GIT"
      ],
      [
        "K",
        "icks"
      ],
      [
        "L",
        "oom"
      ],
      [
        "L",
        "åıĬ"
      ],
      [
        "L",
        "AR"
      ],
      [
        "M",
        "O"
      ],
      [
        "M",
        "or"
      ],
      [
        "N",
        "ews"
      ],
      [
        "O",
        "W"
      ],
      [
        "P",
        "CE"
      ],
      [
        "P",
        "Mor"
      ],
      [
        "R",
        "E"
      ],
      [
        "T",
        "he"
      ],
      [
        "W",
        "hat"
      ],
      [
        "a",
        "v"
      ],
      [
        "a",
        "ve"
      ],
      [
        "a",
        "ct"
      ],
      [
        "a",
        "uge"
      ],
      [
        "a",
        "News"
      ],
      [
        "b",
        "l"
      ],
      [
        "b",
        "er"
      ],
      [
        "c",
        "a"
      ],
      [
        "c",
        "on"
      ],
      [
        "c",
        "ree"
      ],
      [
        "c",
        "onomic"
      ],
      [
        "d",
        "e"
      ],
      [
        "d",
        "s"
      ],
      [
        "d",
        "at"
      ],
      [
        "d",
        "ay"
      ],
      [
        "e",
        "f"
      ],
      [
        "e",
        "g"
      ],
      [
        "g",
        "g"
      ],
      [
        "g",
        "an"
      ],
      [
        "h",
        "ings"
      ],
      [
        "h",
        "as"
      ],
      [
        "i",
        "x"
      ],
      [
        "i",
        "al"
      ],
      [
        "i",
        "ve"
      ],
      [
        "k",
        "k"
      ],
      [
        "l",
        "oo"
      ],
      [
        "l",
        "oom"
      ],
      [
        "m",
        "ent"
      ],
      [
        "n",
        "er"
      ],
      [
        "n",
        "ews"
      ],
      [
        "n",
        "ation"
      ],
      [
        "n",
        "ment"
      ],
      [
        "o",
        "ver"
      ],
      [
        "o",
        "un"
      ],
      [
        "p",
        "ec"
      ],
      [
        "r",
        "rive"
      ],
      [
        "s",
        "a"
      ],
      [
        "t",
        "he"
      ],
      [
        "t",
        "ay"
      ],
      [
        "t",
        "ro"
      ],
      [
        "u",
        "m"
      ],
      [
        "u",
        "ation"
      ],
      [
        "u",
        "de"
      ],
      [
        "x",
        "pec"
      ],
      [
        "¡",
        "§"
      ],
      [
        "¡",
        "°"
      ],
      [
        "¡",
        "å°"
      ],
      [
        "¡",
        "è©ķ"
      ],
      [
        "¢",
        "±"
      ],
      [
        "¢",
        "æĸ°èģŀ"
      ],
      [
        "¢",
        "æ¥Ń"
      ],
      [
        "¢",
        "å®¶"
      ],
      [
        "£",
        "®"
      ],
      [
        "£",
        "ħ"
      ],
      [
        "£",
        "Ĩ"
      ],
      [
        "£",
        "ľ"
      ],
      [
        "£",
        "åł´"
      ],
      [
        "£",
        "éĸ"
      ],
      [
        "¤",
        "ç"
      ],
      [
        "¤",
        "åīįæ"
      ],
      [
        "¥",
        "²"
      ],
      [
        "¥",
        "å"
      ],
      [
        "¥",
        "é"
      ],
      [
        "¥",
        "éģĬèīĩ"
      ],
      [
        "¦",
        "¦"
      ],
      [
        "¦",
        "Ļ"
      ],
      [
        "¦",
        "ľ"
      ],
      [
        "¦",
        "ç¾İåľĭ"
      ],
      [
        "§",
        "ĳ"
      ],
      [
        "§",
        "åľ"
      ],
      [
        "§",
        "å¯Į"
      ],
      [
        "¨",
        "Ĥ"
      ],
      [
        "¨",
        "ħ"
      ],
      [
        "¨",
        "ĺ"
      ],
      [
        "¨",
        "Ńæ"
      ],
      [
        "©",
        "æ"
      ],
      [
        "©",
        "åł´"
      ],
      [
        "©",
        "åĥ¹"
      ],
      [
        "©",
        "åŁ"
      ],
      [
        "ª",
        "å®"
      ],
      [
        "ª",
        "åħĥ"
      ],
      [
        "«",
        "ĥ"
      ],
      [
        "«",
        "ĸ"
      ],
      [
        "«",
        "åħ"
      ],
      [
        "¬",
        "Ĭ"
      ],
      [
        "¬",
        "Ŀ"
      ],
      [
        "¬",
        "æľŁ"
      ],
      [
        "¬",
        "ç«"
      ],
      [
        "®",
        "ä¸"
      ],
      [
        "®",
        "åı"
      ],
      [
        "®",
        "æ¿"
      ],
      [
        "®",
        "è·"
      ],
      [
        "®",
        "è¡Į"
      ],
      [
        "®",
        "æķ¸æĵļ"
      ],
      [
        "®",
        "æ°"
      ],
      [
        "®",
        "¢æĸ°èģŀ"
      ],
      [
        "¯",
        "ç"
      ],
      [
        "¯",
        "Ĩ"
      ],
      [
        "¯",
        "ç¶ĵæ¿Ł"
      ],
      [
        "¯",
        "èĥ½"
      ],
      [
        "¯",
        "æĺ¯"
      ],
      [
        "°",
        "ĩ"
      ],
      [
        "°",
        "æľĥ"
      ],
      [
        "°",
        "AI"
      ],
      [
        "±",
        "º"
      ],
      [
        "±",
        "ķ"
      ],
      [
        "±",
        "ä¹"
      ],
      [
        "±",
        "æ½"
      ],
      [
        "²",
        "¹"
      ],
      [
        "²",
        "å¤"
      ],
      [
        "²",
        "è¡Į"
      ],
      [
        "²",
        "åĪ©éĽ£"
      ],
      [
        "³",
        "´"
      ],
      [
        "³",
        "»"
      ],
      [
        "³",
        "é»ŀ"
      ],
      [
        "³",
        "åĥ"
      ],
      [
        "´",
        "é"
      ],
      [
        "´",
        "ı"
      ],
      [
        "´",
        "ä¸"
      ],
      [
        "´",
        "éĩ"
      ],
      [
        "´",
        "éł"
      ],
      [
        "´",
        "éĩĳèŀį"
      ],
      [
        "´",
        "²å¤"
      ],
      [
        "µ",
        "ç"
      ],
      [
        "¶",
        "ħ"
      ],
      [
        "¶",
        "ä¸Ģ"
      ],
      [
        "¶",
        "åĶ"
      ],
      [
        "·",
        "»"
      ],
      [
        "·",
        "å®"
      ],
      [
        "·",
        "åħ"
      ],
      [
        "·",
        "¥å"
      ],
      [
        "·",
        "®è·"
      ],
      [
        "¸",
        "å"
      ],
      [
        "¸",
        "æĸ"
      ],
      [
        "¹",
        "ĥ"
      ],
      [
        "¹",
        "è®Ĭ"
      ],
      [
        "º",
        "æ"
      ],
      [
        "º",
        "è"
      ],
      [
        "º",
        "ªåħĥ"
      ],
      [
        "»",
        "ç"
      ],
      [
        "»",
        "åł´"
      ],
      [
        "»",
        "è¦"
      ],
      [
        "»",
        "éģ"
      ],
      [
        "»",
        "èĢ"
      ],
      [
        "»",
        "å°İ"
      ],
      [
        "¼",
        "ë"
      ],
      [
        "¼",
        "ķ"
      ],
      [
        "¼",
        "è¿"
      ],
      [
        "¼",
        "éĢļèĨ¨èĢ"
      ],
      [
        "¼",
        "²è¡Į"
      ],
      [
        "½",
        "¹"
      ],
      [
        "½",
        "ī"
      ],
      [
        "½",
        "Ĭ"
      ],
      [
        "½",
        "ç¶ĵ"
      ],
      [
        "½",
        "èŃī"
      ],
      [
        "¾",
        "Ĺ"
      ],
      [
        "¾",
        "è¡"
      ],
      [
        "¾",
        "åĪĨ"
      ],
      [
        "¿",
        "ĥ"
      ],
      [
        "¿",
        "Ķ"
      ],
      [
        "¿",
        "èģ¯"
      ],
      [
        "¿",
        "å¸"
      ],
      [
        "¿",
        "æ²"
      ],
      [
        "â",
        "Ģ"
      ],
      [
        "â",
        "Ķ"
      ],
      [
        "å",
        "Ĵ"
      ],
      [
        "å",
        "Ń"
      ],
      [
        "å",
        "¿ħ"
      ],
      [
        "å",
        "¯Ĩ"
      ],
      [
        "å",
        "·®è·"
      ],
      [
        "å",
        "½¹"
      ],
      [
        "æ",
        "Ģ"
      ],
      [
        "æ",
        "Ħ"
      ],
      [
        "æ",
        "ī"
      ],
      [
        "æ",
        "Ŀ"
      ],
      [
        "æ",
        "ł"
      ],
      [
        "æ",
        "İ¨"
      ],
      [
        "æ",
        "Ŀ±"
      ],
      [
        "æ",
        "¯Ķ"
      ],
      [
        "æ",
        "£®"
      ],
      [
        "æ",
        "¦ľ"
      ],
      [
        "æ",
        "¨Ĥ"
      ],
      [
        "æ",
        "«ĥ"
      ],
      [
        "æ",
        "¬Ĭ"
      ],
      [
        "æ",
        "±º"
      ],
      [
        "æ",
        "·»"
      ],
      [
        "æ",
        "¼²è¡Į"
      ],
      [
        "ç",
        "Ħ"
      ],
      [
        "ç",
        "Ĩ"
      ],
      [
        "ç",
        "ī"
      ],
      [
        "ç",
        "ĭ"
      ],
      [
        "ç",
        "į"
      ],
      [
        "ç",
        "ĳ"
      ],
      [
        "ç",
        "Ĵ"
      ],
      [
        "ç",
        "ĸ"
      ],
      [
        "ç",
        "Ļ"
      ],
      [
        "ç",
        "ŀ"
      ],
      [
        "ç",
        "§ĳ"
      ],
      [
        "ç",
        "¨ħ"
      ],
      [
        "ç",
        "³»"
      ],
      [
        "ç",
        "¹ĥ"
      ],
      [
        "ç",
        "ºªåħĥ"
      ],
      [
        "ç",
        "¿Ķ"
      ],
      [
        "è",
        "ı"
      ],
      [
        "è",
        "£ľ"
      ],
      [
        "è",
        "«ĸ"
      ],
      [
        "è",
        "¬Ŀ"
      ],
      [
        "è",
        "´ı"
      ],
      [
        "è",
        "¶ħ"
      ],
      [
        "é",
        "ħ"
      ],
      [
        "é",
        "ĭ"
      ],
      [
        "é",
        "Į"
      ],
      [
        "é",
        "ĺ"
      ],
      [
        "é",
        "ľ"
      ],
      [
        "é",
        "¡§"
      ],
      [
        "é",
        "¢±"
      ],
      [
        "é",
        "£Ĩ"
      ],
      [
        "é",
        "¦Ļ"
      ],
      [
        "ì",
        "Ħ"
      ],
      [
        "ì",
        "Ŀ"
      ],
      [
        "ì",
        "¡°"
      ],
      [
        "Ġ",
        "$"
      ],
      [
        "Ġ",
        "3"
      ],
      [
        "Ġ",
        "4"
      ],
      [
        "Ġ",
        ":"
      ],
      [
        "Ġ",
        "U"
      ],
      [
        "Ġ",
        "g"
      ],
      [
        "Ġ",
        "éĢļèĨ¨"
      ],
      [
        "Ġ",
        "èģ¯"
      ],
      [
        "Ġ",
        "æĪ°çĪŃ"
      ],
      [
        "Ġ",
        "as"
      ],
      [
        "Ġ",
        "æĹ"
      ],
      [
        "Ġ",
        "æĺ"
      ],
      [
        "Ġ",
        "é¢¨"
      ],
      [
        "Ġ",
        "èģ¯æºĸæľĥ"
      ],
      [
        "Ġ",
        "ge"
      ],
      [
        "Ġ",
        "ä¹"
      ],
      [
        "Ġ",
        "éĿ"
      ],
      [
        "Ġ",
        "07"
      ],
      [
        "Ġ",
        "Iran"
      ],
      [
        "Ġ",
        "Key"
      ],
      [
        "Ġ",
        "æ°"
      ],
      [
        "Ġ",
        "æĽ´"
      ],
      [
        "Ġ",
        "2026"
      ],
      [
        "Ġ",
        "Ha"
      ],
      [
        "Ġ",
        "Kicks"
      ],
      [
        "Ġ",
        "Loom"
      ],
      [
        "Ġ",
        "has"
      ],
      [
        "Ġ",
        "æĦ"
      ],
      [
        "Ġ",
        "é¦Ļ"
      ],
      [
        "Ġ",
        "ì¡°"
      ],
      [
        "Ģ",
        "æĸ°"
      ],
      [
        "Ģ",
        "éĢļèĨ¨"
      ],
      [
        "Ģ",
        "é«ĺ"
      ],
      [
        "Ģ",
        "çĤ"
      ],
      [
        "Ģ",
        "å°ĩ"
      ],
      [
        "ģ",
        "éĹľéįµ"
      ],
      [
        "ģ",
        "æ¥Ń"
      ],
      [
        "ģ",
        "éĢļèĨ¨èĢ"
      ],
      [
        "Ĥ",
        "é£Ĩ"
      ],
      [
        "ĥ",
        "ä»"
      ],
      [
        "ĥ",
        "ä¼°"
      ],
      [
        "ĥ",
        "é©"
      ],
      [
        "ĥ",
        "ç¶ĵæ¿Łæķ¸æĵļ"
      ],
      [
        "ĥ",
        "å±Ģ"
      ],
      [
        "ĥ",
        "çŀ"
      ],
      [
        "Ħ",
        "çĥ"
      ],
      [
        "ħ",
        "éł"
      ],
      [
        "ħ",
        "åı°èĤ¡"
      ],
      [
        "ħ",
        "åĪ©éĽ£"
      ],
      [
        "Ĩ",
        "è²¡"
      ],
      [
        "Ĩ",
        "æģ"
      ],
      [
        "Ĩ",
        "æĪ°çĪŃ"
      ],
      [
        "Ĩ",
        "åħĥ"
      ],
      [
        "Ĩ",
        "åĲĳ"
      ],
      [
        "Ĩ",
        "çĻ"
      ],
      [
        "ĩ",
        "ĥ"
      ],
      [
        "ĩ",
        "ī"
      ],
      [
        "Ī",
        "æĸ°èģŀç¶²"
      ],
      [
        "Ī",
        "æ³¢"
      ],
      [
        "Ī",
        "¾è¡"
      ],
      [
        "ī",
        "åħ"
      ],
      [
        "ī",
        "ç«"
      ],
      [
        "ī",
        "éĭ"
      ],
      [
        "Ĭ",
        "ł"
      ],
      [
        "Ĭ",
        "å¸Ĥ"
      ],
      [
        "Ĭ",
        "æĹ¥"
      ],
      [
        "Ĭ",
        "å°İ"
      ],
      [
        "Ĭ",
        "ç¹ĥ"
      ],
      [
        "ĭ",
        "æĸ°èģŀ"
      ],
      [
        "ĭ",
        "æĶ"
      ],
      [
        "ĭ",
        "èĤ¡"
      ],
      [
        "ĭ",
        "è·"
      ],
      [
        "ĭ",
        "é»ĥéĩĳ"
      ],
      [
        "ĭ",
        "æ³ķèªª"
      ],
      [
        "Į",
        "F"
      ],
      [
        "Į",
        "æĻĤ"
      ],
      [
        "Į",
        "çļĦ"
      ],
      [
        "Į",
        "åįĩæģ¯"
      ],
      [
        "į",
        "éĢļèĨ¨"
      ],
      [
        "į",
        "éĩĳ"
      ],
      [
        "į",
        "åĪ"
      ],
      [
        "į",
        "æģ¯"
      ],
      [
        "į",
        "æĪĲ"
      ],
      [
        "į",
        "æľī"
      ],
      [
        "į",
        "ä¸Ģåĳ¨åīįçŀ»"
      ],
      [
        "İ",
        "åł±"
      ],
      [
        "İ",
        "ç¿Ķ"
      ],
      [
        "İ",
        "ĥçŀ"
      ],
      [
        "ı",
        "Ī"
      ],
      [
        "ı",
        "æĪ°çĪŃ"
      ],
      [
        "ı",
        "å¤ĸ"
      ],
      [
        "ı",
        "æĽ´"
      ],
      [
        "Ĳ",
        "æľŁ"
      ],
      [
        "Ĳ",
        "å¸Ĥåł´"
      ],
      [
        "Ĳ",
        "äº¤"
      ],
      [
        "Ĳ",
        "åĬĩ"
      ],
      [
        "Ĳ",
        "ĥç¶ĵæ¿Łæķ¸æĵļ"
      ],
      [
        "ĳ",
        "è¦ĸ"
      ],
      [
        "ĳ",
        "æħ"
      ],
      [
        "ĳ",
        "æ£®"
      ],
      [
        "ĵ",
        "ºä¸"
      ],
      [
        "Ķ",
        "æĪ°"
      ],
      [
        "Ķ",
        "³å"
      ],
      [
        "Ķ",
        "ç³»"
      ],
      [
        "ķ",
        "çı¾"
      ],
      [
        "ĸ",
        "å±"
      ],
      [
        "ĸ",
        "çĳ"
      ],
      [
        "Ĺ",
        "èŃ¦åĳĬ"
      ],
      [
        "Ĺ",
        "ä¾"
      ],
      [
        "ĺ",
        "åĵ"
      ],
      [
        "ĺ",
        "åıĬ"
      ],
      [
        "Ļ",
        "çĶ"
      ],
      [
        "Ļ",
        "æľª"
      ],
      [
        "Ļ",
        "¯æĺ¯"
      ],
      [
        "Ļ",
        "¾åĪĨ"
      ],
      [
        "Ļ",
        "įæģ¯"
      ],
      [
        "ļ",
        "äºº"
      ],
      [
        "ļ",
        "ç©º"
      ],
      [
        "ļ",
        "çĦ"
      ],
      [
        "Ľ",
        "ī"
      ],
      [
        "Ľ",
        "è²¡ç¶ĵ"
      ],
      [
        "Ľ",
        "å¤§"
      ],
      [
        "Ľ",
        "è§Ģé»ŀ"
      ],
      [
        "Ľ",
        "åĬĽ"
      ],
      [
        "Ľ",
        "¤ç"
      ],
      [
        "Ľ",
        "æ¨Ĥ"
      ],
      [
        "ľ",
        "å¾"
      ],
      [
        "Ŀ",
        "å®"
      ],
      [
        "ŀ",
        "ľ"
      ],
      [
        "ŀ",
        "å»¶"
      ],
      [
        "ŀ",
        "å¯Ĩ"
      ],
      [
        "Ł",
        "³"
      ],
      [
        "Ł",
        "æľŁ"
      ],
      [
        "Ł",
        "èĪĩAI"
      ],
      [
        "ł",
        "æģ¯"
      ],
      [
        "ł",
        "ä½İ"
      ],
      [
        "ł",
        "´éĩĳèŀį"
      ],
      [
        "ł",
        "ìĿ"
      ],
      [
        "Ń",
        "ĸ"
      ],
      [
        "Ń",
        "Ĩè"
      ],
      [
        "on",
        "gress"
      ],
      [
        "on",
        "fl"
      ],
      [
        "on",
        "ds"
      ],
      [
        "ä¸",
        "Ńåľĭ"
      ],
      [
        "in",
        "an"
      ],
      [
        "æľ",
        "Ģæĸ°"
      ],
      [
        "æľ",
        "Ľæ¨Ĥ"
      ],
      [
        "ar",
        "d"
      ],
      [
        "ar",
        "t"
      ],
      [
        "ar",
        "ch"
      ],
      [
        "ar",
        "row"
      ],
      [
        "éĢ",
        "Ĩè"
      ],
      [
        "éĢ",
        "ĨåĲĳ"
      ],
      [
        "éĢ",
        "ĻçĶ"
      ],
      [
        "éĢ",
        "ŁèĪĩAI"
      ],
      [
        "èģ",
        "½èŃī"
      ],
      [
        "èģ",
        "ļçĦ"
      ],
      [
        "Ġt",
        "one"
      ],
      [
        "Ġt",
        "rad"
      ],
      [
        "Ġt",
        "estimony"
      ],
      [
        "æĪ",
        "Ĳæ"
      ],
      [
        "æĪ",
        "´ä¸"
      ],
      [
        "ee",
        "p"
      ],
      [
        "è²",
        "§å¯Į"
      ],
      [
        "è²",
        "´éĩ"
      ],
      [
        "è²",
        "»èĢ"
      ],
      [
        "éĢļèĨ¨",
        "æķ¸æĵļ"
      ],
      [
        "éĢļèĨ¨",
        "åĨ"
      ],
      [
        "éĢļèĨ¨",
        "GDP"
      ],
      [
        "éĢļèĨ¨",
        "å£ĵ"
      ],
      [
        "éĢļèĨ¨",
        "æİ¨"
      ],
      [
        "ĠT",
        "his"
      ],
      [
        "ĠT",
        "ri"
      ],
      [
        "ĠT",
        "one"
      ],
      [
        "ĠT",
        "SM"
      ],
      [
        "ĠT",
        "rad"
      ],
      [
        "ĠT",
        "estimony"
      ],
      [
        "ĠT",
        "hings"
      ],
      [
        "lat",
        "ive"
      ],
      [
        "Ġå",
        "¢¨"
      ],
      [
        "Ġå",
        "ķĨ"
      ],
      [
        "Ġå",
        "®¢æĸ°èģŀ"
      ],
      [
        "Ġå",
        "°ĩ"
      ],
      [
        "Ġå",
        "±ķ"
      ],
      [
        "Ġå",
        "·¥å"
      ],
      [
        "Ġå",
        "Ĭł"
      ],
      [
        "ed",
        "ia"
      ],
      [
        "°ç",
        "Ĳĥç¶ĵæ¿Łæķ¸æĵļ"
      ],
      [
        "ç¾İ",
        "éĬĢ"
      ],
      [
        "ç¾İ",
        "éĹľéįµ"
      ],
      [
        "ç¾İ",
        "åħĥ"
      ],
      [
        "Ġs",
        "h"
      ],
      [
        "Ġs",
        "ing"
      ],
      [
        "Ġs",
        "et"
      ],
      [
        "Ġs",
        "it"
      ],
      [
        "Ġs",
        "eason"
      ],
      [
        "Ġs",
        "hape"
      ],
      [
        "Ġs",
        "peeches"
      ],
      [
        "Ġs",
        "tay"
      ],
      [
        "an",
        "k"
      ],
      [
        "ing",
        "Key"
      ],
      [
        "Fed",
        "ä»"
      ],
      [
        "Fed",
        "ä¸į"
      ],
      [
        "Fed",
        "åįĩæģ¯"
      ],
      [
        "Fed",
        "æĪĸ"
      ],
      [
        "Fed",
        "éĩįç"
      ],
      [
        "Fed",
        "èŃī"
      ],
      [
        "In",
        "vest"
      ],
      [
        "åľ",
        "įä¸Ģåĳ¨åīįçŀ»"
      ],
      [
        "ic",
        "t"
      ],
      [
        "ic",
        "al"
      ],
      [
        "ic",
        "ial"
      ],
      [
        "ĠC",
        "PI"
      ],
      [
        "ĠC",
        "ha"
      ],
      [
        "ĠC",
        "hin"
      ],
      [
        "ĠC",
        "LAR"
      ],
      [
        "ĠC",
        "ongress"
      ],
      [
        "Ġd",
        "ecision"
      ],
      [
        "ĠIn",
        "ter"
      ],
      [
        "al",
        "l"
      ],
      [
        "or",
        "ld"
      ],
      [
        "ĠS",
        "ent"
      ],
      [
        "ĠS",
        "eason"
      ],
      [
        "ĠS",
        "hape"
      ],
      [
        "ĠS",
        "peeches"
      ],
      [
        "is",
        "lative"
      ],
      [
        "åį",
        "Ĭå°İ"
      ],
      [
        "åı",
        "¯èĥ½"
      ],
      [
        "æģ",
        "ĲåĬĩ"
      ],
      [
        "ĠW",
        "hat"
      ],
      [
        "ĠW",
        "ill"
      ],
      [
        "ĠW",
        "atch"
      ],
      [
        "ĠW",
        "orld"
      ],
      [
        "Ńæ",
        "ĵºä¸"
      ],
      [
        "Ńæ",
        "Ľī"
      ],
      [
        "et",
        "fl"
      ],
      [
        "ĠA",
        "IæĬķè³ĩ"
      ],
      [
        "ĠA",
        "rrive"
      ],
      [
        "æĶ",
        "»ç"
      ],
      [
        "æĶ",
        "¿æ²"
      ],
      [
        "æĶ",
        "Ģé«ĺ"
      ],
      [
        "ä¸Ģ",
        "å¸"
      ],
      [
        "ä¸Ģ",
        "éĢ±"
      ],
      [
        "æľĥ",
        "å±"
      ],
      [
        "æľĥ",
        "åįĩæģ¯"
      ],
      [
        "æľĥ",
        "ç¾İåľĭ"
      ],
      [
        "æľĥ",
        "èģ½èŃī"
      ],
      [
        "éĩĳ",
        "åĥ¹"
      ],
      [
        "éĩĳ",
        "æ²"
      ],
      [
        "éĩĳ",
        "ä¸Ĭ"
      ],
      [
        "èĤ¡",
        "å¸Ĥ"
      ],
      [
        "Ġo",
        "il"
      ],
      [
        "Ġo",
        "ut"
      ],
      [
        "AI",
        "éĢļèĨ¨"
      ],
      [
        "AI",
        "è³ĩ"
      ],
      [
        "AI",
        "çĨ"
      ],
      [
        "ä¼",
        "ģæ¥Ń"
      ],
      [
        "å¤",
        "ļç©º"
      ],
      [
        "å®",
        "Ļ"
      ],
      [
        "å®",
        "ĺåĵ"
      ],
      [
        "å¸",
        "Ńåľĭ"
      ],
      [
        "åħ",
        "¨çĲĥ"
      ],
      [
        "åħ",
        "©åł´"
      ],
      [
        "åħ",
        "·åħ"
      ],
      [
        "æķ",
        "Ĺ"
      ],
      [
        "æķ",
        "´éł"
      ],
      [
        "ĠE",
        "T"
      ],
      [
        "ĠE",
        "conomic"
      ],
      [
        "ĠE",
        "xpec"
      ],
      [
        "Ġä¸",
        "īç«"
      ],
      [
        "Ġä¸",
        "Ĭå¸Ĥ"
      ],
      [
        "æĪ°ç",
        "ģ«"
      ],
      [
        "åľĭ",
        "éļ"
      ],
      [
        "åľĭ",
        "å¤ĸ"
      ],
      [
        "ĠD",
        "ecision"
      ],
      [
        "ĠD",
        "IGIT"
      ],
      [
        "ĠM",
        "ay"
      ],
      [
        "ĠM",
        "oney"
      ],
      [
        "é«",
        "Ķé"
      ],
      [
        "é«",
        "Ķç³»"
      ],
      [
        "éĽ",
        "¶åĶ"
      ],
      [
        "éĽ",
        "ĨçĻ"
      ],
      [
        "ĠB",
        "ri"
      ],
      [
        "ĠB",
        "itcoin"
      ],
      [
        "ĠB",
        "loom"
      ],
      [
        "ĠB",
        "onds"
      ],
      [
        "ĠB",
        "arch"
      ],
      [
        "ĠB",
        "ank"
      ],
      [
        "Ġw",
        "it"
      ],
      [
        "Ġw",
        "atch"
      ],
      [
        "Ġw",
        "ave"
      ],
      [
        "įç",
        "ĩĥ"
      ],
      [
        "įç",
        "Ľ¤ç"
      ],
      [
        "įç",
        "Ńĸ"
      ],
      [
        "ãĢį",
        ":"
      ],
      [
        "ãĢį",
        "?"
      ],
      [
        "ãĢį",
        "âĶ"
      ],
      [
        "åįĩ",
        "æº"
      ],
      [
        "æĪ°çĪŃ",
        "åĲ"
      ],
      [
        "æĪ°çĪŃ",
        "éļ"
      ],
      [
        "æĪ°çĪŃ",
        "è¡Ŀçªģ"
      ],
      [
        "èĪĩ",
        "çı¾"
      ],
      [
        "èĪĩ",
        "æ¶Ī"
      ],
      [
        "èĪĩ",
        "éĬĢè¡Įè²¡åł±"
      ],
      [
        "èĪĩ",
        "FedèŃī"
      ],
      [
        "Ġof",
        "f"
      ],
      [
        "ec",
        "oin"
      ],
      [
        "it",
        "ical"
      ],
      [
        "ä»",
        "£"
      ],
      [
        "ä»",
        "ĬæĹ¥"
      ],
      [
        "ä»",
        "įæľī"
      ],
      [
        "ä»",
        "ĸå±"
      ],
      [
        "ä»",
        "ĺåıĬ"
      ],
      [
        "å°",
        "įçŃĸ"
      ],
      [
        "å»",
        "£åł´"
      ],
      [
        "å»",
        "ºè"
      ],
      [
        "å»",
        "łä½İ"
      ],
      [
        "å¹´",
        "ä½İ"
      ],
      [
        "å¹´",
        "åºķ"
      ],
      [
        "å¹´",
        "æ¸Ľ"
      ],
      [
        "ç´",
        "ħåĪ©éĽ£"
      ],
      [
        "è§",
        "Ĵ"
      ],
      [
        "ç¶ĵæ¿Ł",
        "æĪĸ"
      ],
      [
        "ç¶ĵæ¿Ł",
        "åĽŀ"
      ],
      [
        "im",
        "ent"
      ],
      [
        "åĲ",
        "į"
      ],
      [
        "åĲ",
        "Īæĸ°èģŀç¶²"
      ],
      [
        "æĬ",
        "µç"
      ],
      [
        "æĬ",
        "ĢéĢļèĨ¨"
      ],
      [
        "æĵ",
        "įçĽ¤ç"
      ],
      [
        "èª",
        "°æľĥ"
      ],
      [
        "èª",
        "¿å¸"
      ],
      [
        "èª",
        "įåĪ"
      ],
      [
        "è·",
        "¯"
      ],
      [
        "and",
        "ard"
      ],
      [
        "è¡Į",
        "ç©º"
      ],
      [
        "é«ĺ",
        "è©ķ"
      ],
      [
        "é«ĺ",
        "åĪ©çİĩ"
      ],
      [
        "æĹ¥",
        "åįĬå°İ"
      ],
      [
        "è§Ģ",
        "æ¸"
      ],
      [
        "ĠF",
        "X"
      ],
      [
        "ĠF",
        "ree"
      ],
      [
        "ĠF",
        "ig"
      ],
      [
        "ĠF",
        "inan"
      ],
      [
        "Ġa",
        "head"
      ],
      [
        "Ġb",
        "y"
      ],
      [
        "Ġb",
        "and"
      ],
      [
        "Ġb",
        "ill"
      ],
      [
        "Ġl",
        "a"
      ],
      [
        "Ġl",
        "eg"
      ],
      [
        "ĠSt",
        "ock"
      ],
      [
        "ĠSt",
        "reet"
      ],
      [
        "ĠSt",
        "andard"
      ],
      [
        "å±",
        "¬æľŁ"
      ],
      [
        "åĬ",
        "łæģ¯"
      ],
      [
        "çĽ",
        "¤åīįæ"
      ],
      [
        "éģ",
        "Ķ"
      ],
      [
        "éģ",
        "©æ"
      ],
      [
        "Ġf",
        "act"
      ],
      [
        "Ġn",
        "o"
      ],
      [
        "Ġn",
        "arrow"
      ],
      [
        "Ġp",
        "rogress"
      ],
      [
        "ĭç",
        "ģ«"
      ],
      [
        "ĭç",
        "Ļ¾åĪĨ"
      ],
      [
        "ĭç",
        "Ł³"
      ],
      [
        "Ĳæ",
        "²¹"
      ],
      [
        "Ĳæ",
        "´²å¤"
      ],
      [
        "ļĦ",
        "éĹľéįµ"
      ],
      [
        "ä¸į",
        "èĥ½"
      ],
      [
        "ä¸į",
        "éľ"
      ],
      [
        "æĪ°",
        "æ©Ł"
      ],
      [
        "ç¾İèĤ¡",
        "è²¡åł±"
      ],
      [
        "åı°",
        "æµ"
      ],
      [
        "åĥ¹",
        "ä½"
      ],
      [
        "åĥ¹",
        "ç´ħåĪ©éĽ£"
      ],
      [
        "çı¾",
        "æĭ"
      ],
      [
        "çı¾",
        "åĪĨ"
      ],
      [
        "éĹľ",
        "ç¨ħ"
      ],
      [
        "æķ¸æĵļ",
        "åīįç"
      ],
      [
        "æ¸",
        "¯ç¶ĵæ¿Ł"
      ],
      [
        "æĺ",
        "ŁæľŁ"
      ],
      [
        "æĻĤ",
        "åł±"
      ],
      [
        "æĻĤ",
        "è«ĸ"
      ],
      [
        "æĻĤ",
        "ä»£"
      ],
      [
        "çİ",
        "ĭæ³ķèªª"
      ],
      [
        "è©",
        "ŀå¯Ĩ"
      ],
      [
        "è®Ĭ",
        "çı¾æĭ"
      ],
      [
        "é¢¨",
        "éĢļèĨ¨GDP"
      ],
      [
        "ĠJ",
        "PMor"
      ],
      [
        "ĠO",
        "ver"
      ],
      [
        "ĠO",
        "the"
      ],
      [
        "Ġc",
        "onfl"
      ],
      [
        "Ġk",
        "icks"
      ],
      [
        "Ġk",
        "eep"
      ],
      [
        "ĥ½",
        "æľī"
      ],
      [
        "æľª",
        "èĥ½"
      ],
      [
        "æľª",
        "ä¾"
      ],
      [
        "æľª",
        "å¿ħ"
      ],
      [
        "è¡Ŀçªģ",
        "æľªèĥ½"
      ],
      [
        "å¤§",
        "éĩįç"
      ],
      [
        "å¤§",
        "æ¯Ķ"
      ],
      [
        "å¤§",
        "å»łä½İ"
      ],
      [
        "æ³¢",
        "è´ı"
      ],
      [
        "åįĩæģ¯",
        "æĬµç"
      ],
      [
        "è¦ĸ",
        "è§Ĵ"
      ],
      [
        "æĬķè³ĩ",
        "æ©Ł"
      ],
      [
        "å¸Ĥåł´",
        "èµ°"
      ],
      [
        "å¸Ĥåł´",
        "æľ¬éĢ±"
      ],
      [
        "å¸Ĥåł´",
        "è§Ģæ¸"
      ],
      [
        "çĽĽ",
        "æľĥå±"
      ],
      [
        "èģ¯æºĸæľĥ",
        "åĪ©çİĩ"
      ],
      [
        "èģ¯æºĸæľĥ",
        "å®ĺåĵ"
      ],
      [
        "èģ¯æºĸæľĥ",
        "åĬłæģ¯"
      ],
      [
        "ĠG",
        "DP"
      ],
      [
        "ĠG",
        "auge"
      ],
      [
        "ĠG",
        "over"
      ],
      [
        "ºå",
        "ķĨ"
      ],
      [
        "ºå",
        "¼ķ"
      ],
      [
        "ºå",
        "¾Ĺ"
      ],
      [
        "ä¹",
        "ħ"
      ],
      [
        "åĢ",
        "¼è¿"
      ],
      [
        "åĢ",
        "ĭèĤ¡"
      ],
      [
        "åĢ",
        "ĭçĻ¾åĪĨ"
      ],
      [
        "åĤ",
        "ĳæ£®"
      ],
      [
        "åĵ",
        "¥éģĬèīĩ"
      ],
      [
        "åĵ",
        "ģéĢļèĨ¨èĢ"
      ],
      [
        "åĽ",
        "Ľå¤§"
      ],
      [
        "æ²",
        "ĥä»"
      ],
      [
        "æı",
        "Ń"
      ],
      [
        "æı",
        "Ĳäº¤"
      ],
      [
        "æı",
        "ŃæĽī"
      ],
      [
        "æĽ",
        "Ŀå®"
      ],
      [
        "çĤ",
        "ºä¸"
      ],
      [
        "çĤ",
        "¸æĸ"
      ],
      [
        "çĩ",
        "Ĵ"
      ],
      [
        "çĲ",
        "Ĩè²¡"
      ],
      [
        "éĸ",
        "ĵ"
      ],
      [
        "éĸ",
        "ĭçģ«"
      ],
      [
        "éł",
        "Ńæĵºä¸"
      ],
      [
        "ĠN",
        "ews"
      ],
      [
        "ĠN",
        "OW"
      ],
      [
        "ĠN",
        "etfl"
      ],
      [
        "Ĩè",
        "¥²"
      ],
      [
        "Ĭå¹´",
        "æľªå¿ħ"
      ],
      [
        "ķĨ",
        "æĻĤåł±"
      ],
      [
        "ä¸Ĭ",
        "åįĬå¹´"
      ],
      [
        "ä¸Ĭ",
        "è¡Įç©º"
      ],
      [
        "æľ¬",
        "æĶ¯"
      ],
      [
        "æĪĲ",
        "éĹľéįµ"
      ],
      [
        "æĪĲ",
        "çĤºä¸"
      ],
      [
        "ç¾İåľĭ",
        "æł"
      ],
      [
        "ç¾İä¼Ĭ",
        "åĨį"
      ],
      [
        "äº¤",
        "æĪ°"
      ],
      [
        "äº¤",
        "ä»ĺåıĬ"
      ],
      [
        "ä¼°",
        "ä¸ŃæĿ±"
      ],
      [
        "ä¼°",
        "å¹´åºķ"
      ],
      [
        "å¤ĸ",
        "åľįä¸Ģåĳ¨åīįçŀ»"
      ],
      [
        "å°ĩ",
        "å£ĵ"
      ],
      [
        "å°ĩ",
        "æıŃæĽī"
      ],
      [
        "åĲĳ",
        "çı¾åĪĨ"
      ],
      [
        "åĲĳ",
        "æĪĲéĹľéįµ"
      ],
      [
        "é«ĺçĽĽ",
        "ä¼°å¹´åºķ"
      ],
      [
        "ä½İ",
        "éĢļèĨ¨"
      ],
      [
        "è©ķ",
        "ä¼°ä¸ŃæĿ±"
      ],
      [
        "İ¨åįĩ",
        "æĸ°ä¸Ģæ³¢éĢļèĨ¨"
      ],
      [
        "İ¨åįĩ",
        "çī"
      ],
      [
        "İ¨åįĩ",
        "ç¾İåľĭæł"
      ],
      [
        "åĩº",
        "ç¸"
      ],
      [
        "åĩº",
        "å¸Ńåľĭ"
      ],
      [
        "æĨĤAI",
        "æĶ»ç"
      ],
      [
        "ĠYahoo",
        "èĤ¡å¸Ĥ"
      ],
      [
        "ä¸ŃæĿ±",
        "å±Ģ"
      ],
      [
        "ä¸ŃæĿ±",
        "æĪ°çģ«"
      ],
      [
        "åĪ©çİĩ",
        "æĪĲçĤºä¸"
      ],
      [
        "St",
        "ock"
      ],
      [
        "St",
        "reet"
      ],
      [
        "ur",
        "es"
      ],
      [
        "Ġr",
        "ate"
      ],
      [
        "..",
        "."
      ],
      [
        "07",
        "13"
      ],
      [
        "CPI",
        "æķ¸æĵļåīįç"
      ],
      [
        "IT",
        "Y"
      ],
      [
        "op",
        "ol"
      ],
      [
        "op",
        "edia"
      ],
      [
        "¯Ķ",
        "æĥ"
      ],
      [
        "¿ħ",
        "å°ĩå£ĵ"
      ],
      [
        "ä¿",
        "¡è©ķ"
      ],
      [
        "ä¿",
        "Ħçĥ"
      ],
      [
        "å¾",
        "ĮçļĦ"
      ],
      [
        "å¯Į",
        "çĲĨè²¡"
      ],
      [
        "åºķ",
        "æıĲäº¤"
      ],
      [
        "æµ",
        "®æ¿"
      ],
      [
        "æ½",
        "ĽåĬĽ"
      ],
      [
        "æĥ",
        "ħ"
      ],
      [
        "æħ",
        "ĭæĶ"
      ],
      [
        "æĭ",
        "¼"
      ],
      [
        "æĴ",
        "Ĳå¸Ĥåł´"
      ],
      [
        "æĴ",
        "Ĳæ²¹"
      ],
      [
        "æŃ",
        "§"
      ],
      [
        "æŃ",
        "Ĳæ´²å¤"
      ],
      [
        "æ¶Ī",
        "æģ¯"
      ],
      [
        "ç·",
        "©"
      ],
      [
        "ç·",
        "Ĭç¹ĥ"
      ],
      [
        "ç¸",
        "½ç¶ĵ"
      ],
      [
        "çĥ",
        "Īæ³¢"
      ],
      [
        "é©",
        "ļäºº"
      ],
      [
        "ĠP",
        "PI"
      ],
      [
        "ĠP",
        "rogress"
      ],
      [
        "Ġç¶ĵæ¿Ł",
        "æĹ¥åł±"
      ],
      [
        "Ġup",
        "dat"
      ],
      [
        "Ķé",
        "½Ĭ"
      ],
      [
        "ä¸ī",
        "è®Ĭæķ¸"
      ],
      [
        "ä¸ī",
        "å¤§éĩįç"
      ],
      [
        "ä¸ĭ",
        "åįĬå¹´"
      ],
      [
        "ä¸ĭ",
        "æ³¢è´ı"
      ],
      [
        "æľĪ",
        "åºķæıĲäº¤"
      ],
      [
        "è²¨",
        "éĩĳä¸Ĭ"
      ],
      [
        "éĢļèĨ¨èĪĩ",
        "éĽ¶åĶ"
      ],
      [
        "éĢļèĨ¨èĪĩ",
        "åĪ©çİĩæĪĲçĤºä¸"
      ],
      [
        "ĠTo",
        "day"
      ],
      [
        "Ġåħ",
        "¨çĲĥ"
      ],
      [
        "Ġåħ",
        "§åľ"
      ],
      [
        "Ġå¤§",
        "åŀĭ"
      ],
      [
        "Ġå¤§",
        "çºªåħĥ"
      ],
      [
        "åľ°ç·£",
        "æĶ¿æ²"
      ],
      [
        "åľ°ç·£",
        "è¡Ŀçªģæľªèĥ½"
      ],
      [
        "ĠInvest",
        "or"
      ],
      [
        "ĠInvest",
        "opedia"
      ],
      [
        "alyst",
        "s"
      ],
      [
        "æģĲæ",
        "İ¨åįĩç¾İåľĭæł"
      ],
      [
        "æģĲæ",
        "¯Ķæĥ"
      ],
      [
        "é»ĥéĩĳ",
        "åĥ¹ä½"
      ],
      [
        "ĠAn",
        "d"
      ],
      [
        "ĠAn",
        "alysts"
      ],
      [
        "æĶ¯",
        "æĴĲæ²¹"
      ],
      [
        "æĶ¾",
        "æ¦ľ"
      ],
      [
        "æĶ¾",
        "ç·©"
      ],
      [
        "å®ļ",
        "åĭĿ"
      ],
      [
        "å®ļ",
        "éĮ"
      ],
      [
        "Ġä¸Ńåľĭ",
        "æķ´éł"
      ],
      [
        "Ġä¸Ńåľĭ",
        "ç¶ĵæ¿ŁæĪĸ"
      ],
      [
        "èĪĩAI",
        "å»ºè"
      ],
      [
        "å»¶",
        "çĩĴ"
      ],
      [
        "ç´ļ",
        "æĺŁæľŁ"
      ],
      [
        "ç´ļ",
        "æµ®æ¿"
      ],
      [
        "éĢ±äº",
        "Į"
      ],
      [
        "éĢ±äº",
        "Ķé½Ĭ"
      ],
      [
        "ç¶ĵæ¿Łæķ¸æĵļ",
        "æ²ĥä»"
      ],
      [
        "åĭ¢",
        "èĪĩéĬĢè¡Įè²¡åł±"
      ],
      [
        "åĭķ",
        "åĲĳæĪĲéĹľéįµ"
      ],
      [
        "åĭĿ",
        "åĩº"
      ],
      [
        "æĹ¥åł±",
        "HK"
      ],
      [
        "åīįæ",
        "Ļ¯æĺ¯"
      ],
      [
        "åĬĩ",
        "è²§å¯Į"
      ],
      [
        "åĬĽ",
        "åĨįèµ·"
      ],
      [
        "æĪ°äºĭ",
        "åĨįèµ·"
      ],
      [
        "æĪ°äºĭ",
        "èĪĩAIå»ºè"
      ],
      [
        "ä¼ĬæľĹ",
        "æĪ°çĪŃè¡Ŀçªģ"
      ],
      [
        "ä¼ĬæľĹ",
        "æĪ°äºĭèĪĩAIå»ºè"
      ],
      [
        "æ¸Ľ",
        "éĢŁèĪĩAI"
      ],
      [
        "æĺ¯",
        "ä¸ĭæ³¢è´ı"
      ],
      [
        "èµ°",
        "åĲĳçı¾åĪĨ"
      ],
      [
        "ĠOff",
        "icial"
      ],
      [
        "æ³ķäºº",
        "è§Ģé»ŀ"
      ],
      [
        "æ³ķäºº",
        "æĽĿå®"
      ],
      [
        "æ³ķèªª",
        "å¤ļç©º"
      ],
      [
        "Ġmarkets",
        "cree"
      ],
      [
        "åĽŀ",
        "è·Į"
      ],
      [
        "æľ¬éĢ±",
        "æĵįçĽ¤ç"
      ],
      [
        "ç¾İä¼Ĭè¡Ŀçªģ",
        "çļĦ"
      ],
      [
        "ç¾İä¼Ĭè¡Ŀçªģ",
        "åįĩæº"
      ],
      [
        "é«ĺçĽĽèŃ¦åĳĬ",
        "ä¼ģæ¥Ń"
      ],
      [
        "éĬĢè¡Įè²¡åł±",
        "èĪĩFedèŃī"
      ],
      [
        "åŀĭ",
        "æħĭæĶ"
      ],
      [
        "ĠReport",
        "s"
      ],
      [
        "FedæĨĤAIåŁºå»",
        "ºæ"
      ],
      [
        "FedæĨĤAIåŁºå»",
        "ºå¼ķ"
      ],
      [
        "åı°ç©įéĽ»",
        "æĶ¾æ¦ľ"
      ],
      [
        "åı°ç©įéĽ»",
        "æ³ķèªªå¤ļç©º"
      ],
      [
        "éĩĳèŀį",
        "èĤ¡"
      ],
      [
        "ç´Ĳç´ĦæľŁéĩĳ",
        "èĪĩçı¾"
      ],
      [
        "ç´Ĳç´ĦæľŁéĩĳ",
        "åĽŀè·Į"
      ],
      [
        "éģĬèīĩ",
        "äº¤ä»ĺåıĬ"
      ],
      [
        "ç¾İèĤ¡è¿İ",
        "è¶ħ"
      ],
      [
        "çĩŁæĶ¶",
        "å¹´æ¸Ľ"
      ],
      [
        "çĩŁæĶ¶",
        "èªįåĪ"
      ],
      [
        "ta",
        "o"
      ],
      [
        "Ġan",
        "alyst"
      ],
      [
        "Ġam",
        "id"
      ],
      [
        "ĠJu",
        "ly"
      ],
      [
        "Ġcr",
        "ude"
      ],
      [
        "18",
        "95"
      ],
      [
        "ASM",
        "LåıĬ"
      ],
      [
        "Bur",
        "sa"
      ],
      [
        "Cè·Į",
        "åĥ¹ç´ħåĪ©éĽ£"
      ],
      [
        "Dal",
        "al"
      ],
      [
        "Ge",
        "opol"
      ],
      [
        "He",
        "av"
      ],
      [
        "IM",
        "ES"
      ],
      [
        "MO",
        "RE"
      ],
      [
        "PCE",
        "éģĶ"
      ],
      [
        "bl",
        "ecoin"
      ],
      [
        "ber",
        "g"
      ],
      [
        "con",
        "tro"
      ],
      [
        "ef",
        "ing"
      ],
      [
        "gg",
        "er"
      ],
      [
        "kk",
        "aNews"
      ],
      [
        "loo",
        "k"
      ],
      [
        "news",
        "ä»ĬæĹ¥"
      ],
      [
        "nation",
        "al"
      ],
      [
        "¡å°",
        "įéĢļèĨ¨"
      ],
      [
        "£ħ",
        "ç¶ĵæ¿Łæķ¸æĵļæ²ĥä»"
      ],
      [
        "£éĸ",
        "ĭè·"
      ],
      [
        "¥é",
        "Ļįæģ¯"
      ],
      [
        "¦¦",
        "éĢļèĨ¨"
      ],
      [
        "¦ç¾İåľĭ",
        "ä¸īå¤§éĩįç"
      ],
      [
        "¨Ńæ",
        "İ¨åįĩçī"
      ],
      [
        "©åŁ",
        "ĶæĪ°"
      ],
      [
        "ªå®",
        "¢å®¶"
      ],
      [
        "«åħ",
        "¼éĢļèĨ¨èĢ"
      ],
      [
        "¬ç«",
        "Ļ"
      ],
      [
        "®ä¸",
        "»å°İ"
      ],
      [
        "®åı",
        "įæĪĲ"
      ],
      [
        "®è¡Į",
        "æĨĤAIæĶ»ç"
      ],
      [
        "®æ°",
        "´é"
      ],
      [
        "¯ç",
        "Ī¾è¡"
      ],
      [
        "°AI",
        "çĽĽæľĥå±"
      ],
      [
        "±ä¹",
        "ĭçŁ³"
      ],
      [
        "±æ½",
        "®åıįæĪĲ"
      ],
      [
        "²åĪ©éĽ£",
        "æĴĲå¸Ĥåł´"
      ],
      [
        "³é»ŀ",
        "åĲį"
      ],
      [
        "³åĥ",
        "ıæĽ´"
      ],
      [
        "¶ä¸Ģ",
        "è·¯"
      ],
      [
        "·å®",
        "īåħ"
      ],
      [
        "¸å",
        "¿ĥ"
      ],
      [
        "¹è®Ĭ",
        "å¾ĮçļĦ"
      ],
      [
        "»è¦",
        "ģéĹľéįµ"
      ],
      [
        "»éģ",
        "ŀå»¶"
      ],
      [
        "¼ë",
        "³´"
      ],
      [
        "¿èģ¯",
        "éħ"
      ],
      [
        "âĢ",
        "Ļ"
      ],
      [
        "åĴ",
        "ĮF"
      ],
      [
        "åŃ",
        "£éĸĭè·"
      ],
      [
        "å·®è·",
        "Ŀ"
      ],
      [
        "æĢ",
        "¥éĻįæģ¯"
      ],
      [
        "æī",
        "ĭ"
      ],
      [
        "æĿ",
        "İç¿Ķ"
      ],
      [
        "æĿ±",
        "åĵ¥éģĬèīĩ"
      ],
      [
        "æ¬Ĭ",
        "çİĭæ³ķèªª"
      ],
      [
        "æ±º",
        "å®ļåĭĿ"
      ],
      [
        "æ·»",
        "è®Ĭæķ¸"
      ],
      [
        "æ¼²è¡Į",
        "æĥħ"
      ],
      [
        "çĭ",
        "Ĥé£Ĩ"
      ],
      [
        "çį",
        "²åĪ©éĽ£æĴĲå¸Ĥåł´"
      ],
      [
        "çĴ",
        "°çĲĥç¶ĵæ¿Łæķ¸æĵļ"
      ],
      [
        "çĸ",
        "ĳæħ"
      ],
      [
        "ç§ĳ",
        "æĬĢéĢļèĨ¨"
      ],
      [
        "èı",
        "¯çĪ¾è¡"
      ],
      [
        "è£ľ",
        "æ¼²è¡Įæĥħ"
      ],
      [
        "è¬Ŀ",
        "éĩĳæ²"
      ],
      [
        "éĺ",
        "¿èģ¯éħ"
      ],
      [
        "é¢±",
        "é¢¨éĢļèĨ¨GDP"
      ],
      [
        "ìĦ",
        "łìĿ"
      ],
      [
        "ĠéĢļèĨ¨",
        "çĸĳæħ"
      ],
      [
        "Ġèģ¯",
        "åĲĪæĸ°èģŀç¶²"
      ],
      [
        "ĠæĪ°çĪŃ",
        "åŀĭæħĭæĶ"
      ],
      [
        "ĠæĹ",
        "ºå¾Ĺ"
      ],
      [
        "Ġæĺ",
        "İåł±"
      ],
      [
        "Ġé¢¨",
        "åĤ³åªĴ"
      ],
      [
        "Ġge",
        "ar"
      ],
      [
        "Ġä¹",
        "Ļæľª"
      ],
      [
        "ĠéĿ",
        "ľå¾"
      ],
      [
        "Ġæ°",
        "ĳè¦ĸ"
      ],
      [
        "ĠæĽ´",
        "ä¸įéľ"
      ],
      [
        "Ġ2026",
        "0713"
      ],
      [
        "ĠHa",
        "kkaNews"
      ],
      [
        "ĠLoom",
        "s"
      ],
      [
        "ĠæĦ",
        "ıå¤ĸ"
      ],
      [
        "Ġé¦Ļ",
        "æ¸¯ç¶ĵæ¿Ł"
      ],
      [
        "Ġì¡°",
        "ìĦłìĿ"
      ],
      [
        "ĢçĤ",
        "ºåķĨ"
      ],
      [
        "Ģå°ĩ",
        "åĩºå¸Ńåľĭ"
      ],
      [
        "ĥä¼°",
        "åĢ¼è¿"
      ],
      [
        "ĥé©",
        "Ĺä¾"
      ],
      [
        "ĥå±Ģ",
        "ä¸įèĥ½"
      ],
      [
        "ħéł",
        "ĲæľŁ"
      ],
      [
        "ħåı°èĤ¡",
        "æ¬Ĭçİĭæ³ķèªª"
      ],
      [
        "Ĩæģ",
        "©åŁĶæĪ°"
      ],
      [
        "ĨæĪ°çĪŃ",
        "èª°æľĥ"
      ],
      [
        "Ĩåħĥ",
        "æ½ĽåĬĽ"
      ],
      [
        "ĩī",
        "æ±ºå®ļåĭĿ"
      ],
      [
        "īéĭ",
        "¸"
      ],
      [
        "ĭé»ĥéĩĳ",
        "å¸Ĥåł´æľ¬éĢ±"
      ],
      [
        "ĮæĻĤ",
        "é©ļäºº"
      ],
      [
        "įéĩĳ",
        "å±¬æľŁ"
      ],
      [
        "İĥçŀ",
        "Ħ"
      ],
      [
        "ıæĪ°çĪŃ",
        "å»¶çĩĴ"
      ],
      [
        "Ķ³å",
        "¿ħå°ĩå£ĵ"
      ],
      [
        "ķçı¾",
        "æľĢæĸ°"
      ],
      [
        "ĸçĳ",
        "Ľè§Ģé»ŀ"
      ],
      [
        "ł´éĩĳèŀį",
        "é«Ķç³»"
      ],
      [
        "ŃĨè",
        "¨ĺ"
      ],
      [
        "ä¸Ńåľĭ",
        "GDP"
      ],
      [
        "æľĽæ¨Ĥ",
        "è§Ģ"
      ],
      [
        "éĢĨè",
        "½ī"
      ],
      [
        "éĢĨåĲĳ",
        "æĬķè³ĩæ©Ł"
      ],
      [
        "éĢĻçĶ",
        "¢æ¥Ń"
      ],
      [
        "èģļçĦ",
        "¦ç¾İåľĭä¸īå¤§éĩįç"
      ],
      [
        "Ġtrad",
        "e"
      ],
      [
        "æĪĲæ",
        "ŀľ"
      ],
      [
        "æĪ´ä¸",
        "ĸçĳĽè§Ģé»ŀ"
      ],
      [
        "è²´éĩ",
        "įéĩĳå±¬æľŁ"
      ],
      [
        "è²»èĢ",
        "ħéłĲæľŁ"
      ],
      [
        "éĢļèĨ¨åĨ",
        "įçĩĥ"
      ],
      [
        "éĢļèĨ¨å£ĵ",
        "åĬĽåĨįèµ·"
      ],
      [
        "éĢļèĨ¨æİ¨",
        "æīĭ"
      ],
      [
        "ĠTri",
        "gger"
      ],
      [
        "ĠTSM",
        "C"
      ],
      [
        "ĠTrad",
        "ingKey"
      ],
      [
        "Ġå¢¨",
        "æĸ°èģŀ"
      ],
      [
        "ĠåķĨ",
        "åĤ³åªĴ"
      ],
      [
        "Ġå°ĩ",
        "æĺ¯ä¸ĭæ³¢è´ı"
      ],
      [
        "Ġå±ķ",
        "æľĽæ¨Ĥè§Ģ"
      ],
      [
        "Ġå·¥å",
        "ķĨæĻĤåł±"
      ],
      [
        "ĠåĬł",
        "åĬĩè²§å¯Į"
      ],
      [
        "ç¾İéĬĢ",
        "æıŃ"
      ],
      [
        "ç¾İéĹľéįµ",
        "éĢļèĨ¨èĪĩéĽ¶åĶ"
      ],
      [
        "ç¾İåħĥ",
        "çĭĤé£Ĩ"
      ],
      [
        "Ġsing",
        "tao"
      ],
      [
        "Ġsit",
        "uation"
      ],
      [
        "Fedä»",
        "Ĭå¹´æľªå¿ħ"
      ],
      [
        "Fedä¸į",
        "æĢ¥éĻįæģ¯"
      ],
      [
        "FedæĪĸ",
        "åįĩæģ¯æĬµç"
      ],
      [
        "Fedéĩįç",
        "Ķ³å¿ħå°ĩå£ĵ"
      ],
      [
        "Invest",
        "ors"
      ],
      [
        "ĠCha",
        "ir"
      ],
      [
        "ĠChin",
        "a"
      ],
      [
        "ĠCLAR",
        "ITY"
      ],
      [
        "ĠInter",
        "national"
      ],
      [
        "ĠSent",
        "iment"
      ],
      [
        "æģĲåĬĩ",
        "çĥĪæ³¢"
      ],
      [
        "ĠAIæĬķè³ĩ",
        "èĪĩæ¶Ī"
      ],
      [
        "ä¸Ģå¸",
        "¶ä¸Ģè·¯"
      ],
      [
        "ä¸ĢéĢ±",
        "ç¶ĵæ¿ŁåĽŀ"
      ],
      [
        "æľĥç¾İåľĭ",
        "éĩĳèŀįèĤ¡"
      ],
      [
        "Ġout",
        "look"
      ],
      [
        "AIè³ĩ",
        "æľ¬æĶ¯"
      ],
      [
        "AIçĨ",
        "±æ½®åıįæĪĲ"
      ],
      [
        "åħ¨çĲĥ",
        "å¸Ĥåł´è§Ģæ¸"
      ],
      [
        "åħ©åł´",
        "æĪ°çĪŃåĲ"
      ],
      [
        "åħ·åħ",
        "Ĩåħĥæ½ĽåĬĽ"
      ],
      [
        "ĠExpec",
        "t"
      ],
      [
        "Ġä¸īç«",
        "ĭæĸ°èģŀ"
      ],
      [
        "Ġä¸Ĭå¸Ĥ",
        "æ«ĥ"
      ],
      [
        "åľĭéļ",
        "Ľè²¡ç¶ĵ"
      ],
      [
        "åľĭå¤ĸ",
        "æ¶Īæģ¯"
      ],
      [
        "ĠDIGIT",
        "IMES"
      ],
      [
        "ĠMoney",
        "contro"
      ],
      [
        "é«Ķé",
        "ıĪ"
      ],
      [
        "éĽĨçĻ",
        "»åł´"
      ],
      [
        "ĠBri",
        "efing"
      ],
      [
        "ĠBloom",
        "berg"
      ],
      [
        "ĠBarch",
        "art"
      ],
      [
        "Ġwit",
        "hin"
      ],
      [
        "ãĢįâĶ",
        "Ģ"
      ],
      [
        "æĪ°çĪŃéļ",
        "Ĩæģ©åŁĶæĪ°"
      ],
      [
        "ä»įæľī",
        "ä¸Ĭè¡Įç©º"
      ],
      [
        "ä»ĸå±",
        "±ä¹ĭçŁ³"
      ],
      [
        "å¹´ä½İ",
        "é»ŀ"
      ],
      [
        "èª¿å¸",
        "ĥå±Ģä¸įèĥ½"
      ],
      [
        "é«ĺè©ķ",
        "ç´ļæµ®æ¿"
      ],
      [
        "é«ĺåĪ©çİĩ",
        "æĻĤä»£"
      ],
      [
        "æĹ¥åįĬå°İ",
        "é«ĶéıĪ"
      ],
      [
        "ĠFig",
        "ures"
      ],
      [
        "ĠFinan",
        "ce"
      ],
      [
        "Ġbill",
        "ion"
      ],
      [
        "Ġleg",
        "islative"
      ],
      [
        "çĽ¤åīįæ",
        "İĥçŀĦ"
      ],
      [
        "éģ©æ",
        "ĩīæ±ºå®ļåĭĿ"
      ],
      [
        "Ġfact",
        "ors"
      ],
      [
        "ļĦéĹľéįµ",
        "é¢¨éļª"
      ],
      [
        "æĪ°æ©Ł",
        "åĴĮF"
      ],
      [
        "ç¾İèĤ¡è²¡åł±",
        "åŃ£éĸĭè·"
      ],
      [
        "åı°æµ",
        "·å®īåħ"
      ],
      [
        "æĻĤè«ĸ",
        "å»£åł´"
      ],
      [
        "è©ŀå¯Ĩ",
        "éĽĨçĻ»åł´"
      ],
      [
        "è®Ĭçı¾æĭ",
        "īéĭ¸"
      ],
      [
        "ĠJPMor",
        "gan"
      ],
      [
        "ĠOthe",
        "r"
      ],
      [
        "Ġconfl",
        "ict"
      ],
      [
        "ĥ½æľī",
        "åı¯èĥ½"
      ],
      [
        "æľªä¾",
        "ĨæĪ°çĪŃèª°æľĥ"
      ],
      [
        "å¤§æ¯Ķ",
        "æĭ¼"
      ],
      [
        "å¸Ĥåł´èµ°",
        "åĭ¢"
      ],
      [
        "èģ¯æºĸæľĥåĬłæģ¯",
        "é¢¨éļª"
      ],
      [
        "ĠGover",
        "nment"
      ],
      [
        "åĢĭçĻ¾åĪĨ",
        "é»ŀ"
      ],
      [
        "åĤĳæ£®",
        "è¦ĸè§Ĵ"
      ],
      [
        "åĵģéĢļèĨ¨èĢ",
        "Įåįĩæģ¯"
      ],
      [
        "çĤ¸æĸ",
        "·"
      ],
      [
        "éłŃæĵºä¸",
        "ªå®¢å®¶"
      ],
      [
        "ĠNOW",
        "newsä»ĬæĹ¥"
      ],
      [
        "ĠNetfl",
        "ix"
      ],
      [
        "ä¸ĬåįĬå¹´",
        "çĩŁæĶ¶å¹´æ¸Ľ"
      ],
      [
        "ç¾İä¼ĬåĨį",
        "éĸĭçģ«"
      ],
      [
        "åĩºç¸",
        "®æ°´é"
      ],
      [
        "ä¿¡è©ķ",
        "éĢļèĨ¨"
      ],
      [
        "ä¿Ħçĥ",
        "ıæĪ°çĪŃå»¶çĩĴ"
      ],
      [
        "å¯ĮçĲĨè²¡",
        "ç¶²"
      ],
      [
        "æŃĲæ´²å¤",
        "®è¡ĮæĨĤAIæĶ»ç"
      ],
      [
        "ç·Ĭç¹ĥ",
        "éĢ±äºĮ"
      ],
      [
        "ç¸½ç¶ĵ",
        "æ¸ĽéĢŁèĪĩAI"
      ],
      [
        "Ġupdat",
        "es"
      ],
      [
        "ä¸īè®Ĭæķ¸",
        "å°ĩæıŃæĽī"
      ],
      [
        "æľĪåºķæıĲäº¤",
        "å°įçŃĸ"
      ],
      [
        "è²¨éĩĳä¸Ĭ",
        "éĢ±äºĶé½Ĭ"
      ],
      [
        "Ġåħ¨çĲĥ",
        "è²¡ç¶ĵ"
      ],
      [
        "Ġåħ§åľ",
        "°AIçĽĽæľĥå±"
      ],
      [
        "Ġå¤§åŀĭ",
        "éĬĢè¡Į"
      ],
      [
        "åľ°ç·£æĶ¿æ²",
        "»éģŀå»¶"
      ],
      [
        "æģĲæİ¨åįĩç¾İåľĭæł",
        "¸å¿ĥ"
      ],
      [
        "æģĲæ¯Ķæĥ",
        "³åĥıæĽ´"
      ],
      [
        "é»ĥéĩĳåĥ¹ä½",
        "į"
      ],
      [
        "æĶ¯æĴĲæ²¹",
        "åĥ¹"
      ],
      [
        "å®ļéĮ",
        "¨"
      ],
      [
        "Ġä¸Ńåľĭæķ´éł",
        "ĵ"
      ],
      [
        "Ġä¸Ńåľĭç¶ĵæ¿ŁæĪĸ",
        "æĶ¾ç·©"
      ],
      [
        "ç´ļæĺŁæľŁ",
        "ä¸Ģ"
      ],
      [
        "æĹ¥åł±HK",
        "ET"
      ],
      [
        "åīįæĻ¯æĺ¯",
        "ç¾İèĤ¡éĿ¢èĩ¨"
      ],
      [
        "èµ°åĲĳçı¾åĪĨ",
        "æŃ§"
      ],
      [
        "ĠOfficial",
        "ly"
      ],
      [
        "æ³ķäººæĽĿå®",
        "ĥä¼°åĢ¼è¿"
      ],
      [
        "Ġmarketscree",
        "ner"
      ],
      [
        "æľ¬éĢ±æĵįçĽ¤ç",
        "ŃĨè¨ĺ"
      ],
      [
        "çĩŁæĶ¶èªįåĪ",
        "Ĺ"
      ],
      [
        "ASMLåıĬ",
        "åı°ç©įéĽ»æĶ¾æ¦ľ"
      ],
      [
        "Cè·Įåĥ¹ç´ħåĪ©éĽ£",
        "çı¾"
      ],
      [
        "Geopol",
        "itical"
      ],
      [
        "Heav",
        "y"
      ],
      [
        "¨Ńæİ¨åįĩçī",
        "©åĥ¹"
      ],
      [
        "«åħ¼éĢļèĨ¨èĢ",
        "ĥé©Ĺä¾"
      ],
      [
        "®ä¸»å°İ",
        "å¸Ĥåł´èµ°åĭ¢"
      ],
      [
        "¹è®Ĭå¾ĮçļĦ",
        "åı°æµ·å®īåħ"
      ],
      [
        "æĿİç¿Ķ",
        "å®Ļ"
      ],
      [
        "ç§ĳæĬĢéĢļèĨ¨",
        "æĶĢé«ĺ"
      ],
      [
        "èı¯çĪ¾è¡",
        "ĹèŃ¦åĳĬ"
      ],
      [
        "è¬Ŀéĩĳæ²",
        "³é»ŀåĲį"
      ],
      [
        "ĠæĹºå¾Ĺ",
        "å¯ĮçĲĨè²¡ç¶²"
      ],
      [
        "Ġæĺİåł±",
        "æĸ°èģŀç¶²"
      ],
      [
        "Ġæ°ĳè¦ĸ",
        "æĸ°èģŀç¶²"
      ],
      [
        "ĠæĽ´ä¸įéľ",
        "ĢçĤºåķĨ"
      ],
      [
        "ĠæĦıå¤ĸ",
        "çĤ¸æĸ·"
      ],
      [
        "Ġé¦Ļæ¸¯ç¶ĵæ¿Ł",
        "æĹ¥åł±HKET"
      ],
      [
        "Ġì¡°ìĦłìĿ",
        "¼ë³´"
      ],
      [
        "Ģå°ĩåĩºå¸Ńåľĭ",
        "æľĥèģ½èŃī"
      ],
      [
        "ĮæĻĤé©ļäºº",
        "éĢĨè½ī"
      ],
      [
        "ķçı¾æľĢæĸ°",
        "æĪĲæŀľ"
      ],
      [
        "éĢĨåĲĳæĬķè³ĩæ©Ł",
        "æľĥ"
      ],
      [
        "è²´éĩįéĩĳå±¬æľŁ",
        "è²¨"
      ],
      [
        "è²»èĢħéłĲæľŁ",
        "æ·»è®Ĭæķ¸"
      ],
      [
        "Ġå°ĩæĺ¯ä¸ĭæ³¢è´ı",
        "å®¶"
      ],
      [
        "ĠåĬłåĬĩè²§å¯Į",
        "å·®è·Ŀ"
      ],
      [
        "æģĲåĬĩçĥĪæ³¢",
        "åĭķ"
      ],
      [
        "ä¸ĢéĢ±ç¶ĵæ¿ŁåĽŀ",
        "é¡§"
      ],
      [
        "AIè³ĩæľ¬æĶ¯",
        "åĩºç¸®æ°´é"
      ],
      [
        "åħ¨çĲĥå¸Ĥåł´è§Ģæ¸",
        "¬ç«Ļ"
      ],
      [
        "ĠMoneycontro",
        "l"
      ],
      [
        "æĪ°çĪŃéļĨæģ©åŁĶæĪ°",
        "å½¹"
      ],
      [
        "ä»įæľīä¸Ĭè¡Įç©º",
        "éĸĵ"
      ],
      [
        "èª¿å¸ĥå±Ģä¸įèĥ½",
        "èªª"
      ],
      [
        "é«ĺè©ķç´ļæµ®æ¿",
        "«"
      ],
      [
        "éģ©æĩīæ±ºå®ļåĭĿ",
        "æķĹ"
      ],
      [
        "ç¾İèĤ¡è²¡åł±åŃ£éĸĭè·",
        "ĳ"
      ],
      [
        "ĠNOWnewsä»ĬæĹ¥",
        "æĸ°èģŀ"
      ],
      [
        "è²¨éĩĳä¸ĬéĢ±äºĶé½Ĭ",
        "è·Į"
      ],
      [
        "æģĲæ¯Ķæĥ³åĥıæĽ´",
        "ä¹ħ"
      ],
      [
        "æ³ķäººæĽĿå®ĥä¼°åĢ¼è¿",
        "ĳ"
      ],
      [
        "«åħ¼éĢļèĨ¨èĢĥé©Ĺä¾",
        "Ĩè¥²"
      ],
      [
        "¹è®Ĭå¾ĮçļĦåı°æµ·å®īåħ",
        "¨"
      ]
    ]
  }
}