{
  "vocab": {
    "[PAD]": 0,
    "[UNK]": 1,
    "[BOS]": 2,
    "[EOS]": 3,
    "[SEP]": 4,
    "[CLS]": 5,
    "[MASK]": 6,
    "\n": 7,
    " ": 8,
    ",": 9,
    "-": 10,
    ".": 11,
    "0": 12,
    "1": 13,
    "2": 14,
    "3": 15,
    "4": 16,
    "5": 17,
    "6": 18,
    "7": 19,
    "8": 20,
    "9": 21,
    ":": 22,
    "?": 23,
    "a": 24,
    "b": 25,
    "c": 26,
    "d": 27,
    "e": 28,
    "f": 29,
    "g": 30,
    "h": 31,
    "i": 32,
    "j": 33,
    "k": 34,
    "l": 35,
    "m": 36,
    "n": 37,
    "o": 38,
    "p": 39,
    "q": 40,
    "r": 41,
    "s": 42,
    "t": 43,
    "u": 44,
    "v": 45,
    "w": 46,
    "x": 47,
    "y": 48,
    "z": 49,
    "一": 50,
    "三": 51,
    "上": 52,
    "下": 53,
    "不": 54,
    "中": 55,
    "主": 56,
    "之": 57,
    "事": 58,
    "交": 59,
    "享": 60,
    "人": 61,
    "什": 62,
    "介": 63,
    "仍": 64,
    "他": 65,
    "付": 66,
    "代": 67,
    "以": 68,
    "件": 69,
    "伴": 70,
    "但": 71,
    "位": 72,
    "低": 73,
    "何": 74,
    "作": 75,
    "你": 76,
    "佳": 77,
    "使": 78,
    "來": 79,
    "例": 80,
    "依": 81,
    "保": 82,
    "信": 83,
    "倉": 84,
    "個": 85,
    "倍": 86,
    "候": 87,
    "值": 88,
    "假": 89,
    "偏": 90,
    "做": 91,
    "停": 92,
    "健": 93,
    "偵": 94,
    "傳": 95,
    "價": 96,
    "優": 97,
    "儲": 98,
    "允": 99,
    "先": 100,
    "免": 101,
    "入": 102,
    "內": 103,
    "全": 104,
    "公": 105,
    "共": 106,
    "其": 107,
    "具": 108,
    "再": 109,
    "出": 110,
    "分": 111,
    "切": 112,
    "列": 113,
    "初": 114,
    "判": 115,
    "別": 116,
    "利": 117,
    "到": 118,
    "制": 119,
    "則": 120,
    "前": 121,
    "剛": 122,
    "割": 123,
    "創": 124,
    "力": 125,
    "功": 126,
    "加": 127,
    "動": 128,
    "勢": 129,
    "包": 130,
    "化": 131,
    "區": 132,
    "即": 133,
    "原": 134,
    "參": 135,
    "叉": 136,
    "及": 137,
    "反": 138,
    "受": 139,
    "口": 140,
    "只": 141,
    "可": 142,
    "史": 143,
    "各": 144,
    "合": 145,
    "同": 146,
    "名": 147,
    "向": 148,
    "吞": 149,
    "含": 150,
    "和": 151,
    "品": 152,
    "哪": 153,
    "啟": 154,
    "單": 155,
    "器": 156,
    "噬": 157,
    "嚴": 158,
    "回": 159,
    "因": 160,
    "固": 161,
    "圈": 162,
    "圍": 163,
    "在": 164,
    "均": 165,
    "型": 166,
    "域": 167,
    "基": 168,
    "場": 169,
    "境": 170,
    "增": 171,
    "壓": 172,
    "壞": 173,
    "外": 174,
    "多": 175,
    "夜": 176,
    "夠": 177,
    "大": 178,
    "天": 179,
    "失": 180,
    "奔": 181,
    "套": 182,
    "好": 183,
    "如": 184,
    "始": 185,
    "子": 186,
    "它": 187,
    "安": 188,
    "定": 189,
    "容": 190,
    "密": 191,
    "實": 192,
    "寬": 193,
    "將": 194,
    "對": 195,
    "導": 196,
    "小": 197,
    "少": 198,
    "就": 199,
    "層": 200,
    "工": 201,
    "差": 202,
    "已": 203,
    "市": 204,
    "布": 205,
    "希": 206,
    "帳": 207,
    "帶": 208,
    "常": 209,
    "幅": 210,
    "幣": 211,
    "平": 212,
    "底": 213,
    "度": 214,
    "庫": 215,
    "建": 216,
    "式": 217,
    "引": 218,
    "弱": 219,
    "強": 220,
    "彈": 221,
    "彌": 222,
    "影": 223,
    "往": 224,
    "待": 225,
    "很": 226,
    "後": 227,
    "從": 228,
    "微": 229,
    "徵": 230,
    "心": 231,
    "快": 232,
    "怎": 233,
    "思": 234,
    "急": 235,
    "性": 236,
    "恐": 237,
    "息": 238,
    "情": 239,
    "惠": 240,
    "想": 241,
    "意": 242,
    "態": 243,
    "慌": 244,
    "慣": 245,
    "慮": 246,
    "應": 247,
    "成": 248,
    "或": 249,
    "戶": 250,
    "所": 251,
    "手": 252,
    "批": 253,
    "承": 254,
    "技": 255,
    "投": 256,
    "折": 257,
    "拉": 258,
    "括": 259,
    "持": 260,
    "指": 261,
    "掉": 262,
    "排": 263,
    "掛": 264,
    "控": 265,
    "推": 266,
    "提": 267,
    "插": 268,
    "換": 269,
    "援": 270,
    "損": 271,
    "撐": 272,
    "撤": 273,
    "擇": 274,
    "操": 275,
    "擎": 276,
    "擔": 277,
    "據": 278,
    "擠": 279,
    "擺": 280,
    "支": 281,
    "收": 282,
    "改": 283,
    "放": 284,
    "效": 285,
    "整": 286,
    "數": 287,
    "料": 288,
    "新": 289,
    "斷": 290,
    "方": 291,
    "於": 292,
    "日": 293,
    "明": 294,
    "易": 295,
    "映": 296,
    "是": 297,
    "時": 298,
    "景": 299,
    "暫": 300,
    "最": 301,
    "會": 302,
    "有": 303,
    "望": 304,
    "朝": 305,
    "期": 306,
    "未": 307,
    "本": 308,
    "析": 309,
    "林": 310,
    "果": 311,
    "某": 312,
    "查": 313,
    "核": 314,
    "根": 315,
    "格": 316,
    "桿": 317,
    "條": 318,
    "棒": 319,
    "業": 320,
    "極": 321,
    "槓": 322,
    "標": 323,
    "模": 324,
    "機": 325,
    "檢": 326,
    "權": 327,
    "次": 328,
    "止": 329,
    "正": 330,
    "歷": 331,
    "歸": 332,
    "段": 333,
    "每": 334,
    "比": 335,
    "永": 336,
    "決": 337,
    "沒": 338,
    "沖": 339,
    "沿": 340,
    "況": 341,
    "法": 342,
    "波": 343,
    "注": 344,
    "流": 345,
    "消": 346,
    "深": 347,
    "清": 348,
    "減": 349,
    "測": 350,
    "準": 351,
    "滑": 352,
    "演": 353,
    "漲": 354,
    "潤": 355,
    "濃": 356,
    "濾": 357,
    "為": 358,
    "無": 359,
    "然": 360,
    "熱": 361,
    "燈": 362,
    "爆": 363,
    "牢": 364,
    "特": 365,
    "狀": 366,
    "獨": 367,
    "獲": 368,
    "率": 369,
    "現": 370,
    "理": 371,
    "環": 372,
    "生": 373,
    "產": 374,
    "用": 375,
    "由": 376,
    "界": 377,
    "略": 378,
    "異": 379,
    "當": 380,
    "發": 381,
    "的": 382,
    "盈": 383,
    "益": 384,
    "監": 385,
    "盤": 386,
    "盪": 387,
    "目": 388,
    "盯": 389,
    "相": 390,
    "看": 391,
    "真": 392,
    "知": 393,
    "短": 394,
    "破": 395,
    "砸": 396,
    "確": 397,
    "礎": 398,
    "示": 399,
    "神": 400,
    "移": 401,
    "稍": 402,
    "種": 403,
    "穩": 404,
    "空": 405,
    "穿": 406,
    "突": 407,
    "窄": 408,
    "立": 409,
    "端": 410,
    "筆": 411,
    "等": 412,
    "策": 413,
    "算": 414,
    "管": 415,
    "範": 416,
    "簡": 417,
    "系": 418,
    "約": 419,
    "納": 420,
    "級": 421,
    "素": 422,
    "終": 423,
    "組": 424,
    "結": 425,
    "給": 426,
    "統": 427,
    "經": 428,
    "維": 429,
    "網": 430,
    "緒": 431,
    "線": 432,
    "練": 433,
    "縮": 434,
    "總": 435,
    "績": 436,
    "續": 437,
    "缺": 438,
    "置": 439,
    "美": 440,
    "義": 441,
    "習": 442,
    "考": 443,
    "者": 444,
    "而": 445,
    "耐": 446,
    "聞": 447,
    "聯": 448,
    "背": 449,
    "能": 450,
    "臨": 451,
    "自": 452,
    "致": 453,
    "與": 454,
    "般": 455,
    "良": 456,
    "若": 457,
    "著": 458,
    "處": 459,
    "號": 460,
    "虧": 461,
    "融": 462,
    "行": 463,
    "衍": 464,
    "術": 465,
    "衡": 466,
    "表": 467,
    "被": 468,
    "補": 469,
    "要": 470,
    "解": 471,
    "觸": 472,
    "訂": 473,
    "計": 474,
    "訓": 475,
    "記": 476,
    "設": 477,
    "該": 478,
    "認": 479,
    "調": 480,
    "請": 481,
    "論": 482,
    "證": 483,
    "識": 484,
    "議": 485,
    "護": 486,
    "讀": 487,
    "變": 488,
    "讓": 489,
    "負": 490,
    "貨": 491,
    "買": 492,
    "費": 493,
    "貼": 494,
    "資": 495,
    "賣": 496,
    "走": 497,
    "超": 498,
    "越": 499,
    "趨": 500,
    "足": 501,
    "跌": 502,
    "跑": 503,
    "距": 504,
    "跟": 505,
    "路": 506,
    "跳": 507,
    "蹤": 508,
    "軌": 509,
    "較": 510,
    "輯": 511,
    "轉": 512,
    "農": 513,
    "迅": 514,
    "近": 515,
    "追": 516,
    "逐": 517,
    "這": 518,
    "通": 519,
    "速": 520,
    "連": 521,
    "進": 522,
    "運": 523,
    "過": 524,
    "道": 525,
    "達": 526,
    "適": 527,
    "選": 528,
    "遺": 529,
    "避": 530,
    "邏": 531,
    "部": 532,
    "釋": 533,
    "重": 534,
    "量": 535,
    "金": 536,
    "針": 537,
    "錄": 538,
    "錘": 539,
    "鍵": 540,
    "鎖": 541,
    "長": 542,
    "開": 543,
    "間": 544,
    "關": 545,
    "防": 546,
    "限": 547,
    "階": 548,
    "際": 549,
    "隨": 550,
    "險": 551,
    "離": 552,
    "需": 553,
    "震": 554,
    "非": 555,
    "靠": 556,
    "面": 557,
    "響": 558,
    "頂": 559,
    "順": 560,
    "頭": 561,
    "額": 562,
    "顯": 563,
    "風": 564,
    "餘": 565,
    "驅": 566,
    "驗": 567,
    "高": 568,
    "鬆": 569,
    "麼": 570,
    "點": 571,
    "the": 572,
    "價格": 573,
    "止損": 574,
    "策略": 575,
    "price": 576,
    "交易": 577,
    "is": 578,
    "市場": 579,
    "成交": 580,
    "倉位": 581,
    "費率": 582,
    "突破": 583,
    "什麼": 584,
    "風險": 585,
    "stop": 586,
    "bioneuronai": 587,
    "margin": 588,
    "ai": 589,
    "資金": 590,
    "rate": 591,
    "自動": 592,
    "新聞": 593,
    "合約": 594,
    "槓桿": 595,
    "爆倉": 596,
    "for": 597,
    "價單": 598,
    "趨勢": 599,
    "futures": 600,
    "幣安": 601,
    "liquidation": 602,
    "market": 603,
    "做多": 604,
    "rsi": 605,
    "with": 606,
    "positions": 607,
    "使用": 608,
    "risk": 609,
    "保證": 610,
    "可能": 611,
    "金費": 612,
    "怎麼": 613,
    "資金費": 614,
    "金費率": 615,
    "資金費率": 616,
    "情緒": 617,
    "order": 618,
    "行情": 619,
    "and": 620,
    "leverage": 621,
    "to": 622,
    "position": 623,
    "btc": 624,
    "entry": 625,
    "macd": 626,
    "超賣": 627,
    "usdt": 628,
    "可以": 629,
    "what": 630,
    "in": 631,
    "帳戶": 632,
    "證金": 633,
    "保證金": 634,
    "虧損": 635,
    "波動": 636,
    "loss": 637,
    "多頭": 638,
    "空頭": 639,
    "long": 640,
    "系統": 641,
    "限價": 642,
    "when": 643,
    "分析": 644,
    "perpetual": 645,
    "binance": 646,
    "on": 647,
    "是什": 648,
    "是什麼": 649,
    "funding": 650,
    "最後": 651,
    "交價": 652,
    "成交價": 653,
    "倉價": 654,
    "adl": 655,
    "市價": 656,
    "市價單": 657,
    "進場": 658,
    "信號": 659,
    "融合": 660,
    "超買": 661,
    "line": 662,
    "永續": 663,
    "續合": 664,
    "永續合": 665,
    "續合約": 666,
    "永續合約": 667,
    "btcusdt": 668,
    "建議": 669,
    "use": 670,
    "損失": 671,
    "account": 672,
    "計算": 673,
    "方式": 674,
    "價值": 675,
    "how": 676,
    "it": 677,
    "實際": 678,
    "爆倉價": 679,
    "平倉": 680,
    "方向": 681,
    "情況": 682,
    "限價單": 683,
    "追蹤": 684,
    "每筆": 685,
    "rrr": 686,
    "以下": 687,
    "震盪": 688,
    "均值": 689,
    "特徵": 690,
    "api": 691,
    "推論": 692,
    "注意": 693,
    "signal": 694,
    "不同": 695,
    "持倉": 696,
    "date": 697,
    "can": 698,
    "of": 699,
    "上限": 700,
    "isolated": 701,
    "位不": 702,
    "適合": 703,
    "控制": 704,
    "作為": 705,
    "盈利": 706,
    "極端": 707,
    "or": 708,
    "balance": 709,
    "現貨": 710,
    "頭情": 711,
    "名義": 712,
    "義價": 713,
    "頭情緒": 714,
    "名義價": 715,
    "義價值": 716,
    "名義價值": 717,
    "標記": 718,
    "記價": 719,
    "標記價": 720,
    "記價格": 721,
    "標記價格": 722,
    "維持": 723,
    "做空": 724,
    "檢查": 725,
    "消息": 726,
    "時止": 727,
    "損點": 728,
    "回調": 729,
    "利潤": 730,
    "範例": 731,
    "時止損": 732,
    "止損點": 733,
    "時止損點": 734,
    "損市": 735,
    "止損市": 736,
    "損市價": 737,
    "止損市價": 738,
    "損市價單": 739,
    "重大": 740,
    "筆交": 741,
    "筆交易": 742,
    "標準": 743,
    "strategy": 744,
    "倍數": 745,
    "跟隨": 746,
    "ema": 747,
    "均線": 748,
    "強趨": 749,
    "強趨勢": 750,
    "值回": 751,
    "回歸": 752,
    "均值回": 753,
    "值回歸": 754,
    "均值回歸": 755,
    "squeeze": 756,
    "布林": 757,
    "下軌": 758,
    "收盤": 759,
    "模態": 760,
    "狀態": 761,
    "略新": 762,
    "策略新": 763,
    "略新聞": 764,
    "策略新聞": 765,
    "區域": 766,
    "crossover": 767,
    "目前": 768,
    "最大": 769,
    "contract": 770,
    "最高": 771,
    "倍槓": 772,
    "倍槓桿": 773,
    "通常": 774,
    "高槓": 775,
    "高槓桿": 776,
    "at": 777,
    "逐倉": 778,
    "有什": 779,
    "有什麼": 780,
    "cross": 781,
    "金額": 782,
    "影響": 783,
    "不會": 784,
    "的交": 785,
    "端波": 786,
    "倉位不": 787,
    "的交易": 788,
    "極端波": 789,
    "端波動": 790,
    "極端波動": 791,
    "that": 792,
    "not": 793,
    "trade": 794,
    "moves": 795,
    "better": 796,
    "率是": 797,
    "費率是": 798,
    "金費率是": 799,
    "付給": 800,
    "多單": 801,
    "成本": 802,
    "short": 803,
    "example": 804,
    "後成": 805,
    "最後成": 806,
    "後成交": 807,
    "最後成交": 808,
    "後成交價": 809,
    "流動": 810,
    "動性": 811,
    "場價": 812,
    "清算": 813,
    "不變": 814,
    "的倉": 815,
    "流動性": 816,
    "的倉位": 817,
    "開倉": 818,
    "桿維": 819,
    "持保": 820,
    "金率": 821,
    "介面": 822,
    "設定": 823,
    "損單": 824,
    "動平": 825,
    "避免": 826,
    "手續": 827,
    "續費": 828,
    "槓桿維": 829,
    "桿維持": 830,
    "維持保": 831,
    "持保證": 832,
    "證金率": 833,
    "止損單": 834,
    "手續費": 835,
    "槓桿維持": 836,
    "桿維持保": 837,
    "維持保證": 838,
    "持保證金": 839,
    "保證金率": 840,
    "maintenance": 841,
    "by": 842,
    "條件": 843,
    "limit": 844,
    "交優": 845,
    "滑點": 846,
    "適用": 847,
    "出場": 848,
    "成交優": 849,
    "you": 850,
    "above": 851,
    "markets": 852,
    "蹤止": 853,
    "麼用": 854,
    "追蹤止": 855,
    "蹤止損": 856,
    "怎麼用": 857,
    "追蹤止損": 858,
    "格下": 859,
    "下跌": 860,
    "勢行": 861,
    "情中": 862,
    "讓利": 863,
    "價格下": 864,
    "格下跌": 865,
    "趨勢行": 866,
    "勢行情": 867,
    "行情中": 868,
    "讓利潤": 869,
    "價格下跌": 870,
    "趨勢行情": 871,
    "損限": 872,
    "止損限": 873,
    "損限價": 874,
    "止損限價": 875,
    "損限價單": 876,
    "應該": 877,
    "位大": 878,
    "大小": 879,
    "每筆交": 880,
    "倉位大": 881,
    "位大小": 882,
    "每筆交易": 883,
    "倉位大小": 884,
    "reward": 885,
    "trend": 886,
    "相對": 887,
    "初始": 888,
    "始風": 889,
    "指標": 890,
    "長期": 891,
    "的倍": 892,
    "初始風": 893,
    "始風險": 894,
    "初始風險": 895,
    "時段": 896,
    "環境": 897,
    "動交": 898,
    "動交易": 899,
    "size": 900,
    "below": 901,
    "勢跟": 902,
    "略的": 903,
    "核心": 904,
    "趨勢跟": 905,
    "勢跟隨": 906,
    "策略的": 907,
    "趨勢跟隨": 908,
    "tp": 909,
    "盤整": 910,
    "歸策": 911,
    "回歸策": 912,
    "歸策略": 913,
    "值回歸策": 914,
    "回歸策略": 915,
    "明顯": 916,
    "林通": 917,
    "通道": 918,
    "準差": 919,
    "出現": 920,
    "布林通": 921,
    "林通道": 922,
    "標準差": 923,
    "布林通道": 924,
    "direction": 925,
    "change": 926,
    "dc": 927,
    "confirmed": 928,
    "假突": 929,
    "假突破": 930,
    "盤價": 931,
    "交量": 932,
    "放大": 933,
    "破後": 934,
    "回測": 935,
    "確認": 936,
    "收盤價": 937,
    "成交量": 938,
    "突破後": 939,
    "rag": 940,
    "rest": 941,
    "cli": 942,
    "主要": 943,
    "模型": 944,
    "聞情": 945,
    "緒分": 946,
    "三模": 947,
    "動態": 948,
    "新聞情": 949,
    "聞情緒": 950,
    "情緒分": 951,
    "三模態": 952,
    "新聞情緒": 953,
    "backtest": 954,
    "買超": 955,
    "超買超": 956,
    "買超賣": 957,
    "超買超賣": 958,
    "中軌": 959,
    "上軌": 960,
    "麼是": 961,
    "是永": 962,
    "什麼是": 963,
    "是永續": 964,
    "是永續合": 965,
    "是一": 966,
    "沒有": 967,
    "的加": 968,
    "加密": 969,
    "衍生": 970,
    "生品": 971,
    "需要": 972,
    "倉者": 973,
    "持有": 974,
    "安永": 975,
    "結算": 976,
    "的加密": 977,
    "衍生品": 978,
    "持倉者": 979,
    "幣安永": 980,
    "安永續": 981,
    "幣安永續": 982,
    "安永續合": 983,
    "no": 984,
    "are": 985,
    "one": 986,
    "volume": 987,
    "available": 988,
    "安合": 989,
    "以用": 990,
    "多少": 991,
    "幣安合": 992,
    "安合約": 993,
    "可以用": 994,
    "幣安合約": 995,
    "ethusdt": 996,
    "桿上": 997,
    "高倍": 998,
    "其他": 999,
    "主流": 1000,
    "新手": 1001,
    "用倍": 1002,
    "槓桿上": 1003,
    "桿上限": 1004,
    "最高倍": 1005,
    "使用倍": 1006,
    "槓桿上限": 1007,
    "maximum": 1008,
    "trading": 1009,
    "up": 1010,
    "capped": 1011,
    "beginners": 1012,
    "should": 1013,
    "倉保": 1014,
    "全倉": 1015,
    "差別": 1016,
    "倉保證": 1017,
    "倉保證金": 1018,
    "的保": 1019,
    "金適": 1020,
    "險的": 1021,
    "易者": 1022,
    "所有": 1023,
    "損倉": 1024,
    "容易": 1025,
    "若市": 1026,
    "場極": 1027,
    "的保證": 1028,
    "位不會": 1029,
    "資金適": 1030,
    "金適合": 1031,
    "風險的": 1032,
    "交易者": 1033,
    "損倉位": 1034,
    "若市場": 1035,
    "市場極": 1036,
    "場極端": 1037,
    "的保證金": 1038,
    "倉位不會": 1039,
    "資金適合": 1040,
    "的交易者": 1041,
    "市場極端": 1042,
    "場極端波": 1043,
    "uses": 1044,
    "max": 1045,
    "your": 1046,
    "entire": 1047,
    "traders": 1048,
    "control": 1049,
    "all": 1050,
    "as": 1051,
    "profitable": 1052,
    "support": 1053,
    "multiple": 1054,
    "麼計": 1055,
    "怎麼計": 1056,
    "麼計算": 1057,
    "怎麼計算": 1058,
    "的機": 1059,
    "機制": 1060,
    "制每": 1061,
    "每小": 1062,
    "小時": 1063,
    "率為": 1064,
    "為正": 1065,
    "給空": 1066,
    "頭代": 1067,
    "代表": 1068,
    "表市": 1069,
    "場偏": 1070,
    "支付": 1071,
    "位名": 1072,
    "是影": 1073,
    "重要": 1074,
    "時間": 1075,
    "每小時": 1076,
    "費率為": 1077,
    "付給空": 1078,
    "給空頭": 1079,
    "頭代表": 1080,
    "代表市": 1081,
    "表市場": 1082,
    "市場偏": 1083,
    "多頭情": 1084,
    "空頭情": 1085,
    "倉位名": 1086,
    "位名義": 1087,
    "付給空頭": 1088,
    "頭代表市": 1089,
    "代表市場": 1090,
    "表市場偏": 1091,
    "多頭情緒": 1092,
    "空頭情緒": 1093,
    "倉位名義": 1094,
    "位名義價": 1095,
    "does": 1096,
    "every": 1097,
    "positive": 1098,
    "pay": 1099,
    "bullish": 1100,
    "sentiment": 1101,
    "bearish": 1102,
    "notional": 1103,
    "value": 1104,
    "holding": 1105,
    "cost": 1106,
    "mark": 1107,
    "約市": 1108,
    "後一": 1109,
    "一筆": 1110,
    "際成": 1111,
    "的價": 1112,
    "因短": 1113,
    "短期": 1114,
    "或操": 1115,
    "操控": 1116,
    "加權": 1117,
    "觸發": 1118,
    "短暫": 1119,
    "損益": 1120,
    "格不": 1121,
    "你的": 1122,
    "合約市": 1123,
    "約市場": 1124,
    "實際成": 1125,
    "際成交": 1126,
    "的價格": 1127,
    "或操控": 1128,
    "市場價": 1129,
    "價格不": 1130,
    "你的倉": 1131,
    "合約市場": 1132,
    "實際成交": 1133,
    "你的倉位": 1134,
    "公式": 1135,
    "價開": 1136,
    "倉均": 1137,
    "均價": 1138,
    "價槓": 1139,
    "為例": 1140,
    "安介": 1141,
    "顯示": 1142,
    "做法": 1143,
    "讓系": 1144,
    "倉價開": 1145,
    "價開倉": 1146,
    "開倉均": 1147,
    "倉均價": 1148,
    "均價槓": 1149,
    "價槓桿": 1150,
    "幣安介": 1151,
    "安介面": 1152,
    "讓系統": 1153,
    "自動平": 1154,
    "動平倉": 1155,
    "爆倉價開": 1156,
    "倉價開倉": 1157,
    "價開倉均": 1158,
    "開倉均價": 1159,
    "倉均價槓": 1160,
    "均價槓桿": 1161,
    "價槓桿維": 1162,
    "幣安介面": 1163,
    "自動平倉": 1164,
    "formula": 1165,
    "best": 1166,
    "動減": 1167,
    "減倉": 1168,
    "自動減": 1169,
    "動減倉": 1170,
    "自動減倉": 1171,
    "訂單": 1172,
    "單的": 1173,
    "超過": 1174,
    "承擔": 1175,
    "範圍": 1176,
    "會強": 1177,
    "強制": 1178,
    "利方": 1179,
    "被的": 1180,
    "越高": 1181,
    "即使": 1182,
    "的幣": 1183,
    "會強制": 1184,
    "利方向": 1185,
    "的幣安": 1186,
    "單和": 1187,
    "麼情": 1188,
    "哪個": 1189,
    "價單和": 1190,
    "什麼情": 1191,
    "麼情況": 1192,
    "什麼情況": 1193,
    "優點": 1194,
    "缺點": 1195,
    "高波": 1196,
    "進出": 1197,
    "指定": 1198,
    "定價": 1199,
    "掛單": 1200,
    "機會": 1201,
    "等待": 1202,
    "場價格": 1203,
    "交優點": 1204,
    "高波動": 1205,
    "進出場": 1206,
    "指定價": 1207,
    "定價格": 1208,
    "成交優點": 1209,
    "指定價格": 1210,
    "after": 1211,
    "trigger": 1212,
    "works": 1213,
    "automatically": 1214,
    "enter": 1215,
    "resistance": 1216,
    "蹤止損單": 1217,
    "移動": 1218,
    "調整": 1219,
    "點隨": 1220,
    "隨價": 1221,
    "格上": 1222,
    "上漲": 1223,
    "移但": 1224,
    "但價": 1225,
    "點不": 1226,
    "下移": 1227,
    "參數": 1228,
    "距離": 1229,
    "潤奔": 1230,
    "奔跑": 1231,
    "同時": 1232,
    "獲利": 1233,
    "動追": 1234,
    "損點隨": 1235,
    "點隨價": 1236,
    "隨價格": 1237,
    "價格上": 1238,
    "格上漲": 1239,
    "移但價": 1240,
    "但價格": 1241,
    "損點不": 1242,
    "點不變": 1243,
    "利潤奔": 1244,
    "潤奔跑": 1245,
    "自動追": 1246,
    "動追蹤": 1247,
    "止損點隨": 1248,
    "損點隨價": 1249,
    "點隨價格": 1250,
    "價格上漲": 1251,
    "移但價格": 1252,
    "止損點不": 1253,
    "損點不變": 1254,
    "讓利潤奔": 1255,
    "利潤奔跑": 1256,
    "自動追蹤": 1257,
    "比較": 1258,
    "大消": 1259,
    "交價格": 1260,
    "重大消": 1261,
    "大消息": 1262,
    "成交價格": 1263,
    "重大消息": 1264,
    "連續": 1265,
    "續虧": 1266,
    "大風": 1267,
    "關鍵": 1268,
    "連續虧": 1269,
    "續虧損": 1270,
    "大風險": 1271,
    "連續虧損": 1272,
    "ratio": 1273,
    "minimum": 1274,
    "profit": 1275,
    "數是": 1276,
    "倍數是": 1277,
    "衡量": 1278,
    "結果": 1279,
    "觸及": 1280,
    "平均": 1281,
    "會自": 1282,
    "會自動": 1283,
    "phaserouter": 1284,
    "發布": 1285,
    "布前": 1286,
    "前後": 1287,
    "指數": 1288,
    "不足": 1289,
    "足的": 1290,
    "限制": 1291,
    "以上": 1292,
    "發布前": 1293,
    "布前後": 1294,
    "不足的": 1295,
    "自動交": 1296,
    "發布前後": 1297,
    "自動交易": 1298,
    "do": 1299,
    "calculate": 1300,
    "quantity": 1301,
    "this": 1302,
    "隨策": 1303,
    "的核": 1304,
    "邏輯": 1305,
    "跟隨策": 1306,
    "隨策略": 1307,
    "略的核": 1308,
    "的核心": 1309,
    "勢跟隨策": 1310,
    "跟隨策略": 1311,
    "隨策略的": 1312,
    "策略的核": 1313,
    "略的核心": 1314,
    "atr": 1315,
    "多範": 1316,
    "期均": 1317,
    "強度": 1318,
    "追高": 1319,
    "損設": 1320,
    "設在": 1321,
    "支撐": 1322,
    "倍以": 1323,
    "合的": 1324,
    "的市": 1325,
    "盪盤": 1326,
    "做多範": 1327,
    "多範例": 1328,
    "期均線": 1329,
    "止損設": 1330,
    "損設在": 1331,
    "的倍以": 1332,
    "適合的": 1333,
    "合的市": 1334,
    "的市場": 1335,
    "震盪盤": 1336,
    "盪盤整": 1337,
    "做多範例": 1338,
    "止損設在": 1339,
    "適合的市": 1340,
    "合的市場": 1341,
    "強趨勢行": 1342,
    "震盪盤整": 1343,
    "mean": 1344,
    "bb": 1345,
    "strong": 1346,
    "的情": 1347,
    "event": 1348,
    "significant": 1349,
    "reversals": 1350,
    "core": 1351,
    "os": 1352,
    "early": 1353,
    "aistrategyfusion": 1354,
    "破特": 1355,
    "有回": 1356,
    "回到": 1357,
    "間內": 1358,
    "破位": 1359,
    "位以": 1360,
    "突破特": 1361,
    "破特徵": 1362,
    "突破位": 1363,
    "破位以": 1364,
    "位以下": 1365,
    "突破特徵": 1366,
    "突破位以": 1367,
    "破位以下": 1368,
    "功能": 1369,
    "nlp": 1370,
    "sharpe": 1371,
    "sortino": 1372,
    "calmar": 1373,
    "略層": 1374,
    "依市": 1375,
    "動切": 1376,
    "切換": 1377,
    "析維": 1378,
    "維市": 1379,
    "場特": 1380,
    "徵新": 1381,
    "態動": 1382,
    "態融": 1383,
    "略推": 1384,
    "論新": 1385,
    "歷史": 1386,
    "引擎": 1387,
    "易前": 1388,
    "查系": 1389,
    "策略層": 1390,
    "依市場": 1391,
    "自動切": 1392,
    "動切換": 1393,
    "分析維": 1394,
    "析維市": 1395,
    "維市場": 1396,
    "市場特": 1397,
    "場特徵": 1398,
    "特徵新": 1399,
    "徵新聞": 1400,
    "緒分析": 1401,
    "模態動": 1402,
    "態動態": 1403,
    "態融合": 1404,
    "策略推": 1405,
    "略推論": 1406,
    "推論新": 1407,
    "論新聞": 1408,
    "交易前": 1409,
    "檢查系": 1410,
    "查系統": 1411,
    "自動切換": 1412,
    "分析維市": 1413,
    "析維市場": 1414,
    "維市場特": 1415,
    "市場特徵": 1416,
    "場特徵新": 1417,
    "特徵新聞": 1418,
    "徵新聞情": 1419,
    "聞情緒分": 1420,
    "情緒分析": 1421,
    "三模態動": 1422,
    "模態動態": 1423,
    "策略推論": 1424,
    "略推論新": 1425,
    "推論新聞": 1426,
    "檢查系統": 1427,
    "start": 1428,
    "run": 1429,
    "python": 1430,
    "main": 1431,
    "py": 1432,
    "symbol": 1433,
    "interval": 1434,
    "統狀": 1435,
    "系統狀": 1436,
    "統狀態": 1437,
    "系統狀態": 1438,
    "status": 1439,
    "模組": 1440,
    "聞分": 1441,
    "資料": 1442,
    "料庫": 1443,
    "新聞分": 1444,
    "聞分析": 1445,
    "資料庫": 1446,
    "新聞分析": 1447,
    "divergence": 1448,
    "對強": 1449,
    "域可": 1450,
    "反彈": 1451,
    "背離": 1452,
    "創新": 1453,
    "新高": 1454,
    "勢市": 1455,
    "場常": 1456,
    "常在": 1457,
    "在震": 1458,
    "盪超": 1459,
    "線應": 1460,
    "應改": 1461,
    "改用": 1462,
    "相對強": 1463,
    "區域可": 1464,
    "域可能": 1465,
    "創新高": 1466,
    "勢市場": 1467,
    "市場常": 1468,
    "場常在": 1469,
    "常在震": 1470,
    "在震盪": 1471,
    "震盪超": 1472,
    "線應改": 1473,
    "應改用": 1474,
    "區域可能": 1475,
    "勢市場常": 1476,
    "市場常在": 1477,
    "場常在震": 1478,
    "常在震盪": 1479,
    "在震盪超": 1480,
    "線應改用": 1481,
    "signals": 1482,
    "crosses": 1483,
    "zero": 1484,
    "軌中": 1485,
    "軌倍": 1486,
    "倍標": 1487,
    "帶寬": 1488,
    "大行": 1489,
    "價突": 1490,
    "軌可": 1491,
    "能超": 1492,
    "頭行": 1493,
    "中價": 1494,
    "格沿": 1495,
    "軌運": 1496,
    "運行": 1497,
    "軌中軌": 1498,
    "中軌倍": 1499,
    "軌倍標": 1500,
    "倍標準": 1501,
    "大行情": 1502,
    "盤價突": 1503,
    "價突破": 1504,
    "軌可能": 1505,
    "可能超": 1506,
    "頭行情": 1507,
    "情中價": 1508,
    "中價格": 1509,
    "價格沿": 1510,
    "軌運行": 1511,
    "軌中軌倍": 1512,
    "中軌倍標": 1513,
    "軌倍標準": 1514,
    "倍標準差": 1515,
    "收盤價突": 1516,
    "盤價突破": 1517,
    "軌可能超": 1518,
    "頭行情中": 1519,
    "行情中價": 1520,
    "情中價格": 1521,
    "中價格沿": 1522,
    "率偏": 1523,
    "緒過": 1524,
    "持續": 1525,
    "續付": 1526,
    "對應": 1527,
    "部區": 1528,
    "域注": 1529,
    "壓力": 1530,
    "費率偏": 1531,
    "情緒過": 1532,
    "持續付": 1533,
    "部區域": 1534,
    "區域注": 1535,
    "域注意": 1536,
    "頭情緒過": 1537,
    "部區域注": 1538,
    "區域注意": 1539,
    "麼是永": 1540,
    "什麼是永": 1541,
    "麼是永續": 1542,
    "約是": 1543,
    "一種": 1544,
    "種沒": 1545,
    "有到": 1546,
    "到期": 1547,
    "期日": 1548,
    "日的": 1549,
    "密貨": 1550,
    "貨幣": 1551,
    "幣衍": 1552,
    "品與": 1553,
    "與傳": 1554,
    "傳統": 1555,
    "統期": 1556,
    "期貨": 1557,
    "貨不": 1558,
    "同它": 1559,
    "它不": 1560,
    "不需": 1561,
    "要在": 1562,
    "在固": 1563,
    "固定": 1564,
    "定日": 1565,
    "日期": 1566,
    "期交": 1567,
    "交割": 1568,
    "割持": 1569,
    "者可": 1570,
    "以無": 1571,
    "無限": 1572,
    "限期": 1573,
    "期持": 1574,
    "有幣": 1575,
    "約以": 1576,
    "以計": 1577,
    "計價": 1578,
    "價和": 1579,
    "和結": 1580,
    "算是": 1581,
    "是目": 1582,
    "前交": 1583,
    "易量": 1584,
    "量最": 1585,
    "大的": 1586,
    "密衍": 1587,
    "品之": 1588,
    "之一": 1589,
    "合約是": 1590,
    "約是一": 1591,
    "是一種": 1592,
    "一種沒": 1593,
    "種沒有": 1594,
    "沒有到": 1595,
    "有到期": 1596,
    "到期日": 1597,
    "期日的": 1598,
    "日的加": 1599,
    "加密貨": 1600,
    "密貨幣": 1601,
    "貨幣衍": 1602,
    "幣衍生": 1603,
    "生品與": 1604,
    "品與傳": 1605,
    "與傳統": 1606,
    "傳統期": 1607,
    "統期貨": 1608,
    "期貨不": 1609,
    "貨不同": 1610,
    "不同它": 1611,
    "同它不": 1612,
    "它不需": 1613,
    "不需要": 1614,
    "需要在": 1615,
    "要在固": 1616,
    "在固定": 1617,
    "固定日": 1618,
    "定日期": 1619,
    "日期交": 1620,
    "期交割": 1621,
    "交割持": 1622,
    "割持倉": 1623,
    "倉者可": 1624,
    "者可以": 1625,
    "可以無": 1626,
    "以無限": 1627,
    "無限期": 1628,
    "限期持": 1629,
    "期持有": 1630,
    "持有幣": 1631,
    "有幣安": 1632,
    "合約以": 1633,
    "約以計": 1634,
    "以計價": 1635,
    "計價和": 1636,
    "價和結": 1637,
    "和結算": 1638,
    "結算是": 1639,
    "算是目": 1640,
    "是目前": 1641,
    "目前交": 1642,
    "前交易": 1643,
    "交易量": 1644,
    "易量最": 1645,
    "量最大": 1646,
    "最大的": 1647,
    "大的加": 1648,
    "加密衍": 1649,
    "密衍生": 1650,
    "生品之": 1651,
    "品之一": 1652,
    "續合約是": 1653,
    "合約是一": 1654,
    "約是一種": 1655,
    "是一種沒": 1656,
    "一種沒有": 1657,
    "種沒有到": 1658,
    "沒有到期": 1659,
    "有到期日": 1660,
    "到期日的": 1661,
    "期日的加": 1662,
    "日的加密": 1663,
    "的加密貨": 1664,
    "加密貨幣": 1665,
    "密貨幣衍": 1666,
    "貨幣衍生": 1667,
    "幣衍生品": 1668,
    "衍生品與": 1669,
    "生品與傳": 1670,
    "品與傳統": 1671,
    "與傳統期": 1672,
    "傳統期貨": 1673,
    "統期貨不": 1674,
    "期貨不同": 1675,
    "貨不同它": 1676,
    "不同它不": 1677,
    "同它不需": 1678,
    "它不需要": 1679,
    "不需要在": 1680,
    "需要在固": 1681,
    "要在固定": 1682,
    "在固定日": 1683,
    "固定日期": 1684,
    "定日期交": 1685,
    "日期交割": 1686,
    "期交割持": 1687,
    "交割持倉": 1688,
    "割持倉者": 1689,
    "持倉者可": 1690,
    "倉者可以": 1691,
    "者可以無": 1692,
    "可以無限": 1693,
    "以無限期": 1694,
    "無限期持": 1695,
    "限期持有": 1696,
    "期持有幣": 1697,
    "持有幣安": 1698,
    "有幣安永": 1699,
    "續合約以": 1700,
    "合約以計": 1701,
    "約以計價": 1702,
    "以計價和": 1703,
    "計價和結": 1704,
    "價和結算": 1705,
    "和結算是": 1706,
    "結算是目": 1707,
    "算是目前": 1708,
    "是目前交": 1709,
    "目前交易": 1710,
    "前交易量": 1711,
    "交易量最": 1712,
    "易量最大": 1713,
    "量最大的": 1714,
    "最大的加": 1715,
    "大的加密": 1716,
    "的加密衍": 1717,
    "加密衍生": 1718,
    "密衍生品": 1719,
    "衍生品之": 1720,
    "生品之一": 1721,
    "derivative": 1722,
    "product": 1723,
    "expiration": 1724,
    "unlike": 1725,
    "traditional": 1726,
    "there": 1727,
    "fixed": 1728,
    "settlement": 1729,
    "be": 1730,
    "held": 1731,
    "indefinitely": 1732,
    "denominated": 1733,
    "settled": 1734,
    "making": 1735,
    "them": 1736,
    "highest": 1737,
    "crypto": 1738,
    "derivatives": 1739,
    "約最": 1740,
    "高可": 1741,
    "用多": 1742,
    "少倍": 1743,
    "合約最": 1744,
    "約最高": 1745,
    "最高可": 1746,
    "高可以": 1747,
    "以用多": 1748,
    "用多少": 1749,
    "多少倍": 1750,
    "少倍槓": 1751,
    "安合約最": 1752,
    "合約最高": 1753,
    "約最高可": 1754,
    "最高可以": 1755,
    "高可以用": 1756,
    "可以用多": 1757,
    "以用多少": 1758,
    "用多少倍": 1759,
    "多少倍槓": 1760,
    "少倍槓桿": 1761,
    "約的": 1762,
    "的槓": 1763,
    "限依": 1764,
    "依幣": 1765,
    "幣種": 1766,
    "種而": 1767,
    "而異": 1768,
    "異最": 1769,
    "倍最": 1770,
    "倍其": 1771,
    "他主": 1772,
    "流幣": 1773,
    "幣通": 1774,
    "常倍": 1775,
    "倍新": 1776,
    "新帳": 1777,
    "戶開": 1778,
    "開戶": 1779,
    "戶天": 1780,
    "天內": 1781,
    "內槓": 1782,
    "限為": 1783,
    "為倍": 1784,
    "倍建": 1785,
    "議新": 1786,
    "手使": 1787,
    "桿高": 1788,
    "桿會": 1789,
    "會大": 1790,
    "大幅": 1791,
    "幅提": 1792,
    "提高": 1793,
    "高爆": 1794,
    "倉風": 1795,
    "合約的": 1796,
    "約的槓": 1797,
    "的槓桿": 1798,
    "上限依": 1799,
    "限依幣": 1800,
    "依幣種": 1801,
    "幣種而": 1802,
    "種而異": 1803,
    "而異最": 1804,
    "異最高": 1805,
    "高倍最": 1806,
    "倍最高": 1807,
    "高倍其": 1808,
    "倍其他": 1809,
    "其他主": 1810,
    "他主流": 1811,
    "主流幣": 1812,
    "流幣通": 1813,
    "幣通常": 1814,
    "通常倍": 1815,
    "常倍新": 1816,
    "倍新帳": 1817,
    "新帳戶": 1818,
    "帳戶開": 1819,
    "戶開戶": 1820,
    "開戶天": 1821,
    "戶天內": 1822,
    "天內槓": 1823,
    "內槓桿": 1824,
    "上限為": 1825,
    "限為倍": 1826,
    "為倍建": 1827,
    "倍建議": 1828,
    "建議新": 1829,
    "議新手": 1830,
    "新手使": 1831,
    "手使用": 1832,
    "用倍槓": 1833,
    "槓桿高": 1834,
    "桿高槓": 1835,
    "槓桿會": 1836,
    "桿會大": 1837,
    "會大幅": 1838,
    "大幅提": 1839,
    "幅提高": 1840,
    "提高爆": 1841,
    "高爆倉": 1842,
    "爆倉風": 1843,
    "倉風險": 1844,
    "安合約的": 1845,
    "合約的槓": 1846,
    "約的槓桿": 1847,
    "的槓桿上": 1848,
    "桿上限依": 1849,
    "上限依幣": 1850,
    "限依幣種": 1851,
    "依幣種而": 1852,
    "幣種而異": 1853,
    "種而異最": 1854,
    "而異最高": 1855,
    "異最高倍": 1856,
    "最高倍最": 1857,
    "高倍最高": 1858,
    "倍最高倍": 1859,
    "最高倍其": 1860,
    "高倍其他": 1861,
    "倍其他主": 1862,
    "其他主流": 1863,
    "他主流幣": 1864,
    "主流幣通": 1865,
    "流幣通常": 1866,
    "幣通常倍": 1867,
    "通常倍新": 1868,
    "常倍新帳": 1869,
    "倍新帳戶": 1870,
    "新帳戶開": 1871,
    "帳戶開戶": 1872,
    "戶開戶天": 1873,
    "開戶天內": 1874,
    "戶天內槓": 1875,
    "天內槓桿": 1876,
    "內槓桿上": 1877,
    "桿上限為": 1878,
    "上限為倍": 1879,
    "限為倍建": 1880,
    "為倍建議": 1881,
    "倍建議新": 1882,
    "建議新手": 1883,
    "議新手使": 1884,
    "新手使用": 1885,
    "手使用倍": 1886,
    "使用倍槓": 1887,
    "用倍槓桿": 1888,
    "倍槓桿高": 1889,
    "槓桿高槓": 1890,
    "桿高槓桿": 1891,
    "高槓桿會": 1892,
    "槓桿會大": 1893,
    "桿會大幅": 1894,
    "會大幅提": 1895,
    "大幅提高": 1896,
    "幅提高爆": 1897,
    "提高爆倉": 1898,
    "高爆倉風": 1899,
    "爆倉風險": 1900,
    "depends": 1901,
    "pair": 1902,
    "most": 1903,
    "altcoins": 1904,
    "accounts": 1905,
    "newer": 1906,
    "than": 1907,
    "days": 1908,
    "high": 1909,
    "dramatically": 1910,
    "increases": 1911,
    "金和": 1912,
    "和全": 1913,
    "金有": 1914,
    "麼差": 1915,
    "逐倉保": 1916,
    "證金和": 1917,
    "金和全": 1918,
    "和全倉": 1919,
    "全倉保": 1920,
    "證金有": 1921,
    "金有什": 1922,
    "什麼差": 1923,
    "麼差別": 1924,
    "逐倉保證": 1925,
    "保證金和": 1926,
    "證金和全": 1927,
    "金和全倉": 1928,
    "和全倉保": 1929,
    "全倉保證": 1930,
    "保證金有": 1931,
    "證金有什": 1932,
    "金有什麼": 1933,
    "有什麼差": 1934,
    "什麼差別": 1935,
    "倉每": 1936,
    "每個": 1937,
    "個倉": 1938,
    "位使": 1939,
    "用獨": 1940,
    "獨立": 1941,
    "立的": 1942,
    "金損": 1943,
    "失上": 1944,
    "限就": 1945,
    "就是": 1946,
    "是該": 1947,
    "該倉": 1948,
    "位投": 1949,
    "投入": 1950,
    "入的": 1951,
    "的金": 1952,
    "額爆": 1953,
    "倉只": 1954,
    "只影": 1955,
    "響單": 1956,
    "單一": 1957,
    "一倉": 1958,
    "會波": 1959,
    "波及": 1960,
    "及帳": 1961,
    "戶其": 1962,
    "他資": 1963,
    "合新": 1964,
    "手或": 1965,
    "或想": 1966,
    "想嚴": 1967,
    "嚴格": 1968,
    "格控": 1969,
    "制單": 1970,
    "單筆": 1971,
    "筆風": 1972,
    "者全": 1973,
    "倉帳": 1974,
    "戶所": 1975,
    "有餘": 1976,
    "餘額": 1977,
    "額共": 1978,
    "共同": 1979,
    "同作": 1980,
    "為所": 1981,
    "有倉": 1982,
    "位的": 1983,
    "金盈": 1984,
    "利倉": 1985,
    "位可": 1986,
    "以支": 1987,
    "支援": 1988,
    "援虧": 1989,
    "不容": 1990,
    "易爆": 1991,
    "倉但": 1992,
    "但若": 1993,
    "動可": 1994,
    "能損": 1995,
    "失全": 1996,
    "全部": 1997,
    "部帳": 1998,
    "戶資": 1999,
    "合對": 2000,
    "對倉": 2001,
    "位管": 2002,
    "管理": 2003,
    "理有": 2004,
    "有經": 2005,
    "經驗": 2006,
    "驗的": 2007,
    "逐倉每": 2008,
    "倉每個": 2009,
    "每個倉": 2010,
    "個倉位": 2011,
    "倉位使": 2012,
    "位使用": 2013,
    "使用獨": 2014,
    "用獨立": 2015,
    "獨立的": 2016,
    "立的保": 2017,
    "證金損": 2018,
    "金損失": 2019,
    "損失上": 2020,
    "失上限": 2021,
    "上限就": 2022,
    "限就是": 2023,
    "就是該": 2024,
    "是該倉": 2025,
    "該倉位": 2026,
    "倉位投": 2027,
    "位投入": 2028,
    "投入的": 2029,
    "入的金": 2030,
    "的金額": 2031,
    "金額爆": 2032,
    "額爆倉": 2033,
    "爆倉只": 2034,
    "倉只影": 2035,
    "只影響": 2036,
    "影響單": 2037,
    "響單一": 2038,
    "單一倉": 2039,
    "一倉位": 2040,
    "不會波": 2041,
    "會波及": 2042,
    "波及帳": 2043,
    "及帳戶": 2044,
    "帳戶其": 2045,
    "戶其他": 2046,
    "其他資": 2047,
    "他資金": 2048,
    "適合新": 2049,
    "合新手": 2050,
    "新手或": 2051,
    "手或想": 2052,
    "或想嚴": 2053,
    "想嚴格": 2054,
    "嚴格控": 2055,
    "格控制": 2056,
    "控制單": 2057,
    "制單筆": 2058,
    "單筆風": 2059,
    "筆風險": 2060,
    "險的交": 2061,
    "易者全": 2062,
    "者全倉": 2063,
    "全倉帳": 2064,
    "倉帳戶": 2065,
    "帳戶所": 2066,
    "戶所有": 2067,
    "所有餘": 2068,
    "有餘額": 2069,
    "餘額共": 2070,
    "額共同": 2071,
    "共同作": 2072,
    "同作為": 2073,
    "作為所": 2074,
    "為所有": 2075,
    "所有倉": 2076,
    "有倉位": 2077,
    "倉位的": 2078,
    "位的保": 2079,
    "證金盈": 2080,
    "金盈利": 2081,
    "盈利倉": 2082,
    "利倉位": 2083,
    "倉位可": 2084,
    "位可以": 2085,
    "可以支": 2086,
    "以支援": 2087,
    "支援虧": 2088,
    "援虧損": 2089,
    "虧損倉": 2090,
    "位不容": 2091,
    "不容易": 2092,
    "容易爆": 2093,
    "易爆倉": 2094,
    "爆倉但": 2095,
    "倉但若": 2096,
    "但若市": 2097,
    "波動可": 2098,
    "動可能": 2099,
    "可能損": 2100,
    "能損失": 2101,
    "損失全": 2102,
    "失全部": 2103,
    "全部帳": 2104,
    "部帳戶": 2105,
    "帳戶資": 2106,
    "戶資金": 2107,
    "適合對": 2108,
    "合對倉": 2109,
    "對倉位": 2110,
    "倉位管": 2111,
    "位管理": 2112,
    "管理有": 2113,
    "理有經": 2114,
    "有經驗": 2115,
    "經驗的": 2116,
    "驗的交": 2117,
    "逐倉每個": 2118,
    "倉每個倉": 2119,
    "每個倉位": 2120,
    "個倉位使": 2121,
    "倉位使用": 2122,
    "位使用獨": 2123,
    "使用獨立": 2124,
    "用獨立的": 2125,
    "獨立的保": 2126,
    "立的保證": 2127,
    "保證金損": 2128,
    "證金損失": 2129,
    "金損失上": 2130,
    "損失上限": 2131,
    "失上限就": 2132,
    "上限就是": 2133,
    "限就是該": 2134,
    "就是該倉": 2135,
    "是該倉位": 2136,
    "該倉位投": 2137,
    "倉位投入": 2138,
    "位投入的": 2139,
    "投入的金": 2140,
    "入的金額": 2141,
    "的金額爆": 2142,
    "金額爆倉": 2143,
    "額爆倉只": 2144,
    "爆倉只影": 2145,
    "倉只影響": 2146,
    "只影響單": 2147,
    "影響單一": 2148,
    "響單一倉": 2149,
    "單一倉位": 2150,
    "一倉位不": 2151,
    "位不會波": 2152,
    "不會波及": 2153,
    "會波及帳": 2154,
    "波及帳戶": 2155,
    "及帳戶其": 2156,
    "帳戶其他": 2157,
    "戶其他資": 2158,
    "其他資金": 2159,
    "他資金適": 2160,
    "金適合新": 2161,
    "適合新手": 2162,
    "合新手或": 2163,
    "新手或想": 2164,
    "手或想嚴": 2165,
    "或想嚴格": 2166,
    "想嚴格控": 2167,
    "嚴格控制": 2168,
    "格控制單": 2169,
    "控制單筆": 2170,
    "制單筆風": 2171,
    "單筆風險": 2172,
    "筆風險的": 2173,
    "風險的交": 2174,
    "險的交易": 2175,
    "交易者全": 2176,
    "易者全倉": 2177,
    "者全倉帳": 2178,
    "全倉帳戶": 2179,
    "倉帳戶所": 2180,
    "帳戶所有": 2181,
    "戶所有餘": 2182,
    "所有餘額": 2183,
    "有餘額共": 2184,
    "餘額共同": 2185,
    "額共同作": 2186,
    "共同作為": 2187,
    "同作為所": 2188,
    "作為所有": 2189,
    "為所有倉": 2190,
    "所有倉位": 2191,
    "有倉位的": 2192,
    "倉位的保": 2193,
    "位的保證": 2194,
    "保證金盈": 2195,
    "證金盈利": 2196,
    "金盈利倉": 2197,
    "盈利倉位": 2198,
    "利倉位可": 2199,
    "倉位可以": 2200,
    "位可以支": 2201,
    "可以支援": 2202,
    "以支援虧": 2203,
    "支援虧損": 2204,
    "援虧損倉": 2205,
    "虧損倉位": 2206,
    "損倉位不": 2207,
    "倉位不容": 2208,
    "位不容易": 2209,
    "不容易爆": 2210,
    "容易爆倉": 2211,
    "易爆倉但": 2212,
    "爆倉但若": 2213,
    "倉但若市": 2214,
    "但若市場": 2215,
    "若市場極": 2216,
    "端波動可": 2217,
    "波動可能": 2218,
    "動可能損": 2219,
    "可能損失": 2220,
    "能損失全": 2221,
    "損失全部": 2222,
    "失全部帳": 2223,
    "全部帳戶": 2224,
    "部帳戶資": 2225,
    "帳戶資金": 2226,
    "戶資金適": 2227,
    "金適合對": 2228,
    "適合對倉": 2229,
    "合對倉位": 2230,
    "對倉位管": 2231,
    "倉位管理": 2232,
    "位管理有": 2233,
    "管理有經": 2234,
    "理有經驗": 2235,
    "有經驗的": 2236,
    "經驗的交": 2237,
    "驗的交易": 2238,
    "difference": 2239,
    "between": 2240,
    "each": 2241,
    "its": 2242,
    "own": 2243,
    "separate": 2244,
    "amount": 2245,
    "only": 2246,
    "affects": 2247,
    "specific": 2248,
    "recommended": 2249,
    "who": 2250,
    "want": 2251,
    "strict": 2252,
    "per": 2253,
    "shared": 2254,
    "across": 2255,
    "losing": 2256,
    "ones": 2257,
    "reducing": 2258,
    "frequency": 2259,
    "extreme": 2260,
    "wipe": 2261,
    "suited": 2262,
    "experienced": 2263,
    "managing": 2264,
    "麼怎": 2265,
    "率是什": 2266,
    "什麼怎": 2267,
    "麼怎麼": 2268,
    "費率是什": 2269,
    "率是什麼": 2270,
    "是什麼怎": 2271,
    "什麼怎麼": 2272,
    "麼怎麼計": 2273,
    "約特": 2274,
    "特有": 2275,
    "有的": 2276,
    "時結": 2277,
    "算一": 2278,
    "一次": 2279,
    "次用": 2280,
    "用來": 2281,
    "來讓": 2282,
    "讓合": 2283,
    "約價": 2284,
    "格貼": 2285,
    "貼近": 2286,
    "近現": 2287,
    "貨市": 2288,
    "場費": 2289,
    "正多": 2290,
    "頭做": 2291,
    "多方": 2292,
    "方付": 2293,
    "偏多": 2294,
    "緒費": 2295,
    "為負": 2296,
    "負空": 2297,
    "頭付": 2298,
    "給多": 2299,
    "偏空": 2300,
    "緒計": 2301,
    "算方": 2302,
    "式支": 2303,
    "付金": 2304,
    "額倉": 2305,
    "值資": 2306,
    "率例": 2307,
    "例持": 2308,
    "有多": 2309,
    "單名": 2310,
    "值費": 2311,
    "率支": 2312,
    "付付": 2313,
    "頭方": 2314,
    "方資": 2315,
    "響持": 2316,
    "倉成": 2317,
    "本的": 2318,
    "的重": 2319,
    "要因": 2320,
    "因素": 2321,
    "素長": 2322,
    "長時": 2323,
    "間持": 2324,
    "倉需": 2325,
    "需特": 2326,
    "特別": 2327,
    "別關": 2328,
    "關注": 2329,
    "率是永": 2330,
    "合約特": 2331,
    "約特有": 2332,
    "特有的": 2333,
    "有的機": 2334,
    "的機制": 2335,
    "機制每": 2336,
    "制每小": 2337,
    "小時結": 2338,
    "時結算": 2339,
    "結算一": 2340,
    "算一次": 2341,
    "一次用": 2342,
    "次用來": 2343,
    "用來讓": 2344,
    "來讓合": 2345,
    "讓合約": 2346,
    "合約價": 2347,
    "約價格": 2348,
    "價格貼": 2349,
    "格貼近": 2350,
    "貼近現": 2351,
    "近現貨": 2352,
    "現貨市": 2353,
    "貨市場": 2354,
    "市場費": 2355,
    "場費率": 2356,
    "率為正": 2357,
    "為正多": 2358,
    "正多頭": 2359,
    "多頭做": 2360,
    "頭做多": 2361,
    "做多方": 2362,
    "多方付": 2363,
    "方付給": 2364,
    "空頭代": 2365,
    "場偏多": 2366,
    "偏多頭": 2367,
    "情緒費": 2368,
    "緒費率": 2369,
    "率為負": 2370,
    "為負空": 2371,
    "負空頭": 2372,
    "空頭付": 2373,
    "頭付給": 2374,
    "付給多": 2375,
    "給多頭": 2376,
    "多頭代": 2377,
    "場偏空": 2378,
    "偏空頭": 2379,
    "情緒計": 2380,
    "緒計算": 2381,
    "計算方": 2382,
    "算方式": 2383,
    "方式支": 2384,
    "式支付": 2385,
    "支付金": 2386,
    "付金額": 2387,
    "金額倉": 2388,
    "額倉位": 2389,
    "價值資": 2390,
    "值資金": 2391,
    "費率例": 2392,
    "率例持": 2393,
    "例持有": 2394,
    "持有多": 2395,
    "有多單": 2396,
    "多單名": 2397,
    "單名義": 2398,
    "價值費": 2399,
    "值費率": 2400,
    "費率支": 2401,
    "率支付": 2402,
    "支付付": 2403,
    "付付給": 2404,
    "空頭方": 2405,
    "頭方資": 2406,
    "方資金": 2407,
    "率是影": 2408,
    "是影響": 2409,
    "影響持": 2410,
    "響持倉": 2411,
    "持倉成": 2412,
    "倉成本": 2413,
    "成本的": 2414,
    "本的重": 2415,
    "的重要": 2416,
    "重要因": 2417,
    "要因素": 2418,
    "因素長": 2419,
    "素長時": 2420,
    "長時間": 2421,
    "時間持": 2422,
    "間持倉": 2423,
    "持倉需": 2424,
    "倉需特": 2425,
    "需特別": 2426,
    "特別關": 2427,
    "別關注": 2428,
    "費率是永": 2429,
    "率是永續": 2430,
    "續合約特": 2431,
    "合約特有": 2432,
    "約特有的": 2433,
    "特有的機": 2434,
    "有的機制": 2435,
    "的機制每": 2436,
    "機制每小": 2437,
    "制每小時": 2438,
    "每小時結": 2439,
    "小時結算": 2440,
    "時結算一": 2441,
    "結算一次": 2442,
    "算一次用": 2443,
    "一次用來": 2444,
    "次用來讓": 2445,
    "用來讓合": 2446,
    "來讓合約": 2447,
    "讓合約價": 2448,
    "合約價格": 2449,
    "約價格貼": 2450,
    "價格貼近": 2451,
    "格貼近現": 2452,
    "貼近現貨": 2453,
    "近現貨市": 2454,
    "現貨市場": 2455,
    "貨市場費": 2456,
    "市場費率": 2457,
    "場費率為": 2458,
    "費率為正": 2459,
    "率為正多": 2460,
    "為正多頭": 2461,
    "正多頭做": 2462,
    "多頭做多": 2463,
    "頭做多方": 2464,
    "做多方付": 2465,
    "多方付給": 2466,
    "方付給空": 2467,
    "給空頭代": 2468,
    "空頭代表": 2469,
    "市場偏多": 2470,
    "場偏多頭": 2471,
    "偏多頭情": 2472,
    "頭情緒費": 2473,
    "情緒費率": 2474,
    "緒費率為": 2475,
    "費率為負": 2476,
    "率為負空": 2477,
    "為負空頭": 2478,
    "負空頭付": 2479,
    "空頭付給": 2480,
    "頭付給多": 2481,
    "付給多頭": 2482,
    "給多頭代": 2483,
    "多頭代表": 2484,
    "市場偏空": 2485,
    "場偏空頭": 2486,
    "偏空頭情": 2487,
    "頭情緒計": 2488,
    "情緒計算": 2489,
    "緒計算方": 2490,
    "計算方式": 2491,
    "算方式支": 2492,
    "方式支付": 2493,
    "式支付金": 2494,
    "支付金額": 2495,
    "付金額倉": 2496,
    "金額倉位": 2497,
    "額倉位名": 2498,
    "義價值資": 2499,
    "價值資金": 2500,
    "值資金費": 2501,
    "金費率例": 2502,
    "費率例持": 2503,
    "率例持有": 2504,
    "例持有多": 2505,
    "持有多單": 2506,
    "有多單名": 2507,
    "多單名義": 2508,
    "單名義價": 2509,
    "義價值費": 2510,
    "價值費率": 2511,
    "值費率支": 2512,
    "費率支付": 2513,
    "率支付付": 2514,
    "支付付給": 2515,
    "付付給空": 2516,
    "給空頭方": 2517,
    "空頭方資": 2518,
    "頭方資金": 2519,
    "方資金費": 2520,
    "費率是影": 2521,
    "率是影響": 2522,
    "是影響持": 2523,
    "影響持倉": 2524,
    "響持倉成": 2525,
    "持倉成本": 2526,
    "倉成本的": 2527,
    "成本的重": 2528,
    "本的重要": 2529,
    "的重要因": 2530,
    "重要因素": 2531,
    "要因素長": 2532,
    "因素長時": 2533,
    "素長時間": 2534,
    "長時間持": 2535,
    "時間持倉": 2536,
    "間持倉需": 2537,
    "持倉需特": 2538,
    "倉需特別": 2539,
    "需特別關": 2540,
    "特別關注": 2541,
    "work": 2542,
    "mechanism": 2543,
    "unique": 2544,
    "contracts": 2545,
    "settles": 2546,
    "hours": 2547,
    "keep": 2548,
    "aligned": 2549,
    "spot": 2550,
    "negative": 2551,
    "calculation": 2552,
    "payment": 2553,
    "paid": 2554,
    "shorts": 2555,
    "rates": 2556,
    "significantly": 2557,
    "impact": 2558,
    "overnight": 2559,
    "term": 2560,
    "格和": 2561,
    "和最": 2562,
    "價有": 2563,
    "麼不": 2564,
    "價格和": 2565,
    "格和最": 2566,
    "和最後": 2567,
    "交價有": 2568,
    "價有什": 2569,
    "什麼不": 2570,
    "麼不同": 2571,
    "記價格和": 2572,
    "價格和最": 2573,
    "格和最後": 2574,
    "和最後成": 2575,
    "成交價有": 2576,
    "交價有什": 2577,
    "價有什麼": 2578,
    "有什麼不": 2579,
    "什麼不同": 2580,
    "last": 2581,
    "價合": 2582,
    "場中": 2583,
    "中最": 2584,
    "筆實": 2585,
    "交的": 2586,
    "格會": 2587,
    "會因": 2588,
    "期流": 2589,
    "性或": 2590,
    "控而": 2591,
    "而波": 2592,
    "動標": 2593,
    "格由": 2594,
    "由幣": 2595,
    "安根": 2596,
    "根據": 2597,
    "據多": 2598,
    "多個": 2599,
    "個主": 2600,
    "流現": 2601,
    "貨交": 2602,
    "易所": 2603,
    "所的": 2604,
    "格加": 2605,
    "權計": 2606,
    "算反": 2607,
    "反映": 2608,
    "映公": 2609,
    "公允": 2610,
    "允市": 2611,
    "值幣": 2612,
    "安使": 2613,
    "用標": 2614,
    "格來": 2615,
    "來觸": 2616,
    "發爆": 2617,
    "倉防": 2618,
    "防止": 2619,
    "止因": 2620,
    "暫插": 2621,
    "插針": 2622,
    "針或": 2623,
    "控引": 2624,
    "引發": 2625,
    "發不": 2626,
    "不公": 2627,
    "公平": 2628,
    "平清": 2629,
    "算計": 2630,
    "算未": 2631,
    "未實": 2632,
    "實現": 2633,
    "現損": 2634,
    "益實": 2635,
    "際例": 2636,
    "例子": 2637,
    "子若": 2638,
    "若有": 2639,
    "有人": 2640,
    "人在": 2641,
    "在合": 2642,
    "場砸": 2643,
    "砸盤": 2644,
    "盤導": 2645,
    "導致": 2646,
    "致最": 2647,
    "價短": 2648,
    "暫大": 2649,
    "大跌": 2650,
    "跌但": 2651,
    "但現": 2652,
    "貨價": 2653,
    "格正": 2654,
    "正常": 2655,
    "常標": 2656,
    "變你": 2657,
    "會被": 2658,
    "被清": 2659,
    "交價合": 2660,
    "價合約": 2661,
    "市場中": 2662,
    "場中最": 2663,
    "中最後": 2664,
    "最後一": 2665,
    "後一筆": 2666,
    "一筆實": 2667,
    "筆實際": 2668,
    "成交的": 2669,
    "交的價": 2670,
    "價格會": 2671,
    "格會因": 2672,
    "會因短": 2673,
    "因短期": 2674,
    "短期流": 2675,
    "期流動": 2676,
    "動性或": 2677,
    "性或操": 2678,
    "操控而": 2679,
    "控而波": 2680,
    "而波動": 2681,
    "波動標": 2682,
    "動標記": 2683,
    "價格由": 2684,
    "格由幣": 2685,
    "由幣安": 2686,
    "幣安根": 2687,
    "安根據": 2688,
    "根據多": 2689,
    "據多個": 2690,
    "多個主": 2691,
    "個主流": 2692,
    "主流現": 2693,
    "流現貨": 2694,
    "現貨交": 2695,
    "貨交易": 2696,
    "交易所": 2697,
    "易所的": 2698,
    "所的價": 2699,
    "價格加": 2700,
    "格加權": 2701,
    "加權計": 2702,
    "權計算": 2703,
    "計算反": 2704,
    "算反映": 2705,
    "反映公": 2706,
    "映公允": 2707,
    "公允市": 2708,
    "允市場": 2709,
    "場價值": 2710,
    "價值幣": 2711,
    "值幣安": 2712,
    "幣安使": 2713,
    "安使用": 2714,
    "使用標": 2715,
    "用標記": 2716,
    "價格來": 2717,
    "格來觸": 2718,
    "來觸發": 2719,
    "觸發爆": 2720,
    "發爆倉": 2721,
    "爆倉防": 2722,
    "倉防止": 2723,
    "防止因": 2724,
    "止因短": 2725,
    "因短暫": 2726,
    "短暫插": 2727,
    "暫插針": 2728,
    "插針或": 2729,
    "針或操": 2730,
    "操控引": 2731,
    "控引發": 2732,
    "引發不": 2733,
    "發不公": 2734,
    "不公平": 2735,
    "公平清": 2736,
    "平清算": 2737,
    "清算計": 2738,
    "算計算": 2739,
    "計算未": 2740,
    "算未實": 2741,
    "未實現": 2742,
    "實現損": 2743,
    "現損益": 2744,
    "損益實": 2745,
    "益實際": 2746,
    "實際例": 2747,
    "際例子": 2748,
    "例子若": 2749,
    "子若有": 2750,
    "若有人": 2751,
    "有人在": 2752,
    "人在合": 2753,
    "在合約": 2754,
    "市場砸": 2755,
    "場砸盤": 2756,
    "砸盤導": 2757,
    "盤導致": 2758,
    "導致最": 2759,
    "致最後": 2760,
    "交價短": 2761,
    "價短暫": 2762,
    "短暫大": 2763,
    "暫大跌": 2764,
    "大跌但": 2765,
    "跌但現": 2766,
    "但現貨": 2767,
    "現貨價": 2768,
    "貨價格": 2769,
    "價格正": 2770,
    "格正常": 2771,
    "正常標": 2772,
    "常標記": 2773,
    "格不變": 2774,
    "不變你": 2775,
    "變你的": 2776,
    "不會被": 2777,
    "會被清": 2778,
    "被清算": 2779,
    "成交價合": 2780,
    "交價合約": 2781,
    "價合約市": 2782,
    "約市場中": 2783,
    "市場中最": 2784,
    "場中最後": 2785,
    "中最後一": 2786,
    "最後一筆": 2787,
    "後一筆實": 2788,
    "一筆實際": 2789,
    "筆實際成": 2790,
    "際成交的": 2791,
    "成交的價": 2792,
    "交的價格": 2793,
    "的價格會": 2794,
    "價格會因": 2795,
    "格會因短": 2796,
    "會因短期": 2797,
    "因短期流": 2798,
    "短期流動": 2799,
    "期流動性": 2800,
    "流動性或": 2801,
    "動性或操": 2802,
    "性或操控": 2803,
    "或操控而": 2804,
    "操控而波": 2805,
    "控而波動": 2806,
    "而波動標": 2807,
    "波動標記": 2808,
    "動標記價": 2809,
    "記價格由": 2810,
    "價格由幣": 2811,
    "格由幣安": 2812,
    "由幣安根": 2813,
    "幣安根據": 2814,
    "安根據多": 2815,
    "根據多個": 2816,
    "據多個主": 2817,
    "多個主流": 2818,
    "個主流現": 2819,
    "主流現貨": 2820,
    "流現貨交": 2821,
    "現貨交易": 2822,
    "貨交易所": 2823,
    "交易所的": 2824,
    "易所的價": 2825,
    "所的價格": 2826,
    "的價格加": 2827,
    "價格加權": 2828,
    "格加權計": 2829,
    "加權計算": 2830,
    "權計算反": 2831,
    "計算反映": 2832,
    "算反映公": 2833,
    "反映公允": 2834,
    "映公允市": 2835,
    "公允市場": 2836,
    "允市場價": 2837,
    "市場價值": 2838,
    "場價值幣": 2839,
    "價值幣安": 2840,
    "值幣安使": 2841,
    "幣安使用": 2842,
    "安使用標": 2843,
    "使用標記": 2844,
    "用標記價": 2845,
    "記價格來": 2846,
    "價格來觸": 2847,
    "格來觸發": 2848,
    "來觸發爆": 2849,
    "觸發爆倉": 2850,
    "發爆倉防": 2851,
    "爆倉防止": 2852,
    "倉防止因": 2853,
    "防止因短": 2854,
    "止因短暫": 2855,
    "因短暫插": 2856,
    "短暫插針": 2857,
    "暫插針或": 2858,
    "插針或操": 2859,
    "針或操控": 2860,
    "或操控引": 2861,
    "操控引發": 2862,
    "控引發不": 2863,
    "引發不公": 2864,
    "發不公平": 2865,
    "不公平清": 2866,
    "公平清算": 2867,
    "平清算計": 2868,
    "清算計算": 2869,
    "算計算未": 2870,
    "計算未實": 2871,
    "算未實現": 2872,
    "未實現損": 2873,
    "實現損益": 2874,
    "現損益實": 2875,
    "損益實際": 2876,
    "益實際例": 2877,
    "實際例子": 2878,
    "際例子若": 2879,
    "例子若有": 2880,
    "子若有人": 2881,
    "若有人在": 2882,
    "有人在合": 2883,
    "人在合約": 2884,
    "在合約市": 2885,
    "約市場砸": 2886,
    "市場砸盤": 2887,
    "場砸盤導": 2888,
    "砸盤導致": 2889,
    "盤導致最": 2890,
    "導致最後": 2891,
    "致最後成": 2892,
    "成交價短": 2893,
    "交價短暫": 2894,
    "價短暫大": 2895,
    "短暫大跌": 2896,
    "暫大跌但": 2897,
    "大跌但現": 2898,
    "跌但現貨": 2899,
    "但現貨價": 2900,
    "現貨價格": 2901,
    "貨價格正": 2902,
    "價格正常": 2903,
    "格正常標": 2904,
    "正常標記": 2905,
    "常標記價": 2906,
    "記價格不": 2907,
    "價格不變": 2908,
    "格不變你": 2909,
    "不變你的": 2910,
    "變你的倉": 2911,
    "的倉位不": 2912,
    "位不會被": 2913,
    "不會被清": 2914,
    "會被清算": 2915,
    "格怎": 2916,
    "倉價格": 2917,
    "價格怎": 2918,
    "格怎麼": 2919,
    "爆倉價格": 2920,
    "倉價格怎": 2921,
    "價格怎麼": 2922,
    "格怎麼計": 2923,
    "倉模": 2924,
    "模式": 2925,
    "式下": 2926,
    "下的": 2927,
    "的簡": 2928,
    "簡化": 2929,
    "化公": 2930,
    "式做": 2931,
    "多爆": 2932,
    "率做": 2933,
    "空爆": 2934,
    "率以": 2935,
    "以多": 2936,
    "單為": 2937,
    "例開": 2938,
    "價倍": 2939,
    "率約": 2940,
    "約爆": 2941,
    "價實": 2942,
    "際爆": 2943,
    "價請": 2944,
    "請以": 2945,
    "以幣": 2946,
    "面顯": 2947,
    "示為": 2948,
    "為準": 2949,
    "準公": 2950,
    "式因": 2951,
    "因倉": 2952,
    "位層": 2953,
    "層級": 2954,
    "級而": 2955,
    "而略": 2956,
    "略有": 2957,
    "有不": 2958,
    "同最": 2959,
    "最佳": 2960,
    "佳做": 2961,
    "法設": 2962,
    "定止": 2963,
    "單讓": 2964,
    "統在": 2965,
    "在爆": 2966,
    "倉前": 2967,
    "前自": 2968,
    "倉避": 2969,
    "免清": 2970,
    "算手": 2971,
    "費約": 2972,
    "約倉": 2973,
    "值的": 2974,
    "逐倉模": 2975,
    "倉模式": 2976,
    "模式下": 2977,
    "式下的": 2978,
    "下的簡": 2979,
    "的簡化": 2980,
    "簡化公": 2981,
    "化公式": 2982,
    "公式做": 2983,
    "式做多": 2984,
    "做多爆": 2985,
    "多爆倉": 2986,
    "金率做": 2987,
    "率做空": 2988,
    "做空爆": 2989,
    "空爆倉": 2990,
    "金率以": 2991,
    "率以多": 2992,
    "以多單": 2993,
    "多單為": 2994,
    "單為例": 2995,
    "為例開": 2996,
    "例開倉": 2997,
    "開倉價": 2998,
    "倉價倍": 2999,
    "價倍槓": 3000,
    "金率約": 3001,
    "率約爆": 3002,
    "約爆倉": 3003,
    "倉價實": 3004,
    "價實際": 3005,
    "實際爆": 3006,
    "際爆倉": 3007,
    "倉價請": 3008,
    "價請以": 3009,
    "請以幣": 3010,
    "以幣安": 3011,
    "介面顯": 3012,
    "面顯示": 3013,
    "顯示為": 3014,
    "示為準": 3015,
    "為準公": 3016,
    "準公式": 3017,
    "公式因": 3018,
    "式因倉": 3019,
    "因倉位": 3020,
    "倉位層": 3021,
    "位層級": 3022,
    "層級而": 3023,
    "級而略": 3024,
    "而略有": 3025,
    "略有不": 3026,
    "有不同": 3027,
    "不同最": 3028,
    "同最佳": 3029,
    "最佳做": 3030,
    "佳做法": 3031,
    "做法設": 3032,
    "法設定": 3033,
    "設定止": 3034,
    "定止損": 3035,
    "損單讓": 3036,
    "單讓系": 3037,
    "系統在": 3038,
    "統在爆": 3039,
    "在爆倉": 3040,
    "爆倉前": 3041,
    "倉前自": 3042,
    "前自動": 3043,
    "平倉避": 3044,
    "倉避免": 3045,
    "避免清": 3046,
    "免清算": 3047,
    "清算手": 3048,
    "算手續": 3049,
    "續費約": 3050,
    "費約倉": 3051,
    "約倉位": 3052,
    "價值的": 3053,
    "逐倉模式": 3054,
    "倉模式下": 3055,
    "模式下的": 3056,
    "式下的簡": 3057,
    "下的簡化": 3058,
    "的簡化公": 3059,
    "簡化公式": 3060,
    "化公式做": 3061,
    "公式做多": 3062,
    "式做多爆": 3063,
    "做多爆倉": 3064,
    "多爆倉價": 3065,
    "證金率做": 3066,
    "金率做空": 3067,
    "率做空爆": 3068,
    "做空爆倉": 3069,
    "空爆倉價": 3070,
    "證金率以": 3071,
    "金率以多": 3072,
    "率以多單": 3073,
    "以多單為": 3074,
    "多單為例": 3075,
    "單為例開": 3076,
    "為例開倉": 3077,
    "例開倉價": 3078,
    "開倉價倍": 3079,
    "倉價倍槓": 3080,
    "價倍槓桿": 3081,
    "倍槓桿維": 3082,
    "證金率約": 3083,
    "金率約爆": 3084,
    "率約爆倉": 3085,
    "約爆倉價": 3086,
    "爆倉價實": 3087,
    "倉價實際": 3088,
    "價實際爆": 3089,
    "實際爆倉": 3090,
    "際爆倉價": 3091,
    "爆倉價請": 3092,
    "倉價請以": 3093,
    "價請以幣": 3094,
    "請以幣安": 3095,
    "以幣安介": 3096,
    "安介面顯": 3097,
    "介面顯示": 3098,
    "面顯示為": 3099,
    "顯示為準": 3100,
    "示為準公": 3101,
    "為準公式": 3102,
    "準公式因": 3103,
    "公式因倉": 3104,
    "式因倉位": 3105,
    "因倉位層": 3106,
    "倉位層級": 3107,
    "位層級而": 3108,
    "層級而略": 3109,
    "級而略有": 3110,
    "而略有不": 3111,
    "略有不同": 3112,
    "有不同最": 3113,
    "不同最佳": 3114,
    "同最佳做": 3115,
    "最佳做法": 3116,
    "佳做法設": 3117,
    "做法設定": 3118,
    "法設定止": 3119,
    "設定止損": 3120,
    "定止損單": 3121,
    "止損單讓": 3122,
    "損單讓系": 3123,
    "單讓系統": 3124,
    "讓系統在": 3125,
    "系統在爆": 3126,
    "統在爆倉": 3127,
    "在爆倉前": 3128,
    "爆倉前自": 3129,
    "倉前自動": 3130,
    "前自動平": 3131,
    "動平倉避": 3132,
    "平倉避免": 3133,
    "倉避免清": 3134,
    "避免清算": 3135,
    "免清算手": 3136,
    "清算手續": 3137,
    "算手續費": 3138,
    "手續費約": 3139,
    "續費約倉": 3140,
    "費約倉位": 3141,
    "約倉位名": 3142,
    "義價值的": 3143,
    "calculated": 3144,
    "simplified": 3145,
    "always": 3146,
    "check": 3147,
    "exact": 3148,
    "interface": 3149,
    "varies": 3150,
    "tier": 3151,
    "practice": 3152,
    "set": 3153,
    "close": 3154,
    "before": 3155,
    "avoid": 3156,
    "penalty": 3157,
    "是自": 3158,
    "麼是自": 3159,
    "是自動": 3160,
    "什麼是自": 3161,
    "麼是自動": 3162,
    "是自動減": 3163,
    "auto": 3164,
    "deleveraging": 3165,
    "bankruptcy": 3166,
    "倉是": 3167,
    "是幣": 3168,
    "安的": 3169,
    "的最": 3170,
    "後手": 3171,
    "手段": 3172,
    "段機": 3173,
    "制當": 3174,
    "當某": 3175,
    "某個": 3176,
    "個爆": 3177,
    "倉訂": 3178,
    "的損": 3179,
    "失超": 3180,
    "過保": 3181,
    "保險": 3182,
    "險基": 3183,
    "基金": 3184,
    "金能": 3185,
    "能承": 3186,
    "擔的": 3187,
    "的範": 3188,
    "圍時": 3189,
    "時幣": 3190,
    "安會": 3191,
    "制對": 3192,
    "對盈": 3193,
    "向的": 3194,
    "的持": 3195,
    "者部": 3196,
    "部分": 3197,
    "分平": 3198,
    "倉來": 3199,
    "來彌": 3200,
    "彌補": 3201,
    "補虧": 3202,
    "損方": 3203,
    "方的": 3204,
    "的缺": 3205,
    "缺口": 3206,
    "口被": 3207,
    "的條": 3208,
    "件排": 3209,
    "排名": 3210,
    "名越": 3211,
    "越靠": 3212,
    "靠前": 3213,
    "前越": 3214,
    "越容": 3215,
    "易被": 3216,
    "被選": 3217,
    "選中": 3218,
    "中盈": 3219,
    "利越": 3220,
    "桿使": 3221,
    "用越": 3222,
    "高被": 3223,
    "被不": 3224,
    "不收": 3225,
    "收手": 3226,
    "費但": 3227,
    "但會": 3228,
    "制以": 3229,
    "以破": 3230,
    "破產": 3231,
    "產價": 3232,
    "格平": 3233,
    "倉即": 3234,
    "使你": 3235,
    "位是": 3236,
    "是盈": 3237,
    "利的": 3238,
    "面有": 3239,
    "有風": 3240,
    "險燈": 3241,
    "燈顯": 3242,
    "示你": 3243,
    "你目": 3244,
    "前被": 3245,
    "機率": 3246,
    "率建": 3247,
    "議定": 3248,
    "定期": 3249,
    "期檢": 3250,
    "減倉是": 3251,
    "倉是幣": 3252,
    "是幣安": 3253,
    "幣安的": 3254,
    "安的最": 3255,
    "的最後": 3256,
    "最後手": 3257,
    "後手段": 3258,
    "手段機": 3259,
    "段機制": 3260,
    "機制當": 3261,
    "制當某": 3262,
    "當某個": 3263,
    "某個爆": 3264,
    "個爆倉": 3265,
    "爆倉訂": 3266,
    "倉訂單": 3267,
    "訂單的": 3268,
    "單的損": 3269,
    "的損失": 3270,
    "損失超": 3271,
    "失超過": 3272,
    "超過保": 3273,
    "過保險": 3274,
    "保險基": 3275,
    "險基金": 3276,
    "基金能": 3277,
    "金能承": 3278,
    "能承擔": 3279,
    "承擔的": 3280,
    "擔的範": 3281,
    "的範圍": 3282,
    "範圍時": 3283,
    "圍時幣": 3284,
    "時幣安": 3285,
    "幣安會": 3286,
    "安會強": 3287,
    "強制對": 3288,
    "制對盈": 3289,
    "對盈利": 3290,
    "盈利方": 3291,
    "方向的": 3292,
    "向的持": 3293,
    "的持倉": 3294,
    "倉者部": 3295,
    "者部分": 3296,
    "部分平": 3297,
    "分平倉": 3298,
    "平倉來": 3299,
    "倉來彌": 3300,
    "來彌補": 3301,
    "彌補虧": 3302,
    "補虧損": 3303,
    "虧損方": 3304,
    "損方的": 3305,
    "方的缺": 3306,
    "的缺口": 3307,
    "缺口被": 3308,
    "口被的": 3309,
    "被的條": 3310,
    "的條件": 3311,
    "條件排": 3312,
    "件排名": 3313,
    "排名越": 3314,
    "名越靠": 3315,
    "越靠前": 3316,
    "靠前越": 3317,
    "前越容": 3318,
    "越容易": 3319,
    "容易被": 3320,
    "易被選": 3321,
    "被選中": 3322,
    "選中盈": 3323,
    "中盈利": 3324,
    "盈利越": 3325,
    "利越高": 3326,
    "越高槓": 3327,
    "槓桿使": 3328,
    "桿使用": 3329,
    "使用越": 3330,
    "用越高": 3331,
    "越高被": 3332,
    "高被不": 3333,
    "被不收": 3334,
    "不收手": 3335,
    "收手續": 3336,
    "續費但": 3337,
    "費但會": 3338,
    "但會強": 3339,
    "強制以": 3340,
    "制以破": 3341,
    "以破產": 3342,
    "破產價": 3343,
    "產價格": 3344,
    "價格平": 3345,
    "格平倉": 3346,
    "平倉即": 3347,
    "倉即使": 3348,
    "即使你": 3349,
    "使你的": 3350,
    "倉位是": 3351,
    "位是盈": 3352,
    "是盈利": 3353,
    "盈利的": 3354,
    "利的幣": 3355,
    "介面有": 3356,
    "面有風": 3357,
    "有風險": 3358,
    "風險燈": 3359,
    "險燈顯": 3360,
    "燈顯示": 3361,
    "顯示你": 3362,
    "示你目": 3363,
    "你目前": 3364,
    "目前被": 3365,
    "前被的": 3366,
    "被的機": 3367,
    "的機率": 3368,
    "機率建": 3369,
    "率建議": 3370,
    "建議定": 3371,
    "議定期": 3372,
    "定期檢": 3373,
    "期檢查": 3374,
    "動減倉是": 3375,
    "減倉是幣": 3376,
    "倉是幣安": 3377,
    "是幣安的": 3378,
    "幣安的最": 3379,
    "安的最後": 3380,
    "的最後手": 3381,
    "最後手段": 3382,
    "後手段機": 3383,
    "手段機制": 3384,
    "段機制當": 3385,
    "機制當某": 3386,
    "制當某個": 3387,
    "當某個爆": 3388,
    "某個爆倉": 3389,
    "個爆倉訂": 3390,
    "爆倉訂單": 3391,
    "倉訂單的": 3392,
    "訂單的損": 3393,
    "單的損失": 3394,
    "的損失超": 3395,
    "損失超過": 3396,
    "失超過保": 3397,
    "超過保險": 3398,
    "過保險基": 3399,
    "保險基金": 3400,
    "險基金能": 3401,
    "基金能承": 3402,
    "金能承擔": 3403,
    "能承擔的": 3404,
    "承擔的範": 3405,
    "擔的範圍": 3406,
    "的範圍時": 3407,
    "範圍時幣": 3408,
    "圍時幣安": 3409,
    "時幣安會": 3410,
    "幣安會強": 3411,
    "安會強制": 3412,
    "會強制對": 3413,
    "強制對盈": 3414,
    "制對盈利": 3415,
    "對盈利方": 3416,
    "盈利方向": 3417,
    "利方向的": 3418,
    "方向的持": 3419,
    "向的持倉": 3420,
    "的持倉者": 3421,
    "持倉者部": 3422,
    "倉者部分": 3423,
    "者部分平": 3424,
    "部分平倉": 3425,
    "分平倉來": 3426,
    "平倉來彌": 3427,
    "倉來彌補": 3428,
    "來彌補虧": 3429,
    "彌補虧損": 3430,
    "補虧損方": 3431,
    "虧損方的": 3432,
    "損方的缺": 3433,
    "方的缺口": 3434,
    "的缺口被": 3435,
    "缺口被的": 3436,
    "口被的條": 3437,
    "被的條件": 3438,
    "的條件排": 3439,
    "條件排名": 3440,
    "件排名越": 3441,
    "排名越靠": 3442,
    "名越靠前": 3443,
    "越靠前越": 3444,
    "靠前越容": 3445,
    "前越容易": 3446,
    "越容易被": 3447,
    "容易被選": 3448,
    "易被選中": 3449,
    "被選中盈": 3450,
    "選中盈利": 3451,
    "中盈利越": 3452,
    "盈利越高": 3453,
    "利越高槓": 3454,
    "越高槓桿": 3455,
    "高槓桿使": 3456,
    "槓桿使用": 3457,
    "桿使用越": 3458,
    "使用越高": 3459,
    "用越高被": 3460,
    "越高被不": 3461,
    "高被不收": 3462,
    "被不收手": 3463,
    "不收手續": 3464,
    "收手續費": 3465,
    "手續費但": 3466,
    "續費但會": 3467,
    "費但會強": 3468,
    "但會強制": 3469,
    "會強制以": 3470,
    "強制以破": 3471,
    "制以破產": 3472,
    "以破產價": 3473,
    "破產價格": 3474,
    "產價格平": 3475,
    "價格平倉": 3476,
    "格平倉即": 3477,
    "平倉即使": 3478,
    "倉即使你": 3479,
    "即使你的": 3480,
    "使你的倉": 3481,
    "的倉位是": 3482,
    "倉位是盈": 3483,
    "位是盈利": 3484,
    "是盈利的": 3485,
    "盈利的幣": 3486,
    "利的幣安": 3487,
    "的幣安介": 3488,
    "安介面有": 3489,
    "介面有風": 3490,
    "面有風險": 3491,
    "有風險燈": 3492,
    "風險燈顯": 3493,
    "險燈顯示": 3494,
    "燈顯示你": 3495,
    "顯示你目": 3496,
    "示你目前": 3497,
    "你目前被": 3498,
    "目前被的": 3499,
    "前被的機": 3500,
    "被的機率": 3501,
    "的機率建": 3502,
    "機率建議": 3503,
    "率建議定": 3504,
    "建議定期": 3505,
    "議定期檢": 3506,
    "定期檢查": 3507,
    "和限": 3508,
    "的差": 3509,
    "別是": 3510,
    "麼什": 3511,
    "況用": 3512,
    "用哪": 3513,
    "單和限": 3514,
    "和限價": 3515,
    "價單的": 3516,
    "單的差": 3517,
    "的差別": 3518,
    "差別是": 3519,
    "別是什": 3520,
    "什麼什": 3521,
    "麼什麼": 3522,
    "情況用": 3523,
    "況用哪": 3524,
    "用哪個": 3525,
    "市價單和": 3526,
    "價單和限": 3527,
    "單和限價": 3528,
    "和限價單": 3529,
    "限價單的": 3530,
    "價單的差": 3531,
    "單的差別": 3532,
    "的差別是": 3533,
    "差別是什": 3534,
    "別是什麼": 3535,
    "是什麼什": 3536,
    "什麼什麼": 3537,
    "麼什麼情": 3538,
    "麼情況用": 3539,
    "情況用哪": 3540,
    "況用哪個": 3541,
    "maker": 3542,
    "單以": 3543,
    "以當": 3544,
    "當前": 3545,
    "前最": 3546,
    "最優": 3547,
    "優市": 3548,
    "格立": 3549,
    "立即": 3550,
    "即成": 3551,
    "點保": 3552,
    "證成": 3553,
    "交速": 3554,
    "速度": 3555,
    "度快": 3556,
    "快缺": 3557,
    "點滑": 3558,
    "點高": 3559,
    "動時": 3560,
    "時實": 3561,
    "價可": 3562,
    "能偏": 3563,
    "偏差": 3564,
    "差較": 3565,
    "較大": 3566,
    "大適": 3567,
    "用急": 3568,
    "急需": 3569,
    "需進": 3570,
    "場追": 3571,
    "追急": 3572,
    "急漲": 3573,
    "漲急": 3574,
    "急跌": 3575,
    "跌重": 3576,
    "要消": 3577,
    "息公": 3578,
    "公布": 3579,
    "布後": 3580,
    "後限": 3581,
    "單指": 3582,
    "格掛": 3583,
    "單只": 3584,
    "只在": 3585,
    "在達": 3586,
    "達到": 3587,
    "到指": 3588,
    "格時": 3589,
    "時成": 3590,
    "點控": 3591,
    "制進": 3592,
    "格有": 3593,
    "有機": 3594,
    "會享": 3595,
    "享有": 3596,
    "有手": 3597,
    "費優": 3598,
    "優惠": 3599,
    "惠缺": 3600,
    "點若": 3601,
    "若價": 3602,
    "格未": 3603,
    "未到": 3604,
    "到達": 3605,
    "達訂": 3606,
    "單不": 3607,
    "會成": 3608,
    "交適": 3609,
    "用有": 3610,
    "有耐": 3611,
    "耐心": 3612,
    "心等": 3613,
    "待理": 3614,
    "理想": 3615,
    "想進": 3616,
    "場點": 3617,
    "點量": 3618,
    "量化": 3619,
    "化策": 3620,
    "略掛": 3621,
    "價單以": 3622,
    "單以當": 3623,
    "以當前": 3624,
    "當前最": 3625,
    "前最優": 3626,
    "最優市": 3627,
    "優市場": 3628,
    "價格立": 3629,
    "格立即": 3630,
    "立即成": 3631,
    "即成交": 3632,
    "優點保": 3633,
    "點保證": 3634,
    "保證成": 3635,
    "證成交": 3636,
    "成交速": 3637,
    "交速度": 3638,
    "速度快": 3639,
    "度快缺": 3640,
    "快缺點": 3641,
    "缺點滑": 3642,
    "點滑點": 3643,
    "滑點高": 3644,
    "點高波": 3645,
    "波動時": 3646,
    "動時實": 3647,
    "時實際": 3648,
    "交價可": 3649,
    "價可能": 3650,
    "可能偏": 3651,
    "能偏差": 3652,
    "偏差較": 3653,
    "差較大": 3654,
    "較大適": 3655,
    "大適用": 3656,
    "適用急": 3657,
    "用急需": 3658,
    "急需進": 3659,
    "需進出": 3660,
    "出場追": 3661,
    "場追急": 3662,
    "追急漲": 3663,
    "急漲急": 3664,
    "漲急跌": 3665,
    "急跌重": 3666,
    "跌重要": 3667,
    "重要消": 3668,
    "要消息": 3669,
    "消息公": 3670,
    "息公布": 3671,
    "公布後": 3672,
    "布後限": 3673,
    "後限價": 3674,
    "價單指": 3675,
    "單指定": 3676,
    "價格掛": 3677,
    "格掛單": 3678,
    "掛單只": 3679,
    "單只在": 3680,
    "只在達": 3681,
    "在達到": 3682,
    "達到指": 3683,
    "到指定": 3684,
    "價格時": 3685,
    "格時成": 3686,
    "時成交": 3687,
    "優點控": 3688,
    "點控制": 3689,
    "控制進": 3690,
    "制進場": 3691,
    "進場價": 3692,
    "價格有": 3693,
    "格有機": 3694,
    "有機會": 3695,
    "機會享": 3696,
    "會享有": 3697,
    "享有手": 3698,
    "有手續": 3699,
    "續費優": 3700,
    "費優惠": 3701,
    "優惠缺": 3702,
    "惠缺點": 3703,
    "缺點若": 3704,
    "點若價": 3705,
    "若價格": 3706,
    "價格未": 3707,
    "格未到": 3708,
    "未到達": 3709,
    "到達訂": 3710,
    "達訂單": 3711,
    "訂單不": 3712,
    "單不會": 3713,
    "不會成": 3714,
    "會成交": 3715,
    "成交適": 3716,
    "交適用": 3717,
    "適用有": 3718,
    "用有耐": 3719,
    "有耐心": 3720,
    "耐心等": 3721,
    "心等待": 3722,
    "等待理": 3723,
    "待理想": 3724,
    "理想進": 3725,
    "想進場": 3726,
    "進場點": 3727,
    "場點量": 3728,
    "點量化": 3729,
    "量化策": 3730,
    "化策略": 3731,
    "策略掛": 3732,
    "略掛單": 3733,
    "市價單以": 3734,
    "價單以當": 3735,
    "單以當前": 3736,
    "以當前最": 3737,
    "當前最優": 3738,
    "前最優市": 3739,
    "最優市場": 3740,
    "優市場價": 3741,
    "市場價格": 3742,
    "場價格立": 3743,
    "價格立即": 3744,
    "格立即成": 3745,
    "立即成交": 3746,
    "即成交優": 3747,
    "交優點保": 3748,
    "優點保證": 3749,
    "點保證成": 3750,
    "保證成交": 3751,
    "證成交速": 3752,
    "成交速度": 3753,
    "交速度快": 3754,
    "速度快缺": 3755,
    "度快缺點": 3756,
    "快缺點滑": 3757,
    "缺點滑點": 3758,
    "點滑點高": 3759,
    "滑點高波": 3760,
    "點高波動": 3761,
    "高波動時": 3762,
    "波動時實": 3763,
    "動時實際": 3764,
    "時實際成": 3765,
    "際成交價": 3766,
    "成交價可": 3767,
    "交價可能": 3768,
    "價可能偏": 3769,
    "可能偏差": 3770,
    "能偏差較": 3771,
    "偏差較大": 3772,
    "差較大適": 3773,
    "較大適用": 3774,
    "大適用急": 3775,
    "適用急需": 3776,
    "用急需進": 3777,
    "急需進出": 3778,
    "需進出場": 3779,
    "進出場追": 3780,
    "出場追急": 3781,
    "場追急漲": 3782,
    "追急漲急": 3783,
    "急漲急跌": 3784,
    "漲急跌重": 3785,
    "急跌重要": 3786,
    "跌重要消": 3787,
    "重要消息": 3788,
    "要消息公": 3789,
    "消息公布": 3790,
    "息公布後": 3791,
    "公布後限": 3792,
    "布後限價": 3793,
    "後限價單": 3794,
    "限價單指": 3795,
    "價單指定": 3796,
    "單指定價": 3797,
    "定價格掛": 3798,
    "價格掛單": 3799,
    "格掛單只": 3800,
    "掛單只在": 3801,
    "單只在達": 3802,
    "只在達到": 3803,
    "在達到指": 3804,
    "達到指定": 3805,
    "到指定價": 3806,
    "定價格時": 3807,
    "價格時成": 3808,
    "格時成交": 3809,
    "時成交優": 3810,
    "交優點控": 3811,
    "優點控制": 3812,
    "點控制進": 3813,
    "控制進場": 3814,
    "制進場價": 3815,
    "進場價格": 3816,
    "場價格有": 3817,
    "價格有機": 3818,
    "格有機會": 3819,
    "有機會享": 3820,
    "機會享有": 3821,
    "會享有手": 3822,
    "享有手續": 3823,
    "有手續費": 3824,
    "手續費優": 3825,
    "續費優惠": 3826,
    "費優惠缺": 3827,
    "優惠缺點": 3828,
    "惠缺點若": 3829,
    "缺點若價": 3830,
    "點若價格": 3831,
    "若價格未": 3832,
    "價格未到": 3833,
    "格未到達": 3834,
    "未到達訂": 3835,
    "到達訂單": 3836,
    "達訂單不": 3837,
    "訂單不會": 3838,
    "單不會成": 3839,
    "不會成交": 3840,
    "會成交適": 3841,
    "成交適用": 3842,
    "交適用有": 3843,
    "適用有耐": 3844,
    "用有耐心": 3845,
    "有耐心等": 3846,
    "耐心等待": 3847,
    "心等待理": 3848,
    "等待理想": 3849,
    "待理想進": 3850,
    "理想進場": 3851,
    "想進場點": 3852,
    "進場點量": 3853,
    "場點量化": 3854,
    "點量化策": 3855,
    "量化策略": 3856,
    "化策略掛": 3857,
    "策略掛單": 3858,
    "has": 3859,
    "two": 3860,
    "parts": 3861,
    "triggers": 3862,
    "executes": 3863,
    "immediately": 3864,
    "reaches": 3865,
    "placed": 3866,
    "used": 3867,
    "protection": 3868,
    "exit": 3869,
    "quickly": 3870,
    "against": 3871,
    "breakout": 3872,
    "entries": 3873,
    "breaks": 3874,
    "execution": 3875,
    "guaranteed": 3876,
    "fast": 3877,
    "slippage": 3878,
    "occur": 3879,
    "tighter": 3880,
    "instead": 3881,
    "單怎": 3882,
    "損單怎": 3883,
    "單怎麼": 3884,
    "止損單怎": 3885,
    "損單怎麼": 3886,
    "單怎麼用": 3887,
    "trailing": 3888,
    "callback": 3889,
    "單會": 3890,
    "會隨": 3891,
    "隨著": 3892,
    "著價": 3893,
    "格朝": 3894,
    "朝有": 3895,
    "有利": 3896,
    "向移": 3897,
    "動而": 3898,
    "而自": 3899,
    "動調": 3900,
    "整止": 3901,
    "損位": 3902,
    "位做": 3903,
    "多時": 3904,
    "漲而": 3905,
    "而上": 3906,
    "上移": 3907,
    "跌時": 3908,
    "變做": 3909,
    "空時": 3910,
    "跌而": 3911,
    "而下": 3912,
    "漲時": 3913,
    "變設": 3914,
    "定參": 3915,
    "數回": 3916,
    "調距": 3917,
    "離通": 3918,
    "常設": 3919,
    "設使": 3920,
    "用場": 3921,
    "場景": 3922,
    "景趨": 3923,
    "中希": 3924,
    "希望": 3925,
    "望讓": 3926,
    "跑同": 3927,
    "時保": 3928,
    "保護": 3929,
    "護已": 3930,
    "已有": 3931,
    "有獲": 3932,
    "利不": 3933,
    "不想": 3934,
    "想盯": 3935,
    "盯盤": 3936,
    "盤讓": 3937,
    "統自": 3938,
    "蹤範": 3939,
    "例從": 3940,
    "從做": 3941,
    "多設": 3942,
    "設追": 3943,
    "損漲": 3944,
    "漲到": 3945,
    "到止": 3946,
    "損跟": 3947,
    "跟到": 3948,
    "到之": 3949,
    "之後": 3950,
    "後跌": 3951,
    "跌到": 3952,
    "到自": 3953,
    "倉鎖": 3954,
    "鎖定": 3955,
    "定利": 3956,
    "損單會": 3957,
    "單會隨": 3958,
    "會隨著": 3959,
    "隨著價": 3960,
    "著價格": 3961,
    "價格朝": 3962,
    "格朝有": 3963,
    "朝有利": 3964,
    "有利方": 3965,
    "方向移": 3966,
    "向移動": 3967,
    "移動而": 3968,
    "動而自": 3969,
    "而自動": 3970,
    "自動調": 3971,
    "動調整": 3972,
    "調整止": 3973,
    "整止損": 3974,
    "止損位": 3975,
    "損位做": 3976,
    "位做多": 3977,
    "做多時": 3978,
    "多時止": 3979,
    "上漲而": 3980,
    "漲而上": 3981,
    "而上移": 3982,
    "上移但": 3983,
    "下跌時": 3984,
    "跌時止": 3985,
    "不變做": 3986,
    "變做空": 3987,
    "做空時": 3988,
    "空時止": 3989,
    "下跌而": 3990,
    "跌而下": 3991,
    "而下移": 3992,
    "下移但": 3993,
    "上漲時": 3994,
    "漲時止": 3995,
    "不變設": 3996,
    "變設定": 3997,
    "設定參": 3998,
    "定參數": 3999,
    "參數回": 4000,
    "數回調": 4001,
    "回調距": 4002,
    "調距離": 4003,
    "距離通": 4004,
    "離通常": 4005,
    "通常設": 4006,
    "常設使": 4007,
    "設使用": 4008,
    "使用場": 4009,
    "用場景": 4010,
    "場景趨": 4011,
    "景趨勢": 4012,
    "情中希": 4013,
    "中希望": 4014,
    "希望讓": 4015,
    "望讓利": 4016,
    "奔跑同": 4017,
    "跑同時": 4018,
    "同時保": 4019,
    "時保護": 4020,
    "保護已": 4021,
    "護已有": 4022,
    "已有獲": 4023,
    "有獲利": 4024,
    "獲利不": 4025,
    "利不想": 4026,
    "不想盯": 4027,
    "想盯盤": 4028,
    "盯盤讓": 4029,
    "盤讓系": 4030,
    "系統自": 4031,
    "統自動": 4032,
    "追蹤範": 4033,
    "蹤範例": 4034,
    "範例從": 4035,
    "例從做": 4036,
    "從做多": 4037,
    "做多設": 4038,
    "多設追": 4039,
    "設追蹤": 4040,
    "止損漲": 4041,
    "損漲到": 4042,
    "漲到止": 4043,
    "到止損": 4044,
    "止損跟": 4045,
    "損跟到": 4046,
    "跟到之": 4047,
    "到之後": 4048,
    "之後跌": 4049,
    "後跌到": 4050,
    "跌到自": 4051,
    "到自動": 4052,
    "平倉鎖": 4053,
    "倉鎖定": 4054,
    "鎖定利": 4055,
    "定利潤": 4056,
    "止損單會": 4057,
    "損單會隨": 4058,
    "單會隨著": 4059,
    "會隨著價": 4060,
    "隨著價格": 4061,
    "著價格朝": 4062,
    "價格朝有": 4063,
    "格朝有利": 4064,
    "朝有利方": 4065,
    "有利方向": 4066,
    "利方向移": 4067,
    "方向移動": 4068,
    "向移動而": 4069,
    "移動而自": 4070,
    "動而自動": 4071,
    "而自動調": 4072,
    "自動調整": 4073,
    "動調整止": 4074,
    "調整止損": 4075,
    "整止損位": 4076,
    "止損位做": 4077,
    "損位做多": 4078,
    "位做多時": 4079,
    "做多時止": 4080,
    "多時止損": 4081,
    "隨價格上": 4082,
    "格上漲而": 4083,
    "上漲而上": 4084,
    "漲而上移": 4085,
    "而上移但": 4086,
    "上移但價": 4087,
    "但價格下": 4088,
    "格下跌時": 4089,
    "下跌時止": 4090,
    "跌時止損": 4091,
    "點不變做": 4092,
    "不變做空": 4093,
    "變做空時": 4094,
    "做空時止": 4095,
    "空時止損": 4096,
    "隨價格下": 4097,
    "格下跌而": 4098,
    "下跌而下": 4099,
    "跌而下移": 4100,
    "而下移但": 4101,
    "下移但價": 4102,
    "但價格上": 4103,
    "格上漲時": 4104,
    "上漲時止": 4105,
    "漲時止損": 4106,
    "點不變設": 4107,
    "不變設定": 4108,
    "變設定參": 4109,
    "設定參數": 4110,
    "定參數回": 4111,
    "參數回調": 4112,
    "數回調距": 4113,
    "回調距離": 4114,
    "調距離通": 4115,
    "距離通常": 4116,
    "離通常設": 4117,
    "通常設使": 4118,
    "常設使用": 4119,
    "設使用場": 4120,
    "使用場景": 4121,
    "用場景趨": 4122,
    "場景趨勢": 4123,
    "景趨勢行": 4124,
    "勢行情中": 4125,
    "行情中希": 4126,
    "情中希望": 4127,
    "中希望讓": 4128,
    "希望讓利": 4129,
    "望讓利潤": 4130,
    "潤奔跑同": 4131,
    "奔跑同時": 4132,
    "跑同時保": 4133,
    "同時保護": 4134,
    "時保護已": 4135,
    "保護已有": 4136,
    "護已有獲": 4137,
    "已有獲利": 4138,
    "有獲利不": 4139,
    "獲利不想": 4140,
    "利不想盯": 4141,
    "不想盯盤": 4142,
    "想盯盤讓": 4143,
    "盯盤讓系": 4144,
    "盤讓系統": 4145,
    "讓系統自": 4146,
    "系統自動": 4147,
    "統自動追": 4148,
    "動追蹤範": 4149,
    "追蹤範例": 4150,
    "蹤範例從": 4151,
    "範例從做": 4152,
    "例從做多": 4153,
    "從做多設": 4154,
    "做多設追": 4155,
    "多設追蹤": 4156,
    "設追蹤止": 4157,
    "蹤止損漲": 4158,
    "止損漲到": 4159,
    "損漲到止": 4160,
    "漲到止損": 4161,
    "到止損跟": 4162,
    "止損跟到": 4163,
    "損跟到之": 4164,
    "跟到之後": 4165,
    "到之後跌": 4166,
    "之後跌到": 4167,
    "後跌到自": 4168,
    "跌到自動": 4169,
    "到自動平": 4170,
    "動平倉鎖": 4171,
    "平倉鎖定": 4172,
    "倉鎖定利": 4173,
    "鎖定利潤": 4174,
    "和止": 4175,
    "單哪": 4176,
    "個比": 4177,
    "較好": 4178,
    "單和止": 4179,
    "和止損": 4180,
    "價單哪": 4181,
    "單哪個": 4182,
    "哪個比": 4183,
    "個比較": 4184,
    "比較好": 4185,
    "限價單和": 4186,
    "價單和止": 4187,
    "單和止損": 4188,
    "和止損市": 4189,
    "市價單哪": 4190,
    "價單哪個": 4191,
    "單哪個比": 4192,
    "哪個比較": 4193,
    "個比較好": 4194,
    "gap": 4195,
    "單保": 4196,
    "證觸": 4197,
    "發後": 4198,
    "一定": 4199,
    "定成": 4200,
    "交成": 4201,
    "不確": 4202,
    "確定": 4203,
    "定極": 4204,
    "端行": 4205,
    "情可": 4206,
    "能嚴": 4207,
    "嚴重": 4208,
    "重滑": 4209,
    "點止": 4210,
    "單可": 4211,
    "以控": 4212,
    "制最": 4213,
    "最差": 4214,
    "差成": 4215,
    "格若": 4216,
    "場跳": 4217,
    "跳空": 4218,
    "空價": 4219,
    "格越": 4220,
    "越過": 4221,
    "過限": 4222,
    "價而": 4223,
    "而不": 4224,
    "不成": 4225,
    "交止": 4226,
    "失效": 4227,
    "效建": 4228,
    "議一": 4229,
    "一般": 4230,
    "般行": 4231,
    "情止": 4232,
    "單設": 4233,
    "設稍": 4234,
    "稍微": 4235,
    "微寬": 4236,
    "寬鬆": 4237,
    "鬆的": 4238,
    "的限": 4239,
    "價如": 4240,
    "如止": 4241,
    "損價": 4242,
    "價再": 4243,
    "再下": 4244,
    "移重": 4245,
    "息極": 4246,
    "動止": 4247,
    "單確": 4248,
    "確保": 4249,
    "保成": 4250,
    "優先": 4251,
    "先最": 4252,
    "最穩": 4253,
    "穩健": 4254,
    "健做": 4255,
    "法同": 4256,
    "時設": 4257,
    "設置": 4258,
    "置止": 4259,
    "單作": 4260,
    "為最": 4261,
    "後防": 4262,
    "防線": 4263,
    "價單保": 4264,
    "單保證": 4265,
    "保證觸": 4266,
    "證觸發": 4267,
    "觸發後": 4268,
    "發後一": 4269,
    "後一定": 4270,
    "一定成": 4271,
    "定成交": 4272,
    "成交成": 4273,
    "交成交": 4274,
    "格不確": 4275,
    "不確定": 4276,
    "確定極": 4277,
    "定極端": 4278,
    "極端行": 4279,
    "端行情": 4280,
    "行情可": 4281,
    "情可能": 4282,
    "可能嚴": 4283,
    "能嚴重": 4284,
    "嚴重滑": 4285,
    "重滑點": 4286,
    "滑點止": 4287,
    "點止損": 4288,
    "價單可": 4289,
    "單可以": 4290,
    "可以控": 4291,
    "以控制": 4292,
    "控制最": 4293,
    "制最差": 4294,
    "最差成": 4295,
    "差成交": 4296,
    "價格若": 4297,
    "格若市": 4298,
    "市場跳": 4299,
    "場跳空": 4300,
    "跳空價": 4301,
    "空價格": 4302,
    "價格越": 4303,
    "格越過": 4304,
    "越過限": 4305,
    "過限價": 4306,
    "限價而": 4307,
    "價而不": 4308,
    "而不成": 4309,
    "不成交": 4310,
    "成交止": 4311,
    "交止損": 4312,
    "止損失": 4313,
    "損失效": 4314,
    "失效建": 4315,
    "效建議": 4316,
    "建議一": 4317,
    "議一般": 4318,
    "一般行": 4319,
    "般行情": 4320,
    "行情止": 4321,
    "情止損": 4322,
    "價單設": 4323,
    "單設稍": 4324,
    "設稍微": 4325,
    "稍微寬": 4326,
    "微寬鬆": 4327,
    "寬鬆的": 4328,
    "鬆的限": 4329,
    "的限價": 4330,
    "限價如": 4331,
    "價如止": 4332,
    "如止損": 4333,
    "止損價": 4334,
    "損價再": 4335,
    "價再下": 4336,
    "再下移": 4337,
    "下移重": 4338,
    "移重大": 4339,
    "消息極": 4340,
    "息極端": 4341,
    "波動止": 4342,
    "動止損": 4343,
    "價單確": 4344,
    "單確保": 4345,
    "確保成": 4346,
    "保成交": 4347,
    "交優先": 4348,
    "優先最": 4349,
    "先最穩": 4350,
    "最穩健": 4351,
    "穩健做": 4352,
    "健做法": 4353,
    "做法同": 4354,
    "法同時": 4355,
    "同時設": 4356,
    "時設置": 4357,
    "設置止": 4358,
    "置止損": 4359,
    "價單作": 4360,
    "單作為": 4361,
    "作為最": 4362,
    "為最後": 4363,
    "最後防": 4364,
    "後防線": 4365,
    "市價單保": 4366,
    "價單保證": 4367,
    "單保證觸": 4368,
    "保證觸發": 4369,
    "證觸發後": 4370,
    "觸發後一": 4371,
    "發後一定": 4372,
    "後一定成": 4373,
    "一定成交": 4374,
    "定成交成": 4375,
    "成交成交": 4376,
    "交成交價": 4377,
    "交價格不": 4378,
    "價格不確": 4379,
    "格不確定": 4380,
    "不確定極": 4381,
    "確定極端": 4382,
    "定極端行": 4383,
    "極端行情": 4384,
    "端行情可": 4385,
    "行情可能": 4386,
    "情可能嚴": 4387,
    "可能嚴重": 4388,
    "能嚴重滑": 4389,
    "嚴重滑點": 4390,
    "重滑點止": 4391,
    "滑點止損": 4392,
    "點止損限": 4393,
    "限價單可": 4394,
    "價單可以": 4395,
    "單可以控": 4396,
    "可以控制": 4397,
    "以控制最": 4398,
    "控制最差": 4399,
    "制最差成": 4400,
    "最差成交": 4401,
    "差成交價": 4402,
    "交價格若": 4403,
    "價格若市": 4404,
    "格若市場": 4405,
    "若市場跳": 4406,
    "市場跳空": 4407,
    "場跳空價": 4408,
    "跳空價格": 4409,
    "空價格越": 4410,
    "價格越過": 4411,
    "格越過限": 4412,
    "越過限價": 4413,
    "過限價而": 4414,
    "限價而不": 4415,
    "價而不成": 4416,
    "而不成交": 4417,
    "不成交止": 4418,
    "成交止損": 4419,
    "交止損失": 4420,
    "止損失效": 4421,
    "損失效建": 4422,
    "失效建議": 4423,
    "效建議一": 4424,
    "建議一般": 4425,
    "議一般行": 4426,
    "一般行情": 4427,
    "般行情止": 4428,
    "行情止損": 4429,
    "情止損限": 4430,
    "限價單設": 4431,
    "價單設稍": 4432,
    "單設稍微": 4433,
    "設稍微寬": 4434,
    "稍微寬鬆": 4435,
    "微寬鬆的": 4436,
    "寬鬆的限": 4437,
    "鬆的限價": 4438,
    "的限價如": 4439,
    "限價如止": 4440,
    "價如止損": 4441,
    "如止損價": 4442,
    "止損價再": 4443,
    "損價再下": 4444,
    "價再下移": 4445,
    "再下移重": 4446,
    "下移重大": 4447,
    "移重大消": 4448,
    "大消息極": 4449,
    "消息極端": 4450,
    "息極端波": 4451,
    "端波動止": 4452,
    "波動止損": 4453,
    "動止損市": 4454,
    "市價單確": 4455,
    "價單確保": 4456,
    "單確保成": 4457,
    "確保成交": 4458,
    "保成交優": 4459,
    "成交優先": 4460,
    "交優先最": 4461,
    "優先最穩": 4462,
    "先最穩健": 4463,
    "最穩健做": 4464,
    "穩健做法": 4465,
    "健做法同": 4466,
    "做法同時": 4467,
    "法同時設": 4468,
    "同時設置": 4469,
    "時設置止": 4470,
    "設置止損": 4471,
    "置止損市": 4472,
    "市價單作": 4473,
    "價單作為": 4474,
    "單作為最": 4475,
    "作為最後": 4476,
    "為最後防": 4477,
    "最後防線": 4478,
    "易應": 4479,
    "該承": 4480,
    "擔多": 4481,
    "少風": 4482,
    "一筆交": 4483,
    "交易應": 4484,
    "易應該": 4485,
    "應該承": 4486,
    "該承擔": 4487,
    "承擔多": 4488,
    "擔多少": 4489,
    "多少風": 4490,
    "少風險": 4491,
    "一筆交易": 4492,
    "筆交易應": 4493,
    "交易應該": 4494,
    "易應該承": 4495,
    "應該承擔": 4496,
    "該承擔多": 4497,
    "承擔多少": 4498,
    "擔多少風": 4499,
    "多少風險": 4500,
    "業界": 4501,
    "界標": 4502,
    "準建": 4503,
    "議每": 4504,
    "易風": 4505,
    "險不": 4506,
    "不超": 4507,
    "過帳": 4508,
    "戶總": 4509,
    "總資": 4510,
    "金的": 4511,
    "的以": 4512,
    "以帳": 4513,
    "戶為": 4514,
    "例風": 4515,
    "險設": 4516,
    "定每": 4517,
    "筆最": 4518,
    "大損": 4519,
    "失若": 4520,
    "若止": 4521,
    "損距": 4522,
    "離為": 4523,
    "為即": 4524,
    "即價": 4525,
    "跌就": 4526,
    "就止": 4527,
    "小名": 4528,
    "值這": 4529,
    "這種": 4530,
    "種方": 4531,
    "式即": 4532,
    "使連": 4533,
    "損筆": 4534,
    "筆帳": 4535,
    "戶仍": 4536,
    "仍有": 4537,
    "有約": 4538,
    "約虧": 4539,
    "損高": 4540,
    "桿不": 4541,
    "不等": 4542,
    "等於": 4543,
    "於大": 4544,
    "險關": 4545,
    "鍵是": 4546,
    "是控": 4547,
    "筆的": 4548,
    "業界標": 4549,
    "界標準": 4550,
    "標準建": 4551,
    "準建議": 4552,
    "建議每": 4553,
    "議每筆": 4554,
    "交易風": 4555,
    "易風險": 4556,
    "風險不": 4557,
    "險不超": 4558,
    "不超過": 4559,
    "超過帳": 4560,
    "過帳戶": 4561,
    "帳戶總": 4562,
    "戶總資": 4563,
    "總資金": 4564,
    "資金的": 4565,
    "金的以": 4566,
    "的以帳": 4567,
    "以帳戶": 4568,
    "帳戶為": 4569,
    "戶為例": 4570,
    "為例風": 4571,
    "例風險": 4572,
    "風險設": 4573,
    "險設定": 4574,
    "設定每": 4575,
    "定每筆": 4576,
    "每筆最": 4577,
    "筆最大": 4578,
    "最大損": 4579,
    "大損失": 4580,
    "損失若": 4581,
    "失若止": 4582,
    "若止損": 4583,
    "止損距": 4584,
    "損距離": 4585,
    "距離為": 4586,
    "離為即": 4587,
    "為即價": 4588,
    "即價格": 4589,
    "下跌就": 4590,
    "跌就止": 4591,
    "就止損": 4592,
    "止損倉": 4593,
    "大小名": 4594,
    "小名義": 4595,
    "價值這": 4596,
    "值這種": 4597,
    "這種方": 4598,
    "種方式": 4599,
    "方式即": 4600,
    "式即使": 4601,
    "即使連": 4602,
    "使連續": 4603,
    "虧損筆": 4604,
    "損筆帳": 4605,
    "筆帳戶": 4606,
    "帳戶仍": 4607,
    "戶仍有": 4608,
    "仍有約": 4609,
    "有約虧": 4610,
    "約虧損": 4611,
    "虧損高": 4612,
    "損高槓": 4613,
    "槓桿不": 4614,
    "桿不等": 4615,
    "不等於": 4616,
    "等於大": 4617,
    "於大風": 4618,
    "風險關": 4619,
    "險關鍵": 4620,
    "關鍵是": 4621,
    "鍵是控": 4622,
    "是控制": 4623,
    "控制每": 4624,
    "制每筆": 4625,
    "每筆的": 4626,
    "筆的倉": 4627,
    "業界標準": 4628,
    "界標準建": 4629,
    "標準建議": 4630,
    "準建議每": 4631,
    "建議每筆": 4632,
    "議每筆交": 4633,
    "筆交易風": 4634,
    "交易風險": 4635,
    "易風險不": 4636,
    "風險不超": 4637,
    "險不超過": 4638,
    "不超過帳": 4639,
    "超過帳戶": 4640,
    "過帳戶總": 4641,
    "帳戶總資": 4642,
    "戶總資金": 4643,
    "總資金的": 4644,
    "資金的以": 4645,
    "金的以帳": 4646,
    "的以帳戶": 4647,
    "以帳戶為": 4648,
    "帳戶為例": 4649,
    "戶為例風": 4650,
    "為例風險": 4651,
    "例風險設": 4652,
    "風險設定": 4653,
    "險設定每": 4654,
    "設定每筆": 4655,
    "定每筆最": 4656,
    "每筆最大": 4657,
    "筆最大損": 4658,
    "最大損失": 4659,
    "大損失若": 4660,
    "損失若止": 4661,
    "失若止損": 4662,
    "若止損距": 4663,
    "止損距離": 4664,
    "損距離為": 4665,
    "距離為即": 4666,
    "離為即價": 4667,
    "為即價格": 4668,
    "即價格下": 4669,
    "格下跌就": 4670,
    "下跌就止": 4671,
    "跌就止損": 4672,
    "就止損倉": 4673,
    "止損倉位": 4674,
    "損倉位大": 4675,
    "位大小名": 4676,
    "大小名義": 4677,
    "小名義價": 4678,
    "義價值這": 4679,
    "價值這種": 4680,
    "值這種方": 4681,
    "這種方式": 4682,
    "種方式即": 4683,
    "方式即使": 4684,
    "式即使連": 4685,
    "即使連續": 4686,
    "使連續虧": 4687,
    "續虧損筆": 4688,
    "虧損筆帳": 4689,
    "損筆帳戶": 4690,
    "筆帳戶仍": 4691,
    "帳戶仍有": 4692,
    "戶仍有約": 4693,
    "仍有約虧": 4694,
    "有約虧損": 4695,
    "約虧損高": 4696,
    "虧損高槓": 4697,
    "損高槓桿": 4698,
    "高槓桿不": 4699,
    "槓桿不等": 4700,
    "桿不等於": 4701,
    "不等於大": 4702,
    "等於大風": 4703,
    "於大風險": 4704,
    "大風險關": 4705,
    "風險關鍵": 4706,
    "險關鍵是": 4707,
    "關鍵是控": 4708,
    "鍵是控制": 4709,
    "是控制每": 4710,
    "控制每筆": 4711,
    "制每筆的": 4712,
    "每筆的倉": 4713,
    "筆的倉位": 4714,
    "的倉位大": 4715,
    "good": 4716,
    "industry": 4717,
    "standard": 4718,
    "baseline": 4719,
    "meaning": 4720,
    "aim": 4721,
    "make": 4722,
    "common": 4723,
    "setups": 4724,
    "conservative": 4725,
    "take": 4726,
    "moderate": 4727,
    "target": 4728,
    "aggressive": 4729,
    "trades": 4730,
    "higher": 4731,
    "even": 4732,
    "win": 4733,
    "wins": 4734,
    "losses": 4735,
    "net": 4736,
    "default": 4737,
    "configurable": 4738,
    "riskparameters": 4739,
    "數是什": 4740,
    "倍數是什": 4741,
    "數是什麼": 4742,
    "是衡": 4743,
    "量交": 4744,
    "易結": 4745,
    "果相": 4746,
    "對於": 4747,
    "於初": 4748,
    "的指": 4749,
    "標實": 4750,
    "際損": 4751,
    "益初": 4752,
    "險金": 4753,
    "額範": 4754,
    "例初": 4755,
    "險獲": 4756,
    "利虧": 4757,
    "損觸": 4758,
    "及止": 4759,
    "損虧": 4760,
    "損未": 4761,
    "未止": 4762,
    "損不": 4763,
    "不良": 4764,
    "良習": 4765,
    "習慣": 4766,
    "慣使": 4767,
    "數的": 4768,
    "的好": 4769,
    "好處": 4770,
    "處可": 4771,
    "以比": 4772,
    "較不": 4773,
    "同倉": 4774,
    "小的": 4775,
    "易績": 4776,
    "績效": 4777,
    "效目": 4778,
    "目標": 4779,
    "標是": 4780,
    "是長": 4781,
    "期平": 4782,
    "均每": 4783,
    "易期": 4784,
    "期望": 4785,
    "望值": 4786,
    "值為": 4787,
    "正系": 4788,
    "統會": 4789,
    "蹤每": 4790,
    "易的": 4791,
    "數是衡": 4792,
    "是衡量": 4793,
    "衡量交": 4794,
    "量交易": 4795,
    "交易結": 4796,
    "易結果": 4797,
    "結果相": 4798,
    "果相對": 4799,
    "相對於": 4800,
    "對於初": 4801,
    "於初始": 4802,
    "險的指": 4803,
    "的指標": 4804,
    "指標實": 4805,
    "標實際": 4806,
    "實際損": 4807,
    "際損益": 4808,
    "損益初": 4809,
    "益初始": 4810,
    "風險金": 4811,
    "險金額": 4812,
    "金額範": 4813,
    "額範例": 4814,
    "範例初": 4815,
    "例初始": 4816,
    "風險獲": 4817,
    "險獲利": 4818,
    "獲利虧": 4819,
    "利虧損": 4820,
    "虧損觸": 4821,
    "損觸及": 4822,
    "觸及止": 4823,
    "及止損": 4824,
    "止損虧": 4825,
    "損虧損": 4826,
    "虧損未": 4827,
    "損未止": 4828,
    "未止損": 4829,
    "止損不": 4830,
    "損不良": 4831,
    "不良習": 4832,
    "良習慣": 4833,
    "習慣使": 4834,
    "慣使用": 4835,
    "用倍數": 4836,
    "倍數的": 4837,
    "數的好": 4838,
    "的好處": 4839,
    "好處可": 4840,
    "處可以": 4841,
    "可以比": 4842,
    "以比較": 4843,
    "比較不": 4844,
    "較不同": 4845,
    "不同倉": 4846,
    "同倉位": 4847,
    "大小的": 4848,
    "小的交": 4849,
    "交易績": 4850,
    "易績效": 4851,
    "績效目": 4852,
    "效目標": 4853,
    "目標是": 4854,
    "標是長": 4855,
    "是長期": 4856,
    "長期平": 4857,
    "期平均": 4858,
    "平均每": 4859,
    "均每筆": 4860,
    "交易期": 4861,
    "易期望": 4862,
    "期望值": 4863,
    "望值為": 4864,
    "值為正": 4865,
    "為正系": 4866,
    "正系統": 4867,
    "系統會": 4868,
    "統會自": 4869,
    "追蹤每": 4870,
    "蹤每筆": 4871,
    "交易的": 4872,
    "易的倍": 4873,
    "的倍數": 4874,
    "倍數是衡": 4875,
    "數是衡量": 4876,
    "是衡量交": 4877,
    "衡量交易": 4878,
    "量交易結": 4879,
    "交易結果": 4880,
    "易結果相": 4881,
    "結果相對": 4882,
    "果相對於": 4883,
    "相對於初": 4884,
    "對於初始": 4885,
    "於初始風": 4886,
    "始風險的": 4887,
    "風險的指": 4888,
    "險的指標": 4889,
    "的指標實": 4890,
    "指標實際": 4891,
    "標實際損": 4892,
    "實際損益": 4893,
    "際損益初": 4894,
    "損益初始": 4895,
    "益初始風": 4896,
    "始風險金": 4897,
    "風險金額": 4898,
    "險金額範": 4899,
    "金額範例": 4900,
    "額範例初": 4901,
    "範例初始": 4902,
    "例初始風": 4903,
    "始風險獲": 4904,
    "風險獲利": 4905,
    "險獲利虧": 4906,
    "獲利虧損": 4907,
    "利虧損觸": 4908,
    "虧損觸及": 4909,
    "損觸及止": 4910,
    "觸及止損": 4911,
    "及止損虧": 4912,
    "止損虧損": 4913,
    "損虧損未": 4914,
    "虧損未止": 4915,
    "損未止損": 4916,
    "未止損不": 4917,
    "止損不良": 4918,
    "損不良習": 4919,
    "不良習慣": 4920,
    "良習慣使": 4921,
    "習慣使用": 4922,
    "慣使用倍": 4923,
    "使用倍數": 4924,
    "用倍數的": 4925,
    "倍數的好": 4926,
    "數的好處": 4927,
    "的好處可": 4928,
    "好處可以": 4929,
    "處可以比": 4930,
    "可以比較": 4931,
    "以比較不": 4932,
    "比較不同": 4933,
    "較不同倉": 4934,
    "不同倉位": 4935,
    "同倉位大": 4936,
    "位大小的": 4937,
    "大小的交": 4938,
    "小的交易": 4939,
    "的交易績": 4940,
    "交易績效": 4941,
    "易績效目": 4942,
    "績效目標": 4943,
    "效目標是": 4944,
    "目標是長": 4945,
    "標是長期": 4946,
    "是長期平": 4947,
    "長期平均": 4948,
    "期平均每": 4949,
    "平均每筆": 4950,
    "均每筆交": 4951,
    "筆交易期": 4952,
    "交易期望": 4953,
    "易期望值": 4954,
    "期望值為": 4955,
    "望值為正": 4956,
    "值為正系": 4957,
    "為正系統": 4958,
    "正系統會": 4959,
    "系統會自": 4960,
    "統會自動": 4961,
    "會自動追": 4962,
    "動追蹤每": 4963,
    "追蹤每筆": 4964,
    "蹤每筆交": 4965,
    "筆交易的": 4966,
    "交易的倍": 4967,
    "易的倍數": 4968,
    "麼時": 4969,
    "時候": 4970,
    "候不": 4971,
    "不應": 4972,
    "該交": 4973,
    "什麼時": 4974,
    "麼時候": 4975,
    "時候不": 4976,
    "候不應": 4977,
    "不應該": 4978,
    "應該交": 4979,
    "該交易": 4980,
    "什麼時候": 4981,
    "麼時候不": 4982,
    "時候不應": 4983,
    "候不應該": 4984,
    "不應該交": 4985,
    "應該交易": 4986,
    "cpi": 4987,
    "pretradechecksystem": 4988,
    "下情": 4989,
    "況建": 4990,
    "議暫": 4991,
    "暫停": 4992,
    "停交": 4993,
    "易重": 4994,
    "大新": 4995,
    "聞發": 4996,
    "後美": 4997,
    "美聯": 4998,
    "聯儲": 4999,
    "儲利": 5000,
    "利率": 5001,
    "率決": 5002,
    "決議": 5003,
    "議非": 5004,
    "非農": 5005,
    "農數": 5006,
    "數據": 5007,
    "據幣": 5008,
    "幣圈": 5009,
    "圈重": 5010,
    "大監": 5011,
    "監管": 5012,
    "管消": 5013,
    "息市": 5014,
    "動期": 5015,
    "期恐": 5016,
    "恐慌": 5017,
    "慌指": 5018,
    "數極": 5019,
    "極高": 5020,
    "高流": 5021,
    "性不": 5022,
    "的深": 5023,
    "深夜": 5024,
    "夜時": 5025,
    "段滑": 5026,
    "點風": 5027,
    "險增": 5028,
    "增加": 5029,
    "加連": 5030,
    "損後": 5031,
    "後情": 5032,
    "緒受": 5033,
    "受影": 5034,
    "響時": 5035,
    "時倉": 5036,
    "位已": 5037,
    "已達": 5038,
    "達最": 5039,
    "險限": 5040,
    "制的": 5041,
    "的和": 5042,
    "和會": 5043,
    "動偵": 5044,
    "偵測": 5045,
    "測以": 5046,
    "上情": 5047,
    "況在": 5048,
    "在高": 5049,
    "高風": 5050,
    "險環": 5051,
    "境下": 5052,
    "下限": 5053,
    "制或": 5054,
    "或停": 5055,
    "停止": 5056,
    "止自": 5057,
    "以下情": 5058,
    "下情況": 5059,
    "情況建": 5060,
    "況建議": 5061,
    "建議暫": 5062,
    "議暫停": 5063,
    "暫停交": 5064,
    "停交易": 5065,
    "交易重": 5066,
    "易重大": 5067,
    "重大新": 5068,
    "大新聞": 5069,
    "新聞發": 5070,
    "聞發布": 5071,
    "前後美": 5072,
    "後美聯": 5073,
    "美聯儲": 5074,
    "聯儲利": 5075,
    "儲利率": 5076,
    "利率決": 5077,
    "率決議": 5078,
    "決議非": 5079,
    "議非農": 5080,
    "非農數": 5081,
    "農數據": 5082,
    "數據幣": 5083,
    "據幣圈": 5084,
    "幣圈重": 5085,
    "圈重大": 5086,
    "重大監": 5087,
    "大監管": 5088,
    "監管消": 5089,
    "管消息": 5090,
    "消息市": 5091,
    "息市場": 5092,
    "波動期": 5093,
    "動期恐": 5094,
    "期恐慌": 5095,
    "恐慌指": 5096,
    "慌指數": 5097,
    "指數極": 5098,
    "數極高": 5099,
    "極高流": 5100,
    "高流動": 5101,
    "動性不": 5102,
    "性不足": 5103,
    "足的深": 5104,
    "的深夜": 5105,
    "深夜時": 5106,
    "夜時段": 5107,
    "時段滑": 5108,
    "段滑點": 5109,
    "滑點風": 5110,
    "點風險": 5111,
    "風險增": 5112,
    "險增加": 5113,
    "增加連": 5114,
    "加連續": 5115,
    "虧損後": 5116,
    "損後情": 5117,
    "後情緒": 5118,
    "情緒受": 5119,
    "緒受影": 5120,
    "受影響": 5121,
    "影響時": 5122,
    "響時倉": 5123,
    "時倉位": 5124,
    "倉位已": 5125,
    "位已達": 5126,
    "已達最": 5127,
    "達最大": 5128,
    "最大風": 5129,
    "風險限": 5130,
    "險限制": 5131,
    "限制的": 5132,
    "制的和": 5133,
    "的和會": 5134,
    "和會自": 5135,
    "自動偵": 5136,
    "動偵測": 5137,
    "偵測以": 5138,
    "測以上": 5139,
    "以上情": 5140,
    "上情況": 5141,
    "情況在": 5142,
    "況在高": 5143,
    "在高風": 5144,
    "高風險": 5145,
    "風險環": 5146,
    "險環境": 5147,
    "環境下": 5148,
    "境下限": 5149,
    "下限制": 5150,
    "限制或": 5151,
    "制或停": 5152,
    "或停止": 5153,
    "停止自": 5154,
    "止自動": 5155,
    "以下情況": 5156,
    "下情況建": 5157,
    "情況建議": 5158,
    "況建議暫": 5159,
    "建議暫停": 5160,
    "議暫停交": 5161,
    "暫停交易": 5162,
    "停交易重": 5163,
    "交易重大": 5164,
    "易重大新": 5165,
    "重大新聞": 5166,
    "大新聞發": 5167,
    "新聞發布": 5168,
    "聞發布前": 5169,
    "布前後美": 5170,
    "前後美聯": 5171,
    "後美聯儲": 5172,
    "美聯儲利": 5173,
    "聯儲利率": 5174,
    "儲利率決": 5175,
    "利率決議": 5176,
    "率決議非": 5177,
    "決議非農": 5178,
    "議非農數": 5179,
    "非農數據": 5180,
    "農數據幣": 5181,
    "數據幣圈": 5182,
    "據幣圈重": 5183,
    "幣圈重大": 5184,
    "圈重大監": 5185,
    "重大監管": 5186,
    "大監管消": 5187,
    "監管消息": 5188,
    "管消息市": 5189,
    "消息市場": 5190,
    "息市場極": 5191,
    "端波動期": 5192,
    "波動期恐": 5193,
    "動期恐慌": 5194,
    "期恐慌指": 5195,
    "恐慌指數": 5196,
    "慌指數極": 5197,
    "指數極高": 5198,
    "數極高流": 5199,
    "極高流動": 5200,
    "高流動性": 5201,
    "流動性不": 5202,
    "動性不足": 5203,
    "性不足的": 5204,
    "不足的深": 5205,
    "足的深夜": 5206,
    "的深夜時": 5207,
    "深夜時段": 5208,
    "夜時段滑": 5209,
    "時段滑點": 5210,
    "段滑點風": 5211,
    "滑點風險": 5212,
    "點風險增": 5213,
    "風險增加": 5214,
    "險增加連": 5215,
    "增加連續": 5216,
    "加連續虧": 5217,
    "續虧損後": 5218,
    "虧損後情": 5219,
    "損後情緒": 5220,
    "後情緒受": 5221,
    "情緒受影": 5222,
    "緒受影響": 5223,
    "受影響時": 5224,
    "影響時倉": 5225,
    "響時倉位": 5226,
    "時倉位已": 5227,
    "倉位已達": 5228,
    "位已達最": 5229,
    "已達最大": 5230,
    "達最大風": 5231,
    "最大風險": 5232,
    "大風險限": 5233,
    "風險限制": 5234,
    "險限制的": 5235,
    "限制的和": 5236,
    "制的和會": 5237,
    "的和會自": 5238,
    "和會自動": 5239,
    "會自動偵": 5240,
    "自動偵測": 5241,
    "動偵測以": 5242,
    "偵測以上": 5243,
    "測以上情": 5244,
    "以上情況": 5245,
    "上情況在": 5246,
    "情況在高": 5247,
    "況在高風": 5248,
    "在高風險": 5249,
    "高風險環": 5250,
    "風險環境": 5251,
    "險環境下": 5252,
    "環境下限": 5253,
    "境下限制": 5254,
    "下限制或": 5255,
    "限制或停": 5256,
    "制或停止": 5257,
    "或停止自": 5258,
    "停止自動": 5259,
    "止自動交": 5260,
    "required": 5261,
    "tradingengine": 5262,
    "handles": 5263,
    "心邏": 5264,
    "輯是": 5265,
    "核心邏": 5266,
    "心邏輯": 5267,
    "邏輯是": 5268,
    "輯是什": 5269,
    "的核心邏": 5270,
    "核心邏輯": 5271,
    "心邏輯是": 5272,
    "邏輯是什": 5273,
    "輯是什麼": 5274,
    "following": 5275,
    "adx": 5276,
    "心原": 5277,
    "原則": 5278,
    "則順": 5279,
    "順勢": 5280,
    "勢而": 5281,
    "而為": 5282,
    "為讓": 5283,
    "跑快": 5284,
    "快速": 5285,
    "速止": 5286,
    "損進": 5287,
    "場條": 5288,
    "件做": 5289,
    "例短": 5290,
    "線如": 5291,
    "如在": 5292,
    "在長": 5293,
    "線之": 5294,
    "之上": 5295,
    "上趨": 5296,
    "勢強": 5297,
    "度足": 5298,
    "足夠": 5299,
    "夠多": 5300,
    "頭排": 5301,
    "排列": 5302,
    "列在": 5303,
    "在回": 5304,
    "回撤": 5305,
    "撤時": 5306,
    "時進": 5307,
    "場而": 5308,
    "而非": 5309,
    "非追": 5310,
    "高出": 5311,
    "場邏": 5312,
    "輯止": 5313,
    "在近": 5314,
    "近期": 5315,
    "期支": 5316,
    "撐位": 5317,
    "位或": 5318,
    "或的": 5319,
    "下分": 5320,
    "分批": 5321,
    "批止": 5322,
    "止盈": 5323,
    "盈讓": 5324,
    "潤跑": 5325,
    "跑均": 5326,
    "線交": 5327,
    "交叉": 5328,
    "叉走": 5329,
    "走壞": 5330,
    "壞時": 5331,
    "時平": 5332,
    "倉最": 5333,
    "最適": 5334,
    "場強": 5335,
    "情避": 5336,
    "避開": 5337,
    "開震": 5338,
    "整期": 5339,
    "核心原": 5340,
    "心原則": 5341,
    "原則順": 5342,
    "則順勢": 5343,
    "順勢而": 5344,
    "勢而為": 5345,
    "而為讓": 5346,
    "為讓利": 5347,
    "奔跑快": 5348,
    "跑快速": 5349,
    "快速止": 5350,
    "速止損": 5351,
    "止損進": 5352,
    "損進場": 5353,
    "進場條": 5354,
    "場條件": 5355,
    "條件做": 5356,
    "件做多": 5357,
    "範例短": 5358,
    "例短期": 5359,
    "短期均": 5360,
    "均線如": 5361,
    "線如在": 5362,
    "如在長": 5363,
    "在長期": 5364,
    "長期均": 5365,
    "均線之": 5366,
    "線之上": 5367,
    "之上趨": 5368,
    "上趨勢": 5369,
    "趨勢強": 5370,
    "勢強度": 5371,
    "強度足": 5372,
    "度足夠": 5373,
    "足夠多": 5374,
    "夠多頭": 5375,
    "多頭排": 5376,
    "頭排列": 5377,
    "排列在": 5378,
    "列在回": 5379,
    "在回撤": 5380,
    "回撤時": 5381,
    "撤時進": 5382,
    "時進場": 5383,
    "進場而": 5384,
    "場而非": 5385,
    "而非追": 5386,
    "非追高": 5387,
    "追高出": 5388,
    "高出場": 5389,
    "出場邏": 5390,
    "場邏輯": 5391,
    "邏輯止": 5392,
    "輯止損": 5393,
    "設在近": 5394,
    "在近期": 5395,
    "近期支": 5396,
    "期支撐": 5397,
    "支撐位": 5398,
    "撐位或": 5399,
    "位或的": 5400,
    "或的倍": 5401,
    "倍以下": 5402,
    "以下分": 5403,
    "下分批": 5404,
    "分批止": 5405,
    "批止盈": 5406,
    "止盈讓": 5407,
    "盈讓利": 5408,
    "利潤跑": 5409,
    "潤跑均": 5410,
    "跑均線": 5411,
    "均線交": 5412,
    "線交叉": 5413,
    "交叉走": 5414,
    "叉走壞": 5415,
    "走壞時": 5416,
    "壞時平": 5417,
    "時平倉": 5418,
    "平倉最": 5419,
    "倉最適": 5420,
    "最適合": 5421,
    "市場強": 5422,
    "場強趨": 5423,
    "行情避": 5424,
    "情避開": 5425,
    "避開震": 5426,
    "開震盪": 5427,
    "盤整期": 5428,
    "的核心原": 5429,
    "核心原則": 5430,
    "心原則順": 5431,
    "原則順勢": 5432,
    "則順勢而": 5433,
    "順勢而為": 5434,
    "勢而為讓": 5435,
    "而為讓利": 5436,
    "為讓利潤": 5437,
    "潤奔跑快": 5438,
    "奔跑快速": 5439,
    "跑快速止": 5440,
    "快速止損": 5441,
    "速止損進": 5442,
    "止損進場": 5443,
    "損進場條": 5444,
    "進場條件": 5445,
    "場條件做": 5446,
    "條件做多": 5447,
    "件做多範": 5448,
    "多範例短": 5449,
    "範例短期": 5450,
    "例短期均": 5451,
    "短期均線": 5452,
    "期均線如": 5453,
    "均線如在": 5454,
    "線如在長": 5455,
    "如在長期": 5456,
    "在長期均": 5457,
    "長期均線": 5458,
    "期均線之": 5459,
    "均線之上": 5460,
    "線之上趨": 5461,
    "之上趨勢": 5462,
    "上趨勢強": 5463,
    "趨勢強度": 5464,
    "勢強度足": 5465,
    "強度足夠": 5466,
    "度足夠多": 5467,
    "足夠多頭": 5468,
    "夠多頭排": 5469,
    "多頭排列": 5470,
    "頭排列在": 5471,
    "排列在回": 5472,
    "列在回撤": 5473,
    "在回撤時": 5474,
    "回撤時進": 5475,
    "撤時進場": 5476,
    "時進場而": 5477,
    "進場而非": 5478,
    "場而非追": 5479,
    "而非追高": 5480,
    "非追高出": 5481,
    "追高出場": 5482,
    "高出場邏": 5483,
    "出場邏輯": 5484,
    "場邏輯止": 5485,
    "邏輯止損": 5486,
    "輯止損設": 5487,
    "損設在近": 5488,
    "設在近期": 5489,
    "在近期支": 5490,
    "近期支撐": 5491,
    "期支撐位": 5492,
    "支撐位或": 5493,
    "撐位或的": 5494,
    "位或的倍": 5495,
    "或的倍以": 5496,
    "的倍以下": 5497,
    "倍以下分": 5498,
    "以下分批": 5499,
    "下分批止": 5500,
    "分批止盈": 5501,
    "批止盈讓": 5502,
    "止盈讓利": 5503,
    "盈讓利潤": 5504,
    "讓利潤跑": 5505,
    "利潤跑均": 5506,
    "潤跑均線": 5507,
    "跑均線交": 5508,
    "均線交叉": 5509,
    "線交叉走": 5510,
    "交叉走壞": 5511,
    "叉走壞時": 5512,
    "走壞時平": 5513,
    "壞時平倉": 5514,
    "時平倉最": 5515,
    "平倉最適": 5516,
    "倉最適合": 5517,
    "最適合的": 5518,
    "的市場強": 5519,
    "市場強趨": 5520,
    "場強趨勢": 5521,
    "勢行情避": 5522,
    "行情避開": 5523,
    "情避開震": 5524,
    "避開震盪": 5525,
    "開震盪盤": 5526,
    "盪盤整期": 5527,
    "略在": 5528,
    "在什": 5529,
    "況下": 5530,
    "下有": 5531,
    "有效": 5532,
    "策略在": 5533,
    "略在什": 5534,
    "在什麼": 5535,
    "情況下": 5536,
    "況下有": 5537,
    "下有效": 5538,
    "歸策略在": 5539,
    "策略在什": 5540,
    "略在什麼": 5541,
    "在什麼情": 5542,
    "麼情況下": 5543,
    "情況下有": 5544,
    "況下有效": 5545,
    "reversion": 5546,
    "score": 5547,
    "uptrend": 5548,
    "downtrend": 5549,
    "略適": 5550,
    "用條": 5551,
    "件適": 5552,
    "場環": 5553,
    "境盤": 5554,
    "整震": 5555,
    "盪市": 5556,
    "市無": 5557,
    "無明": 5558,
    "顯趨": 5559,
    "勢低": 5560,
    "低波": 5561,
    "動率": 5562,
    "率環": 5563,
    "境布": 5564,
    "道擠": 5565,
    "擠壓": 5566,
    "壓後": 5567,
    "後剛": 5568,
    "剛釋": 5569,
    "釋放": 5570,
    "放進": 5571,
    "場信": 5572,
    "號做": 5573,
    "例價": 5574,
    "格觸": 5575,
    "及布": 5576,
    "林帶": 5577,
    "帶下": 5578,
    "軌超": 5579,
    "賣偏": 5580,
    "偏離": 5581,
    "離均": 5582,
    "值個": 5583,
    "個標": 5584,
    "差出": 5585,
    "現看": 5586,
    "看漲": 5587,
    "漲反": 5588,
    "反轉": 5589,
    "轉棒": 5590,
    "棒錘": 5591,
    "錘頭": 5592,
    "頭吞": 5593,
    "吞噬": 5594,
    "噬避": 5595,
    "免使": 5596,
    "用的": 5597,
    "況強": 5598,
    "情重": 5599,
    "息發": 5600,
    "策略適": 5601,
    "略適用": 5602,
    "適用條": 5603,
    "用條件": 5604,
    "條件適": 5605,
    "件適合": 5606,
    "市場環": 5607,
    "場環境": 5608,
    "環境盤": 5609,
    "境盤整": 5610,
    "盤整震": 5611,
    "整震盪": 5612,
    "震盪市": 5613,
    "盪市無": 5614,
    "市無明": 5615,
    "無明顯": 5616,
    "明顯趨": 5617,
    "顯趨勢": 5618,
    "趨勢低": 5619,
    "勢低波": 5620,
    "低波動": 5621,
    "波動率": 5622,
    "動率環": 5623,
    "率環境": 5624,
    "環境布": 5625,
    "境布林": 5626,
    "通道擠": 5627,
    "道擠壓": 5628,
    "擠壓後": 5629,
    "壓後剛": 5630,
    "後剛釋": 5631,
    "剛釋放": 5632,
    "釋放進": 5633,
    "放進場": 5634,
    "進場信": 5635,
    "場信號": 5636,
    "信號做": 5637,
    "號做多": 5638,
    "範例價": 5639,
    "例價格": 5640,
    "價格觸": 5641,
    "格觸及": 5642,
    "觸及布": 5643,
    "及布林": 5644,
    "布林帶": 5645,
    "林帶下": 5646,
    "帶下軌": 5647,
    "下軌超": 5648,
    "軌超賣": 5649,
    "超賣偏": 5650,
    "賣偏離": 5651,
    "偏離均": 5652,
    "離均值": 5653,
    "均值個": 5654,
    "值個標": 5655,
    "個標準": 5656,
    "準差出": 5657,
    "差出現": 5658,
    "出現看": 5659,
    "現看漲": 5660,
    "看漲反": 5661,
    "漲反轉": 5662,
    "反轉棒": 5663,
    "轉棒錘": 5664,
    "棒錘頭": 5665,
    "錘頭吞": 5666,
    "頭吞噬": 5667,
    "吞噬避": 5668,
    "噬避免": 5669,
    "避免使": 5670,
    "免使用": 5671,
    "使用的": 5672,
    "用的情": 5673,
    "的情況": 5674,
    "情況強": 5675,
    "況強趨": 5676,
    "行情重": 5677,
    "情重大": 5678,
    "消息發": 5679,
    "息發布": 5680,
    "歸策略適": 5681,
    "策略適用": 5682,
    "略適用條": 5683,
    "適用條件": 5684,
    "用條件適": 5685,
    "條件適合": 5686,
    "件適合的": 5687,
    "的市場環": 5688,
    "市場環境": 5689,
    "場環境盤": 5690,
    "環境盤整": 5691,
    "境盤整震": 5692,
    "盤整震盪": 5693,
    "整震盪市": 5694,
    "震盪市無": 5695,
    "盪市無明": 5696,
    "市無明顯": 5697,
    "無明顯趨": 5698,
    "明顯趨勢": 5699,
    "顯趨勢低": 5700,
    "趨勢低波": 5701,
    "勢低波動": 5702,
    "低波動率": 5703,
    "波動率環": 5704,
    "動率環境": 5705,
    "率環境布": 5706,
    "環境布林": 5707,
    "境布林通": 5708,
    "林通道擠": 5709,
    "通道擠壓": 5710,
    "道擠壓後": 5711,
    "擠壓後剛": 5712,
    "壓後剛釋": 5713,
    "後剛釋放": 5714,
    "剛釋放進": 5715,
    "釋放進場": 5716,
    "放進場信": 5717,
    "進場信號": 5718,
    "場信號做": 5719,
    "信號做多": 5720,
    "號做多範": 5721,
    "多範例價": 5722,
    "範例價格": 5723,
    "例價格觸": 5724,
    "價格觸及": 5725,
    "格觸及布": 5726,
    "觸及布林": 5727,
    "及布林帶": 5728,
    "布林帶下": 5729,
    "林帶下軌": 5730,
    "帶下軌超": 5731,
    "下軌超賣": 5732,
    "軌超賣偏": 5733,
    "超賣偏離": 5734,
    "賣偏離均": 5735,
    "偏離均值": 5736,
    "離均值個": 5737,
    "均值個標": 5738,
    "值個標準": 5739,
    "個標準差": 5740,
    "標準差出": 5741,
    "準差出現": 5742,
    "差出現看": 5743,
    "出現看漲": 5744,
    "現看漲反": 5745,
    "看漲反轉": 5746,
    "漲反轉棒": 5747,
    "反轉棒錘": 5748,
    "轉棒錘頭": 5749,
    "棒錘頭吞": 5750,
    "錘頭吞噬": 5751,
    "頭吞噬避": 5752,
    "吞噬避免": 5753,
    "噬避免使": 5754,
    "避免使用": 5755,
    "免使用的": 5756,
    "使用的情": 5757,
    "用的情況": 5758,
    "的情況強": 5759,
    "情況強趨": 5760,
    "況強趨勢": 5761,
    "勢行情重": 5762,
    "行情重大": 5763,
    "情重大消": 5764,
    "大消息發": 5765,
    "消息發布": 5766,
    "息發布前": 5767,
    "an": 5768,
    "driven": 5769,
    "approach": 5770,
    "based": 5771,
    "detecting": 5772,
    "concept": 5773,
    "identifies": 5774,
    "events": 5775,
    "exceed": 5776,
    "defined": 5777,
    "threshold": 5778,
    "classifies": 5779,
    "phases": 5780,
    "upturn": 5781,
    "downturn": 5782,
    "overshoot": 5783,
    "retracements": 5784,
    "conditions": 5785,
    "wait": 5786,
    "during": 5787,
    "retracement": 5788,
    "phase": 5789,
    "confirm": 5790,
    "momentum": 5791,
    "indicators": 5792,
    "strengths": 5793,
    "both": 5794,
    "trending": 5795,
    "volatile": 5796,
    "captures": 5797,
    "tight": 5798,
    "stops": 5799,
    "strategies": 5800,
    "破策": 5801,
    "略怎": 5802,
    "麼判": 5803,
    "判斷": 5804,
    "斷假": 5805,
    "突破策": 5806,
    "破策略": 5807,
    "策略怎": 5808,
    "略怎麼": 5809,
    "怎麼判": 5810,
    "麼判斷": 5811,
    "判斷假": 5812,
    "斷假突": 5813,
    "突破策略": 5814,
    "破策略怎": 5815,
    "策略怎麼": 5816,
    "略怎麼判": 5817,
    "怎麼判斷": 5818,
    "麼判斷假": 5819,
    "判斷假突": 5820,
    "斷假突破": 5821,
    "fakeout": 5822,
    "破的": 5823,
    "的識": 5824,
    "識別": 5825,
    "別方": 5826,
    "方法": 5827,
    "法真": 5828,
    "真突": 5829,
    "徵收": 5830,
    "價明": 5831,
    "顯突": 5832,
    "破關": 5833,
    "鍵位": 5834,
    "不只": 5835,
    "只是": 5836,
    "影線": 5837,
    "線穿": 5838,
    "穿過": 5839,
    "過伴": 5840,
    "伴隨": 5841,
    "隨成": 5842,
    "量放": 5843,
    "大通": 5844,
    "常是": 5845,
    "是均": 5846,
    "均量": 5847,
    "量的": 5848,
    "上突": 5849,
    "後有": 5850,
    "測該": 5851,
    "該位": 5852,
    "位置": 5853,
    "置支": 5854,
    "撐再": 5855,
    "再確": 5856,
    "認假": 5857,
    "徵突": 5858,
    "後迅": 5859,
    "迅速": 5860,
    "速拉": 5861,
    "拉回": 5862,
    "到區": 5863,
    "區間": 5864,
    "內成": 5865,
    "量沒": 5866,
    "有明": 5867,
    "顯放": 5868,
    "大突": 5869,
    "破發": 5870,
    "發生": 5871,
    "生在": 5872,
    "在流": 5873,
    "性差": 5874,
    "差的": 5875,
    "的時": 5876,
    "段棒": 5877,
    "棒收": 5878,
    "盤回": 5879,
    "到突": 5880,
    "下應": 5881,
    "應對": 5882,
    "對方": 5883,
    "式等": 5884,
    "待突": 5885,
    "後的": 5886,
    "的回": 5887,
    "測確": 5888,
    "認再": 5889,
    "再進": 5890,
    "場止": 5891,
    "在突": 5892,
    "下不": 5893,
    "不要": 5894,
    "要追": 5895,
    "高過": 5896,
    "過濾": 5897,
    "濾掉": 5898,
    "掉成": 5899,
    "量不": 5900,
    "的突": 5901,
    "破信": 5902,
    "突破的": 5903,
    "破的識": 5904,
    "的識別": 5905,
    "識別方": 5906,
    "別方法": 5907,
    "方法真": 5908,
    "法真突": 5909,
    "真突破": 5910,
    "特徵收": 5911,
    "徵收盤": 5912,
    "盤價明": 5913,
    "價明顯": 5914,
    "明顯突": 5915,
    "顯突破": 5916,
    "突破關": 5917,
    "破關鍵": 5918,
    "關鍵位": 5919,
    "鍵位不": 5920,
    "位不只": 5921,
    "不只是": 5922,
    "只是影": 5923,
    "是影線": 5924,
    "影線穿": 5925,
    "線穿過": 5926,
    "穿過伴": 5927,
    "過伴隨": 5928,
    "伴隨成": 5929,
    "隨成交": 5930,
    "交量放": 5931,
    "量放大": 5932,
    "放大通": 5933,
    "大通常": 5934,
    "通常是": 5935,
    "常是均": 5936,
    "是均量": 5937,
    "均量的": 5938,
    "量的倍": 5939,
    "倍以上": 5940,
    "以上突": 5941,
    "上突破": 5942,
    "破後有": 5943,
    "後有回": 5944,
    "有回測": 5945,
    "回測該": 5946,
    "測該位": 5947,
    "該位置": 5948,
    "位置支": 5949,
    "置支撐": 5950,
    "支撐再": 5951,
    "撐再確": 5952,
    "再確認": 5953,
    "確認假": 5954,
    "認假突": 5955,
    "特徵突": 5956,
    "徵突破": 5957,
    "破後迅": 5958,
    "後迅速": 5959,
    "迅速拉": 5960,
    "速拉回": 5961,
    "拉回到": 5962,
    "回到區": 5963,
    "到區間": 5964,
    "區間內": 5965,
    "間內成": 5966,
    "內成交": 5967,
    "交量沒": 5968,
    "量沒有": 5969,
    "沒有明": 5970,
    "有明顯": 5971,
    "明顯放": 5972,
    "顯放大": 5973,
    "放大突": 5974,
    "大突破": 5975,
    "突破發": 5976,
    "破發生": 5977,
    "發生在": 5978,
    "生在流": 5979,
    "在流動": 5980,
    "動性差": 5981,
    "性差的": 5982,
    "差的時": 5983,
    "的時段": 5984,
    "時段棒": 5985,
    "段棒收": 5986,
    "棒收盤": 5987,
    "收盤回": 5988,
    "盤回到": 5989,
    "回到突": 5990,
    "到突破": 5991,
    "以下應": 5992,
    "下應對": 5993,
    "應對方": 5994,
    "對方式": 5995,
    "方式等": 5996,
    "式等待": 5997,
    "等待突": 5998,
    "待突破": 5999,
    "破後的": 6000,
    "後的回": 6001,
    "的回測": 6002,
    "回測確": 6003,
    "測確認": 6004,
    "確認再": 6005,
    "認再進": 6006,
    "再進場": 6007,
    "進場止": 6008,
    "場止損": 6009,
    "設在突": 6010,
    "在突破": 6011,
    "以下不": 6012,
    "下不要": 6013,
    "不要追": 6014,
    "要追高": 6015,
    "追高過": 6016,
    "高過濾": 6017,
    "過濾掉": 6018,
    "濾掉成": 6019,
    "掉成交": 6020,
    "交量不": 6021,
    "量不足": 6022,
    "足的突": 6023,
    "的突破": 6024,
    "突破信": 6025,
    "破信號": 6026,
    "假突破的": 6027,
    "突破的識": 6028,
    "破的識別": 6029,
    "的識別方": 6030,
    "識別方法": 6031,
    "別方法真": 6032,
    "方法真突": 6033,
    "法真突破": 6034,
    "真突破特": 6035,
    "破特徵收": 6036,
    "特徵收盤": 6037,
    "徵收盤價": 6038,
    "收盤價明": 6039,
    "盤價明顯": 6040,
    "價明顯突": 6041,
    "明顯突破": 6042,
    "顯突破關": 6043,
    "突破關鍵": 6044,
    "破關鍵位": 6045,
    "關鍵位不": 6046,
    "鍵位不只": 6047,
    "位不只是": 6048,
    "不只是影": 6049,
    "只是影線": 6050,
    "是影線穿": 6051,
    "影線穿過": 6052,
    "線穿過伴": 6053,
    "穿過伴隨": 6054,
    "過伴隨成": 6055,
    "伴隨成交": 6056,
    "隨成交量": 6057,
    "成交量放": 6058,
    "交量放大": 6059,
    "量放大通": 6060,
    "放大通常": 6061,
    "大通常是": 6062,
    "通常是均": 6063,
    "常是均量": 6064,
    "是均量的": 6065,
    "均量的倍": 6066,
    "量的倍以": 6067,
    "的倍以上": 6068,
    "倍以上突": 6069,
    "以上突破": 6070,
    "上突破後": 6071,
    "突破後有": 6072,
    "破後有回": 6073,
    "後有回測": 6074,
    "有回測該": 6075,
    "回測該位": 6076,
    "測該位置": 6077,
    "該位置支": 6078,
    "位置支撐": 6079,
    "置支撐再": 6080,
    "支撐再確": 6081,
    "撐再確認": 6082,
    "再確認假": 6083,
    "確認假突": 6084,
    "認假突破": 6085,
    "假突破特": 6086,
    "破特徵突": 6087,
    "特徵突破": 6088,
    "徵突破後": 6089,
    "突破後迅": 6090,
    "破後迅速": 6091,
    "後迅速拉": 6092,
    "迅速拉回": 6093,
    "速拉回到": 6094,
    "拉回到區": 6095,
    "回到區間": 6096,
    "到區間內": 6097,
    "區間內成": 6098,
    "間內成交": 6099,
    "內成交量": 6100,
    "成交量沒": 6101,
    "交量沒有": 6102,
    "量沒有明": 6103,
    "沒有明顯": 6104,
    "有明顯放": 6105,
    "明顯放大": 6106,
    "顯放大突": 6107,
    "放大突破": 6108,
    "大突破發": 6109,
    "突破發生": 6110,
    "破發生在": 6111,
    "發生在流": 6112,
    "生在流動": 6113,
    "在流動性": 6114,
    "流動性差": 6115,
    "動性差的": 6116,
    "性差的時": 6117,
    "差的時段": 6118,
    "的時段棒": 6119,
    "時段棒收": 6120,
    "段棒收盤": 6121,
    "棒收盤回": 6122,
    "收盤回到": 6123,
    "盤回到突": 6124,
    "回到突破": 6125,
    "到突破位": 6126,
    "位以下應": 6127,
    "以下應對": 6128,
    "下應對方": 6129,
    "應對方式": 6130,
    "對方式等": 6131,
    "方式等待": 6132,
    "式等待突": 6133,
    "等待突破": 6134,
    "待突破後": 6135,
    "突破後的": 6136,
    "破後的回": 6137,
    "後的回測": 6138,
    "的回測確": 6139,
    "回測確認": 6140,
    "測確認再": 6141,
    "確認再進": 6142,
    "認再進場": 6143,
    "再進場止": 6144,
    "進場止損": 6145,
    "場止損設": 6146,
    "損設在突": 6147,
    "設在突破": 6148,
    "在突破位": 6149,
    "位以下不": 6150,
    "以下不要": 6151,
    "下不要追": 6152,
    "不要追高": 6153,
    "要追高過": 6154,
    "追高過濾": 6155,
    "高過濾掉": 6156,
    "過濾掉成": 6157,
    "濾掉成交": 6158,
    "掉成交量": 6159,
    "成交量不": 6160,
    "交量不足": 6161,
    "量不足的": 6162,
    "不足的突": 6163,
    "足的突破": 6164,
    "的突破信": 6165,
    "突破信號": 6166,
    "麼有": 6167,
    "麼功": 6168,
    "什麼有": 6169,
    "麼有什": 6170,
    "什麼功": 6171,
    "麼功能": 6172,
    "是什麼有": 6173,
    "什麼有什": 6174,
    "麼有什麼": 6175,
    "有什麼功": 6176,
    "什麼功能": 6177,
    "一套": 6178,
    "套驅": 6179,
    "驅動": 6180,
    "動的": 6181,
    "約自": 6182,
    "易系": 6183,
    "統主": 6184,
    "要功": 6185,
    "能包": 6186,
    "包括": 6187,
    "括策": 6188,
    "層種": 6189,
    "種基": 6190,
    "基礎": 6191,
    "礎策": 6192,
    "略趨": 6193,
    "隨擺": 6194,
    "擺動": 6195,
    "易均": 6196,
    "歸突": 6197,
    "破方": 6198,
    "向轉": 6199,
    "轉換": 6200,
    "換多": 6201,
    "多策": 6202,
    "略融": 6203,
    "合種": 6204,
    "種融": 6205,
    "合方": 6206,
    "式依": 6207,
    "場時": 6208,
    "段自": 6209,
    "換策": 6210,
    "層參": 6211,
    "數推": 6212,
    "論模": 6213,
    "型分": 6214,
    "析知": 6215,
    "知識": 6216,
    "識庫": 6217,
    "庫三": 6218,
    "合策": 6219,
    "聞工": 6220,
    "工具": 6221,
    "具層": 6222,
    "層歷": 6223,
    "史回": 6224,
    "測引": 6225,
    "擎含": 6226,
    "含統": 6227,
    "統計": 6228,
    "計遺": 6229,
    "遺傳": 6230,
    "傳演": 6231,
    "演算": 6232,
    "算法": 6233,
    "法策": 6234,
    "略優": 6235,
    "優化": 6236,
    "化交": 6237,
    "前風": 6238,
    "險檢": 6239,
    "統介": 6240,
    "是一套": 6241,
    "一套驅": 6242,
    "套驅動": 6243,
    "驅動的": 6244,
    "動的幣": 6245,
    "合約自": 6246,
    "約自動": 6247,
    "交易系": 6248,
    "易系統": 6249,
    "系統主": 6250,
    "統主要": 6251,
    "主要功": 6252,
    "要功能": 6253,
    "功能包": 6254,
    "能包括": 6255,
    "包括策": 6256,
    "括策略": 6257,
    "略層種": 6258,
    "層種基": 6259,
    "種基礎": 6260,
    "基礎策": 6261,
    "礎策略": 6262,
    "策略趨": 6263,
    "略趨勢": 6264,
    "跟隨擺": 6265,
    "隨擺動": 6266,
    "擺動交": 6267,
    "交易均": 6268,
    "易均值": 6269,
    "回歸突": 6270,
    "歸突破": 6271,
    "突破方": 6272,
    "破方向": 6273,
    "方向轉": 6274,
    "向轉換": 6275,
    "轉換多": 6276,
    "換多策": 6277,
    "多策略": 6278,
    "策略融": 6279,
    "略融合": 6280,
    "融合種": 6281,
    "合種融": 6282,
    "種融合": 6283,
    "融合方": 6284,
    "合方式": 6285,
    "方式依": 6286,
    "式依市": 6287,
    "市場時": 6288,
    "場時段": 6289,
    "時段自": 6290,
    "段自動": 6291,
    "切換策": 6292,
    "換策略": 6293,
    "略層參": 6294,
    "層參數": 6295,
    "參數推": 6296,
    "數推論": 6297,
    "推論模": 6298,
    "論模型": 6299,
    "模型分": 6300,
    "型分析": 6301,
    "分析知": 6302,
    "析知識": 6303,
    "知識庫": 6304,
    "識庫三": 6305,
    "庫三模": 6306,
    "動態融": 6307,
    "融合策": 6308,
    "合策略": 6309,
    "新聞工": 6310,
    "聞工具": 6311,
    "工具層": 6312,
    "具層歷": 6313,
    "層歷史": 6314,
    "歷史回": 6315,
    "史回測": 6316,
    "回測引": 6317,
    "測引擎": 6318,
    "引擎含": 6319,
    "擎含統": 6320,
    "含統計": 6321,
    "統計遺": 6322,
    "計遺傳": 6323,
    "遺傳演": 6324,
    "傳演算": 6325,
    "演算法": 6326,
    "算法策": 6327,
    "法策略": 6328,
    "策略優": 6329,
    "略優化": 6330,
    "優化交": 6331,
    "化交易": 6332,
    "易前風": 6333,
    "前風險": 6334,
    "風險檢": 6335,
    "險檢查": 6336,
    "系統介": 6337,
    "統介面": 6338,
    "是一套驅": 6339,
    "一套驅動": 6340,
    "套驅動的": 6341,
    "驅動的幣": 6342,
    "動的幣安": 6343,
    "的幣安永": 6344,
    "續合約自": 6345,
    "合約自動": 6346,
    "約自動交": 6347,
    "動交易系": 6348,
    "交易系統": 6349,
    "易系統主": 6350,
    "系統主要": 6351,
    "統主要功": 6352,
    "主要功能": 6353,
    "要功能包": 6354,
    "功能包括": 6355,
    "能包括策": 6356,
    "包括策略": 6357,
    "括策略層": 6358,
    "策略層種": 6359,
    "略層種基": 6360,
    "層種基礎": 6361,
    "種基礎策": 6362,
    "基礎策略": 6363,
    "礎策略趨": 6364,
    "策略趨勢": 6365,
    "略趨勢跟": 6366,
    "勢跟隨擺": 6367,
    "跟隨擺動": 6368,
    "隨擺動交": 6369,
    "擺動交易": 6370,
    "動交易均": 6371,
    "交易均值": 6372,
    "易均值回": 6373,
    "值回歸突": 6374,
    "回歸突破": 6375,
    "歸突破方": 6376,
    "突破方向": 6377,
    "破方向轉": 6378,
    "方向轉換": 6379,
    "向轉換多": 6380,
    "轉換多策": 6381,
    "換多策略": 6382,
    "多策略融": 6383,
    "策略融合": 6384,
    "略融合種": 6385,
    "融合種融": 6386,
    "合種融合": 6387,
    "種融合方": 6388,
    "融合方式": 6389,
    "合方式依": 6390,
    "方式依市": 6391,
    "式依市場": 6392,
    "依市場時": 6393,
    "市場時段": 6394,
    "場時段自": 6395,
    "時段自動": 6396,
    "段自動切": 6397,
    "動切換策": 6398,
    "切換策略": 6399,
    "換策略層": 6400,
    "策略層參": 6401,
    "略層參數": 6402,
    "層參數推": 6403,
    "參數推論": 6404,
    "數推論模": 6405,
    "推論模型": 6406,
    "論模型分": 6407,
    "模型分析": 6408,
    "型分析維": 6409,
    "緒分析知": 6410,
    "分析知識": 6411,
    "析知識庫": 6412,
    "知識庫三": 6413,
    "識庫三模": 6414,
    "庫三模態": 6415,
    "態動態融": 6416,
    "動態融合": 6417,
    "態融合策": 6418,
    "融合策略": 6419,
    "合策略推": 6420,
    "論新聞工": 6421,
    "新聞工具": 6422,
    "聞工具層": 6423,
    "工具層歷": 6424,
    "具層歷史": 6425,
    "層歷史回": 6426,
    "歷史回測": 6427,
    "史回測引": 6428,
    "回測引擎": 6429,
    "測引擎含": 6430,
    "引擎含統": 6431,
    "擎含統計": 6432,
    "含統計遺": 6433,
    "統計遺傳": 6434,
    "計遺傳演": 6435,
    "遺傳演算": 6436,
    "傳演算法": 6437,
    "演算法策": 6438,
    "算法策略": 6439,
    "法策略優": 6440,
    "策略優化": 6441,
    "略優化交": 6442,
    "優化交易": 6443,
    "化交易前": 6444,
    "交易前風": 6445,
    "易前風險": 6446,
    "前風險檢": 6447,
    "風險檢查": 6448,
    "險檢查系": 6449,
    "查系統介": 6450,
    "系統介面": 6451,
    "backtesting": 6452,
    "end": 6453,
    "warmup": 6454,
    "bars": 6455,
    "via": 6456,
    "post": 6457,
    "initial": 6458,
    "intervals": 6459,
    "results": 6460,
    "include": 6461,
    "total": 6462,
    "return": 6463,
    "drawdown": 6464,
    "ratios": 6465,
    "history": 6466,
    "orders": 6467,
    "jsonl": 6468,
    "equity": 6469,
    "curve": 6470,
    "summary": 6471,
    "statistics": 6472,
    "如何": 6473,
    "何查": 6474,
    "查看": 6475,
    "看目": 6476,
    "前的": 6477,
    "的系": 6478,
    "如何查": 6479,
    "何查看": 6480,
    "查看目": 6481,
    "看目前": 6482,
    "目前的": 6483,
    "前的系": 6484,
    "的系統": 6485,
    "如何查看": 6486,
    "何查看目": 6487,
    "查看目前": 6488,
    "看目前的": 6489,
    "目前的系": 6490,
    "前的系統": 6491,
    "的系統狀": 6492,
    "get": 6493,
    "selector": 6494,
    "inference": 6495,
    "engine": 6496,
    "pytorch": 6497,
    "news": 6498,
    "analyzer": 6499,
    "checker": 6500,
    "database": 6501,
    "用以": 6502,
    "下方": 6503,
    "式檢": 6504,
    "態回": 6505,
    "回傳": 6506,
    "傳各": 6507,
    "各模": 6508,
    "組可": 6509,
    "可用": 6510,
    "用性": 6511,
    "性策": 6512,
    "析資": 6513,
    "庫等": 6514,
    "等主": 6515,
    "要模": 6516,
    "組狀": 6517,
    "態指": 6518,
    "標策": 6519,
    "略選": 6520,
    "選擇": 6521,
    "擇器": 6522,
    "器推": 6523,
    "論引": 6524,
    "擎需": 6525,
    "要已": 6526,
    "已訓": 6527,
    "訓練": 6528,
    "練模": 6529,
    "型新": 6530,
    "析交": 6531,
    "前檢": 6532,
    "查交": 6533,
    "易記": 6534,
    "記錄": 6535,
    "錄資": 6536,
    "以用以": 6537,
    "用以下": 6538,
    "以下方": 6539,
    "下方式": 6540,
    "方式檢": 6541,
    "式檢查": 6542,
    "狀態回": 6543,
    "態回傳": 6544,
    "回傳各": 6545,
    "傳各模": 6546,
    "各模組": 6547,
    "模組可": 6548,
    "組可用": 6549,
    "可用性": 6550,
    "用性策": 6551,
    "性策略": 6552,
    "分析資": 6553,
    "析資料": 6554,
    "料庫等": 6555,
    "庫等主": 6556,
    "等主要": 6557,
    "主要模": 6558,
    "要模組": 6559,
    "模組狀": 6560,
    "組狀態": 6561,
    "狀態指": 6562,
    "態指標": 6563,
    "指標策": 6564,
    "標策略": 6565,
    "策略選": 6566,
    "略選擇": 6567,
    "選擇器": 6568,
    "擇器推": 6569,
    "器推論": 6570,
    "推論引": 6571,
    "論引擎": 6572,
    "引擎需": 6573,
    "擎需要": 6574,
    "需要已": 6575,
    "要已訓": 6576,
    "已訓練": 6577,
    "訓練模": 6578,
    "練模型": 6579,
    "模型新": 6580,
    "型新聞": 6581,
    "分析交": 6582,
    "析交易": 6583,
    "易前檢": 6584,
    "前檢查": 6585,
    "檢查交": 6586,
    "查交易": 6587,
    "交易記": 6588,
    "易記錄": 6589,
    "記錄資": 6590,
    "錄資料": 6591,
    "可以用以": 6592,
    "以用以下": 6593,
    "用以下方": 6594,
    "以下方式": 6595,
    "下方式檢": 6596,
    "方式檢查": 6597,
    "式檢查系": 6598,
    "查系統狀": 6599,
    "統狀態回": 6600,
    "狀態回傳": 6601,
    "態回傳各": 6602,
    "回傳各模": 6603,
    "傳各模組": 6604,
    "各模組可": 6605,
    "模組可用": 6606,
    "組可用性": 6607,
    "可用性策": 6608,
    "用性策略": 6609,
    "性策略推": 6610,
    "論新聞分": 6611,
    "聞分析資": 6612,
    "分析資料": 6613,
    "析資料庫": 6614,
    "資料庫等": 6615,
    "料庫等主": 6616,
    "庫等主要": 6617,
    "等主要模": 6618,
    "主要模組": 6619,
    "要模組狀": 6620,
    "模組狀態": 6621,
    "組狀態指": 6622,
    "狀態指標": 6623,
    "態指標策": 6624,
    "指標策略": 6625,
    "標策略選": 6626,
    "策略選擇": 6627,
    "略選擇器": 6628,
    "選擇器推": 6629,
    "擇器推論": 6630,
    "器推論引": 6631,
    "推論引擎": 6632,
    "論引擎需": 6633,
    "引擎需要": 6634,
    "擎需要已": 6635,
    "需要已訓": 6636,
    "要已訓練": 6637,
    "已訓練模": 6638,
    "訓練模型": 6639,
    "練模型新": 6640,
    "模型新聞": 6641,
    "型新聞情": 6642,
    "緒分析交": 6643,
    "分析交易": 6644,
    "析交易前": 6645,
    "交易前檢": 6646,
    "易前檢查": 6647,
    "前檢查交": 6648,
    "檢查交易": 6649,
    "查交易記": 6650,
    "交易記錄": 6651,
    "易記錄資": 6652,
    "記錄資料": 6653,
    "錄資料庫": 6654,
    "合是": 6655,
    "是怎": 6656,
    "麼運": 6657,
    "運作": 6658,
    "作的": 6659,
    "模態融": 6660,
    "融合是": 6661,
    "合是怎": 6662,
    "是怎麼": 6663,
    "怎麼運": 6664,
    "麼運作": 6665,
    "運作的": 6666,
    "三模態融": 6667,
    "模態融合": 6668,
    "態融合是": 6669,
    "融合是怎": 6670,
    "合是怎麼": 6671,
    "是怎麼運": 6672,
    "怎麼運作": 6673,
    "麼運作的": 6674,
    "regime": 6675,
    "用三": 6676,
    "態加": 6677,
    "權融": 6678,
    "合來": 6679,
    "來決": 6680,
    "決定": 6681,
    "定最": 6682,
    "最終": 6683,
    "終交": 6684,
    "易信": 6685,
    "號三": 6686,
    "三個": 6687,
    "個模": 6688,
    "態策": 6689,
    "略信": 6690,
    "號種": 6691,
    "種技": 6692,
    "技術": 6693,
    "術分": 6694,
    "析策": 6695,
    "的融": 6696,
    "合結": 6697,
    "果推": 6698,
    "論神": 6699,
    "神經": 6700,
    "經網": 6701,
    "網路": 6702,
    "路分": 6703,
    "緒新": 6704,
    "析的": 6705,
    "分數": 6706,
    "數動": 6707,
    "態調": 6708,
    "整依": 6709,
    "場自": 6710,
    "換權": 6711,
    "權重": 6712,
    "重強": 6713,
    "勢策": 6714,
    "聞震": 6715,
    "整策": 6716,
    "聞高": 6717,
    "動策": 6718,
    "聞新": 6719,
    "聞事": 6720,
    "事件": 6721,
    "件策": 6722,
    "聞一": 6723,
    "一致": 6724,
    "致信": 6725,
    "號策": 6726,
    "略和": 6727,
    "和方": 6728,
    "向相": 6729,
    "相同": 6730,
    "同會": 6731,
    "會額": 6732,
    "額外": 6733,
    "外加": 6734,
    "加成": 6735,
    "成信": 6736,
    "信心": 6737,
    "心值": 6738,
    "值上": 6739,
    "使用三": 6740,
    "用三模": 6741,
    "動態加": 6742,
    "態加權": 6743,
    "加權融": 6744,
    "權融合": 6745,
    "融合來": 6746,
    "合來決": 6747,
    "來決定": 6748,
    "決定最": 6749,
    "定最終": 6750,
    "最終交": 6751,
    "終交易": 6752,
    "交易信": 6753,
    "易信號": 6754,
    "信號三": 6755,
    "號三個": 6756,
    "三個模": 6757,
    "個模態": 6758,
    "模態策": 6759,
    "態策略": 6760,
    "策略信": 6761,
    "略信號": 6762,
    "信號種": 6763,
    "號種技": 6764,
    "種技術": 6765,
    "技術分": 6766,
    "術分析": 6767,
    "分析策": 6768,
    "析策略": 6769,
    "略的融": 6770,
    "的融合": 6771,
    "融合結": 6772,
    "合結果": 6773,
    "結果推": 6774,
    "果推論": 6775,
    "推論神": 6776,
    "論神經": 6777,
    "神經網": 6778,
    "經網路": 6779,
    "網路分": 6780,
    "路分析": 6781,
    "情緒新": 6782,
    "緒新聞": 6783,
    "分析的": 6784,
    "析的情": 6785,
    "的情緒": 6786,
    "緒分數": 6787,
    "分數動": 6788,
    "數動態": 6789,
    "動態調": 6790,
    "態調整": 6791,
    "調整依": 6792,
    "整依市": 6793,
    "市場自": 6794,
    "場自動": 6795,
    "切換權": 6796,
    "換權重": 6797,
    "權重強": 6798,
    "重強趨": 6799,
    "趨勢策": 6800,
    "勢策略": 6801,
    "新聞震": 6802,
    "聞震盪": 6803,
    "盤整策": 6804,
    "整策略": 6805,
    "新聞高": 6806,
    "聞高波": 6807,
    "波動策": 6808,
    "動策略": 6809,
    "新聞新": 6810,
    "聞新聞": 6811,
    "新聞事": 6812,
    "聞事件": 6813,
    "事件策": 6814,
    "件策略": 6815,
    "新聞一": 6816,
    "聞一致": 6817,
    "一致信": 6818,
    "致信號": 6819,
    "信號策": 6820,
    "號策略": 6821,
    "策略和": 6822,
    "略和方": 6823,
    "和方向": 6824,
    "方向相": 6825,
    "向相同": 6826,
    "相同會": 6827,
    "同會額": 6828,
    "會額外": 6829,
    "額外加": 6830,
    "外加成": 6831,
    "加成信": 6832,
    "成信心": 6833,
    "信心值": 6834,
    "心值上": 6835,
    "值上限": 6836,
    "使用三模": 6837,
    "用三模態": 6838,
    "態動態加": 6839,
    "動態加權": 6840,
    "態加權融": 6841,
    "加權融合": 6842,
    "權融合來": 6843,
    "融合來決": 6844,
    "合來決定": 6845,
    "來決定最": 6846,
    "決定最終": 6847,
    "定最終交": 6848,
    "最終交易": 6849,
    "終交易信": 6850,
    "交易信號": 6851,
    "易信號三": 6852,
    "信號三個": 6853,
    "號三個模": 6854,
    "三個模態": 6855,
    "個模態策": 6856,
    "模態策略": 6857,
    "態策略信": 6858,
    "策略信號": 6859,
    "略信號種": 6860,
    "信號種技": 6861,
    "號種技術": 6862,
    "種技術分": 6863,
    "技術分析": 6864,
    "術分析策": 6865,
    "分析策略": 6866,
    "析策略的": 6867,
    "策略的融": 6868,
    "略的融合": 6869,
    "的融合結": 6870,
    "融合結果": 6871,
    "合結果推": 6872,
    "結果推論": 6873,
    "果推論神": 6874,
    "推論神經": 6875,
    "論神經網": 6876,
    "神經網路": 6877,
    "經網路分": 6878,
    "網路分析": 6879,
    "路分析維": 6880,
    "聞情緒新": 6881,
    "情緒新聞": 6882,
    "緒新聞分": 6883,
    "聞分析的": 6884,
    "分析的情": 6885,
    "析的情緒": 6886,
    "的情緒分": 6887,
    "情緒分數": 6888,
    "緒分數動": 6889,
    "分數動態": 6890,
    "數動態調": 6891,
    "動態調整": 6892,
    "態調整依": 6893,
    "調整依市": 6894,
    "整依市場": 6895,
    "依市場自": 6896,
    "市場自動": 6897,
    "場自動切": 6898,
    "動切換權": 6899,
    "切換權重": 6900,
    "換權重強": 6901,
    "權重強趨": 6902,
    "重強趨勢": 6903,
    "強趨勢策": 6904,
    "趨勢策略": 6905,
    "勢策略新": 6906,
    "略新聞震": 6907,
    "新聞震盪": 6908,
    "聞震盪盤": 6909,
    "盪盤整策": 6910,
    "盤整策略": 6911,
    "整策略新": 6912,
    "略新聞高": 6913,
    "新聞高波": 6914,
    "聞高波動": 6915,
    "高波動策": 6916,
    "波動策略": 6917,
    "動策略新": 6918,
    "略新聞新": 6919,
    "新聞新聞": 6920,
    "聞新聞事": 6921,
    "新聞事件": 6922,
    "聞事件策": 6923,
    "事件策略": 6924,
    "件策略新": 6925,
    "略新聞一": 6926,
    "新聞一致": 6927,
    "聞一致信": 6928,
    "一致信號": 6929,
    "致信號策": 6930,
    "信號策略": 6931,
    "號策略和": 6932,
    "策略和方": 6933,
    "略和方向": 6934,
    "和方向相": 6935,
    "方向相同": 6936,
    "向相同會": 6937,
    "相同會額": 6938,
    "同會額外": 6939,
    "會額外加": 6940,
    "額外加成": 6941,
    "外加成信": 6942,
    "加成信心": 6943,
    "成信心值": 6944,
    "信心值上": 6945,
    "心值上限": 6946,
    "麼看": 6947,
    "看超": 6948,
    "賣怎": 6949,
    "怎麼看": 6950,
    "麼看超": 6951,
    "看超買": 6952,
    "超賣怎": 6953,
    "賣怎麼": 6954,
    "怎麼看超": 6955,
    "麼看超買": 6956,
    "看超買超": 6957,
    "買超賣怎": 6958,
    "超賣怎麼": 6959,
    "賣怎麼用": 6960,
    "強弱": 6961,
    "弱指": 6962,
    "數衡": 6963,
    "量一": 6964,
    "一段": 6965,
    "段時": 6966,
    "內漲": 6967,
    "漲跌": 6968,
    "跌的": 6969,
    "的相": 6970,
    "度範": 6971,
    "圍超": 6972,
    "買區": 6973,
    "能面": 6974,
    "面臨": 6975,
    "臨回": 6976,
    "調超": 6977,
    "賣區": 6978,
    "能出": 6979,
    "現反": 6980,
    "彈中": 6981,
    "中性": 6982,
    "性多": 6983,
    "多空": 6984,
    "空平": 6985,
    "平衡": 6986,
    "衡進": 6987,
    "進階": 6988,
    "階用": 6989,
    "用法": 6990,
    "法背": 6991,
    "離價": 6992,
    "格創": 6993,
    "高但": 6994,
    "但未": 6995,
    "未創": 6996,
    "高看": 6997,
    "看跌": 6998,
    "跌背": 6999,
    "離注": 7000,
    "意轉": 7001,
    "轉折": 7002,
    "折強": 7003,
    "強勢": 7004,
    "賣線": 7005,
    "用弱": 7006,
    "弱勢": 7007,
    "買線": 7008,
    "用在": 7009,
    "在強": 7010,
    "勢中": 7011,
    "中可": 7012,
    "以長": 7013,
    "期維": 7014,
    "持超": 7015,
    "賣狀": 7016,
    "態不": 7017,
    "不能": 7018,
    "能單": 7019,
    "單獨": 7020,
    "獨作": 7021,
    "為進": 7022,
    "場依": 7023,
    "依據": 7024,
    "對強弱": 7025,
    "強弱指": 7026,
    "弱指數": 7027,
    "指數衡": 7028,
    "數衡量": 7029,
    "衡量一": 7030,
    "量一段": 7031,
    "一段時": 7032,
    "段時間": 7033,
    "時間內": 7034,
    "間內漲": 7035,
    "內漲跌": 7036,
    "漲跌的": 7037,
    "跌的相": 7038,
    "的相對": 7039,
    "對強度": 7040,
    "強度範": 7041,
    "度範圍": 7042,
    "範圍超": 7043,
    "圍超買": 7044,
    "超買區": 7045,
    "買區域": 7046,
    "可能面": 7047,
    "能面臨": 7048,
    "面臨回": 7049,
    "臨回調": 7050,
    "回調超": 7051,
    "調超賣": 7052,
    "超賣區": 7053,
    "賣區域": 7054,
    "可能出": 7055,
    "能出現": 7056,
    "出現反": 7057,
    "現反彈": 7058,
    "反彈中": 7059,
    "彈中性": 7060,
    "中性多": 7061,
    "性多空": 7062,
    "多空平": 7063,
    "空平衡": 7064,
    "平衡進": 7065,
    "衡進階": 7066,
    "進階用": 7067,
    "階用法": 7068,
    "用法背": 7069,
    "法背離": 7070,
    "背離價": 7071,
    "離價格": 7072,
    "價格創": 7073,
    "格創新": 7074,
    "新高但": 7075,
    "高但未": 7076,
    "但未創": 7077,
    "未創新": 7078,
    "新高看": 7079,
    "高看跌": 7080,
    "看跌背": 7081,
    "跌背離": 7082,
    "背離注": 7083,
    "離注意": 7084,
    "注意轉": 7085,
    "意轉折": 7086,
    "轉折強": 7087,
    "折強勢": 7088,
    "強勢市": 7089,
    "盪超賣": 7090,
    "超賣線": 7091,
    "賣線應": 7092,
    "改用弱": 7093,
    "用弱勢": 7094,
    "弱勢市": 7095,
    "盪超買": 7096,
    "超買線": 7097,
    "買線應": 7098,
    "改用在": 7099,
    "用在強": 7100,
    "在強趨": 7101,
    "趨勢中": 7102,
    "勢中可": 7103,
    "中可以": 7104,
    "可以長": 7105,
    "以長期": 7106,
    "長期維": 7107,
    "期維持": 7108,
    "維持超": 7109,
    "持超買": 7110,
    "超賣狀": 7111,
    "賣狀態": 7112,
    "狀態不": 7113,
    "態不能": 7114,
    "不能單": 7115,
    "能單獨": 7116,
    "單獨作": 7117,
    "獨作為": 7118,
    "作為進": 7119,
    "為進出": 7120,
    "出場依": 7121,
    "場依據": 7122,
    "相對強弱": 7123,
    "對強弱指": 7124,
    "強弱指數": 7125,
    "弱指數衡": 7126,
    "指數衡量": 7127,
    "數衡量一": 7128,
    "衡量一段": 7129,
    "量一段時": 7130,
    "一段時間": 7131,
    "段時間內": 7132,
    "時間內漲": 7133,
    "間內漲跌": 7134,
    "內漲跌的": 7135,
    "漲跌的相": 7136,
    "跌的相對": 7137,
    "的相對強": 7138,
    "相對強度": 7139,
    "對強度範": 7140,
    "強度範圍": 7141,
    "度範圍超": 7142,
    "範圍超買": 7143,
    "圍超買區": 7144,
    "超買區域": 7145,
    "買區域可": 7146,
    "域可能面": 7147,
    "可能面臨": 7148,
    "能面臨回": 7149,
    "面臨回調": 7150,
    "臨回調超": 7151,
    "回調超賣": 7152,
    "調超賣區": 7153,
    "超賣區域": 7154,
    "賣區域可": 7155,
    "域可能出": 7156,
    "可能出現": 7157,
    "能出現反": 7158,
    "出現反彈": 7159,
    "現反彈中": 7160,
    "反彈中性": 7161,
    "彈中性多": 7162,
    "中性多空": 7163,
    "性多空平": 7164,
    "多空平衡": 7165,
    "空平衡進": 7166,
    "平衡進階": 7167,
    "衡進階用": 7168,
    "進階用法": 7169,
    "階用法背": 7170,
    "用法背離": 7171,
    "法背離價": 7172,
    "背離價格": 7173,
    "離價格創": 7174,
    "價格創新": 7175,
    "格創新高": 7176,
    "創新高但": 7177,
    "新高但未": 7178,
    "高但未創": 7179,
    "但未創新": 7180,
    "未創新高": 7181,
    "創新高看": 7182,
    "新高看跌": 7183,
    "高看跌背": 7184,
    "看跌背離": 7185,
    "跌背離注": 7186,
    "背離注意": 7187,
    "離注意轉": 7188,
    "注意轉折": 7189,
    "意轉折強": 7190,
    "轉折強勢": 7191,
    "折強勢市": 7192,
    "強勢市場": 7193,
    "震盪超賣": 7194,
    "盪超賣線": 7195,
    "超賣線應": 7196,
    "賣線應改": 7197,
    "應改用弱": 7198,
    "改用弱勢": 7199,
    "用弱勢市": 7200,
    "弱勢市場": 7201,
    "震盪超買": 7202,
    "盪超買線": 7203,
    "超買線應": 7204,
    "買線應改": 7205,
    "應改用在": 7206,
    "改用在強": 7207,
    "用在強趨": 7208,
    "在強趨勢": 7209,
    "強趨勢中": 7210,
    "趨勢中可": 7211,
    "勢中可以": 7212,
    "中可以長": 7213,
    "可以長期": 7214,
    "以長期維": 7215,
    "長期維持": 7216,
    "期維持超": 7217,
    "維持超買": 7218,
    "持超買超": 7219,
    "買超賣狀": 7220,
    "超賣狀態": 7221,
    "賣狀態不": 7222,
    "狀態不能": 7223,
    "態不能單": 7224,
    "不能單獨": 7225,
    "能單獨作": 7226,
    "單獨作為": 7227,
    "獨作為進": 7228,
    "作為進出": 7229,
    "為進出場": 7230,
    "進出場依": 7231,
    "出場依據": 7232,
    "moving": 7233,
    "average": 7234,
    "convergence": 7235,
    "buy": 7236,
    "especially": 7237,
    "occurring": 7238,
    "stronger": 7239,
    "histogram": 7240,
    "turning": 7241,
    "sell": 7242,
    "more": 7243,
    "reliable": 7244,
    "important": 7245,
    "notes": 7246,
    "lagging": 7247,
    "indicator": 7248,
    "confirmation": 7249,
    "choppy": 7250,
    "generates": 7251,
    "many": 7252,
    "false": 7253,
    "combine": 7254,
    "action": 7255,
    "accuracy": 7256,
    "trendfollowingstrategy": 7257,
    "filter": 7258,
    "道怎": 7259,
    "用於": 7260,
    "於交": 7261,
    "通道怎": 7262,
    "道怎麼": 7263,
    "麼用於": 7264,
    "用於交": 7265,
    "於交易": 7266,
    "林通道怎": 7267,
    "通道怎麼": 7268,
    "道怎麼用": 7269,
    "怎麼用於": 7270,
    "麼用於交": 7271,
    "用於交易": 7272,
    "bollinger": 7273,
    "bands": 7274,
    "meanreversionstrategy": 7275,
    "道由": 7276,
    "由三": 7277,
    "三條": 7278,
    "條線": 7279,
    "線組": 7280,
    "組成": 7281,
    "成中": 7282,
    "軌期": 7283,
    "期移": 7284,
    "線上": 7285,
    "差下": 7286,
    "差主": 7287,
    "要應": 7288,
    "應用": 7289,
    "用均": 7290,
    "略帶": 7291,
    "寬收": 7292,
    "收窄": 7293,
    "窄即": 7294,
    "即將": 7295,
    "將出": 7296,
    "現大": 7297,
    "情帶": 7298,
    "寬突": 7299,
    "突然": 7300,
    "然放": 7301,
    "情啟": 7302,
    "啟動": 7303,
    "動跟": 7304,
    "隨方": 7305,
    "向超": 7306,
    "賣收": 7307,
    "破上": 7308,
    "買注": 7309,
    "意回": 7310,
    "調收": 7311,
    "破下": 7312,
    "賣注": 7313,
    "意反": 7314,
    "彈趨": 7315,
    "勢確": 7316,
    "認多": 7317,
    "沿上": 7318,
    "行走": 7319,
    "走帶": 7320,
    "帶狀": 7321,
    "狀空": 7322,
    "沿下": 7323,
    "行的": 7324,
    "的使": 7325,
    "用和": 7326,
    "和指": 7327,
    "標作": 7328,
    "為核": 7329,
    "心信": 7330,
    "通道由": 7331,
    "道由三": 7332,
    "由三條": 7333,
    "三條線": 7334,
    "條線組": 7335,
    "線組成": 7336,
    "組成中": 7337,
    "成中軌": 7338,
    "中軌期": 7339,
    "軌期移": 7340,
    "期移動": 7341,
    "移動平": 7342,
    "動平均": 7343,
    "平均線": 7344,
    "均線上": 7345,
    "線上軌": 7346,
    "上軌中": 7347,
    "準差下": 7348,
    "差下軌": 7349,
    "下軌中": 7350,
    "準差主": 7351,
    "差主要": 7352,
    "主要應": 7353,
    "要應用": 7354,
    "應用均": 7355,
    "用均值": 7356,
    "策略帶": 7357,
    "略帶寬": 7358,
    "帶寬收": 7359,
    "寬收窄": 7360,
    "收窄即": 7361,
    "窄即將": 7362,
    "即將出": 7363,
    "將出現": 7364,
    "出現大": 7365,
    "現大行": 7366,
    "行情帶": 7367,
    "情帶寬": 7368,
    "帶寬突": 7369,
    "寬突然": 7370,
    "突然放": 7371,
    "然放大": 7372,
    "放大行": 7373,
    "行情啟": 7374,
    "情啟動": 7375,
    "啟動跟": 7376,
    "動跟隨": 7377,
    "跟隨方": 7378,
    "隨方向": 7379,
    "方向超": 7380,
    "向超買": 7381,
    "超賣收": 7382,
    "賣收盤": 7383,
    "突破上": 7384,
    "破上軌": 7385,
    "上軌可": 7386,
    "能超買": 7387,
    "超買注": 7388,
    "買注意": 7389,
    "注意回": 7390,
    "意回調": 7391,
    "回調收": 7392,
    "調收盤": 7393,
    "突破下": 7394,
    "破下軌": 7395,
    "下軌可": 7396,
    "能超賣": 7397,
    "超賣注": 7398,
    "賣注意": 7399,
    "注意反": 7400,
    "意反彈": 7401,
    "反彈趨": 7402,
    "彈趨勢": 7403,
    "趨勢確": 7404,
    "勢確認": 7405,
    "確認多": 7406,
    "認多頭": 7407,
    "多頭行": 7408,
    "格沿上": 7409,
    "沿上軌": 7410,
    "上軌運": 7411,
    "運行走": 7412,
    "行走帶": 7413,
    "走帶狀": 7414,
    "帶狀空": 7415,
    "狀空頭": 7416,
    "空頭行": 7417,
    "格沿下": 7418,
    "沿下軌": 7419,
    "下軌運": 7420,
    "運行的": 7421,
    "行的使": 7422,
    "的使用": 7423,
    "使用和": 7424,
    "用和指": 7425,
    "和指標": 7426,
    "指標作": 7427,
    "標作為": 7428,
    "作為核": 7429,
    "為核心": 7430,
    "核心信": 7431,
    "心信號": 7432,
    "林通道由": 7433,
    "通道由三": 7434,
    "道由三條": 7435,
    "由三條線": 7436,
    "三條線組": 7437,
    "條線組成": 7438,
    "線組成中": 7439,
    "組成中軌": 7440,
    "成中軌期": 7441,
    "中軌期移": 7442,
    "軌期移動": 7443,
    "期移動平": 7444,
    "移動平均": 7445,
    "動平均線": 7446,
    "平均線上": 7447,
    "均線上軌": 7448,
    "線上軌中": 7449,
    "上軌中軌": 7450,
    "標準差下": 7451,
    "準差下軌": 7452,
    "差下軌中": 7453,
    "下軌中軌": 7454,
    "標準差主": 7455,
    "準差主要": 7456,
    "差主要應": 7457,
    "主要應用": 7458,
    "要應用均": 7459,
    "應用均值": 7460,
    "用均值回": 7461,
    "歸策略帶": 7462,
    "策略帶寬": 7463,
    "略帶寬收": 7464,
    "帶寬收窄": 7465,
    "寬收窄即": 7466,
    "收窄即將": 7467,
    "窄即將出": 7468,
    "即將出現": 7469,
    "將出現大": 7470,
    "出現大行": 7471,
    "現大行情": 7472,
    "大行情帶": 7473,
    "行情帶寬": 7474,
    "情帶寬突": 7475,
    "帶寬突然": 7476,
    "寬突然放": 7477,
    "突然放大": 7478,
    "然放大行": 7479,
    "放大行情": 7480,
    "大行情啟": 7481,
    "行情啟動": 7482,
    "情啟動跟": 7483,
    "啟動跟隨": 7484,
    "動跟隨方": 7485,
    "跟隨方向": 7486,
    "隨方向超": 7487,
    "方向超買": 7488,
    "向超買超": 7489,
    "買超賣收": 7490,
    "超賣收盤": 7491,
    "賣收盤價": 7492,
    "價突破上": 7493,
    "突破上軌": 7494,
    "破上軌可": 7495,
    "上軌可能": 7496,
    "可能超買": 7497,
    "能超買注": 7498,
    "超買注意": 7499,
    "買注意回": 7500,
    "注意回調": 7501,
    "意回調收": 7502,
    "回調收盤": 7503,
    "調收盤價": 7504,
    "價突破下": 7505,
    "突破下軌": 7506,
    "破下軌可": 7507,
    "下軌可能": 7508,
    "可能超賣": 7509,
    "能超賣注": 7510,
    "超賣注意": 7511,
    "賣注意反": 7512,
    "注意反彈": 7513,
    "意反彈趨": 7514,
    "反彈趨勢": 7515,
    "彈趨勢確": 7516,
    "趨勢確認": 7517,
    "勢確認多": 7518,
    "確認多頭": 7519,
    "認多頭行": 7520,
    "多頭行情": 7521,
    "價格沿上": 7522,
    "格沿上軌": 7523,
    "沿上軌運": 7524,
    "上軌運行": 7525,
    "軌運行走": 7526,
    "運行走帶": 7527,
    "行走帶狀": 7528,
    "走帶狀空": 7529,
    "帶狀空頭": 7530,
    "狀空頭行": 7531,
    "空頭行情": 7532,
    "價格沿下": 7533,
    "格沿下軌": 7534,
    "沿下軌運": 7535,
    "下軌運行": 7536,
    "軌運行的": 7537,
    "運行的使": 7538,
    "行的使用": 7539,
    "的使用和": 7540,
    "使用和指": 7541,
    "用和指標": 7542,
    "和指標作": 7543,
    "指標作為": 7544,
    "標作為核": 7545,
    "作為核心": 7546,
    "為核心信": 7547,
    "核心信號": 7548,
    "率很": 7549,
    "很高": 7550,
    "高是": 7551,
    "麼意": 7552,
    "意思": 7553,
    "思應": 7554,
    "該怎": 7555,
    "麼做": 7556,
    "費率很": 7557,
    "率很高": 7558,
    "很高是": 7559,
    "高是什": 7560,
    "什麼意": 7561,
    "麼意思": 7562,
    "意思應": 7563,
    "思應該": 7564,
    "應該怎": 7565,
    "該怎麼": 7566,
    "怎麼做": 7567,
    "金費率很": 7568,
    "費率很高": 7569,
    "率很高是": 7570,
    "很高是什": 7571,
    "高是什麼": 7572,
    "是什麼意": 7573,
    "什麼意思": 7574,
    "麼意思應": 7575,
    "意思應該": 7576,
    "思應該怎": 7577,
    "應該怎麼": 7578,
    "該怎麼做": 7579,
    "率解": 7580,
    "解讀": 7581,
    "讀費": 7582,
    "偏高": 7583,
    "高多": 7584,
    "過熱": 7585,
    "熱市": 7586,
    "場過": 7587,
    "過度": 7588,
    "度槓": 7589,
    "桿化": 7590,
    "化做": 7591,
    "多做": 7592,
    "多者": 7593,
    "者每": 7594,
    "時需": 7595,
    "需持": 7596,
    "付出": 7597,
    "出成": 7598,
    "本歷": 7599,
    "史上": 7600,
    "上高": 7601,
    "高費": 7602,
    "率往": 7603,
    "往往": 7604,
    "往對": 7605,
    "應價": 7606,
    "格頂": 7607,
    "頂部": 7608,
    "意做": 7609,
    "多成": 7610,
    "本可": 7611,
    "能有": 7612,
    "調壓": 7613,
    "力費": 7614,
    "偏低": 7615,
    "低負": 7616,
    "負值": 7617,
    "值空": 7618,
    "過濃": 7619,
    "濃市": 7620,
    "場超": 7621,
    "賣做": 7622,
    "空者": 7623,
    "者持": 7624,
    "付費": 7625,
    "費空": 7626,
    "頭套": 7627,
    "套牢": 7628,
    "牢壓": 7629,
    "力大": 7630,
    "大可": 7631,
    "能對": 7632,
    "應底": 7633,
    "底部": 7634,
    "意多": 7635,
    "頭機": 7636,
    "會策": 7637,
    "略運": 7638,
    "運用": 7639,
    "用高": 7640,
    "高資": 7641,
    "率下": 7642,
    "下避": 7643,
    "免新": 7644,
    "新開": 7645,
    "開多": 7646,
    "單或": 7647,
    "或縮": 7648,
    "縮小": 7649,
    "小多": 7650,
    "多倉": 7651,
    "倉考": 7652,
    "考慮": 7653,
    "慮資": 7654,
    "率套": 7655,
    "套利": 7656,
    "利現": 7657,
    "貨做": 7658,
    "多合": 7659,
    "約做": 7660,
    "空對": 7661,
    "對沖": 7662,
    "沖費": 7663,
    "率收": 7664,
    "收益": 7665,
    "益模": 7666,
    "型將": 7667,
    "將資": 7668,
    "率納": 7669,
    "納入": 7670,
    "入維": 7671,
    "維特": 7672,
    "徵向": 7673,
    "向量": 7674,
    "量中": 7675,
    "費率解": 7676,
    "率解讀": 7677,
    "解讀費": 7678,
    "讀費率": 7679,
    "率偏高": 7680,
    "偏高多": 7681,
    "高多頭": 7682,
    "緒過熱": 7683,
    "過熱市": 7684,
    "熱市場": 7685,
    "市場過": 7686,
    "場過度": 7687,
    "過度槓": 7688,
    "度槓桿": 7689,
    "槓桿化": 7690,
    "桿化做": 7691,
    "化做多": 7692,
    "做多做": 7693,
    "多做多": 7694,
    "做多者": 7695,
    "多者每": 7696,
    "者每小": 7697,
    "小時需": 7698,
    "時需持": 7699,
    "需持續": 7700,
    "續付出": 7701,
    "付出成": 7702,
    "出成本": 7703,
    "成本歷": 7704,
    "本歷史": 7705,
    "歷史上": 7706,
    "史上高": 7707,
    "上高費": 7708,
    "高費率": 7709,
    "費率往": 7710,
    "率往往": 7711,
    "往往對": 7712,
    "往對應": 7713,
    "對應價": 7714,
    "應價格": 7715,
    "價格頂": 7716,
    "格頂部": 7717,
    "頂部區": 7718,
    "注意做": 7719,
    "意做多": 7720,
    "做多成": 7721,
    "多成本": 7722,
    "成本可": 7723,
    "本可能": 7724,
    "可能有": 7725,
    "能有回": 7726,
    "有回調": 7727,
    "回調壓": 7728,
    "調壓力": 7729,
    "壓力費": 7730,
    "力費率": 7731,
    "率偏低": 7732,
    "偏低負": 7733,
    "低負值": 7734,
    "負值空": 7735,
    "值空頭": 7736,
    "緒過濃": 7737,
    "過濃市": 7738,
    "濃市場": 7739,
    "市場超": 7740,
    "場超賣": 7741,
    "超賣做": 7742,
    "賣做空": 7743,
    "做空者": 7744,
    "空者持": 7745,
    "者持續": 7746,
    "續付費": 7747,
    "付費空": 7748,
    "費空頭": 7749,
    "空頭套": 7750,
    "頭套牢": 7751,
    "套牢壓": 7752,
    "牢壓力": 7753,
    "壓力大": 7754,
    "力大可": 7755,
    "大可能": 7756,
    "可能對": 7757,
    "能對應": 7758,
    "對應底": 7759,
    "應底部": 7760,
    "底部區": 7761,
    "注意多": 7762,
    "意多頭": 7763,
    "多頭機": 7764,
    "頭機會": 7765,
    "機會策": 7766,
    "會策略": 7767,
    "策略運": 7768,
    "略運用": 7769,
    "運用高": 7770,
    "用高資": 7771,
    "高資金": 7772,
    "費率下": 7773,
    "率下避": 7774,
    "下避免": 7775,
    "避免新": 7776,
    "免新開": 7777,
    "新開多": 7778,
    "開多單": 7779,
    "多單或": 7780,
    "單或縮": 7781,
    "或縮小": 7782,
    "縮小多": 7783,
    "小多倉": 7784,
    "多倉考": 7785,
    "倉考慮": 7786,
    "考慮資": 7787,
    "慮資金": 7788,
    "費率套": 7789,
    "率套利": 7790,
    "套利現": 7791,
    "利現貨": 7792,
    "現貨做": 7793,
    "貨做多": 7794,
    "做多合": 7795,
    "多合約": 7796,
    "合約做": 7797,
    "約做空": 7798,
    "做空對": 7799,
    "空對沖": 7800,
    "對沖費": 7801,
    "沖費率": 7802,
    "費率收": 7803,
    "率收益": 7804,
    "收益模": 7805,
    "益模型": 7806,
    "模型將": 7807,
    "型將資": 7808,
    "將資金": 7809,
    "費率納": 7810,
    "率納入": 7811,
    "納入維": 7812,
    "入維特": 7813,
    "維特徵": 7814,
    "特徵向": 7815,
    "徵向量": 7816,
    "向量中": 7817,
    "金費率解": 7818,
    "費率解讀": 7819,
    "率解讀費": 7820,
    "解讀費率": 7821,
    "讀費率偏": 7822,
    "費率偏高": 7823,
    "率偏高多": 7824,
    "偏高多頭": 7825,
    "高多頭情": 7826,
    "情緒過熱": 7827,
    "緒過熱市": 7828,
    "過熱市場": 7829,
    "熱市場過": 7830,
    "市場過度": 7831,
    "場過度槓": 7832,
    "過度槓桿": 7833,
    "度槓桿化": 7834,
    "槓桿化做": 7835,
    "桿化做多": 7836,
    "化做多做": 7837,
    "做多做多": 7838,
    "多做多者": 7839,
    "做多者每": 7840,
    "多者每小": 7841,
    "者每小時": 7842,
    "每小時需": 7843,
    "小時需持": 7844,
    "時需持續": 7845,
    "需持續付": 7846,
    "持續付出": 7847,
    "續付出成": 7848,
    "付出成本": 7849,
    "出成本歷": 7850,
    "成本歷史": 7851,
    "本歷史上": 7852,
    "歷史上高": 7853,
    "史上高費": 7854,
    "上高費率": 7855,
    "高費率往": 7856,
    "費率往往": 7857,
    "率往往對": 7858,
    "往往對應": 7859,
    "往對應價": 7860,
    "對應價格": 7861,
    "應價格頂": 7862,
    "價格頂部": 7863,
    "格頂部區": 7864,
    "頂部區域": 7865,
    "域注意做": 7866,
    "注意做多": 7867,
    "意做多成": 7868,
    "做多成本": 7869,
    "多成本可": 7870,
    "成本可能": 7871,
    "本可能有": 7872,
    "可能有回": 7873,
    "能有回調": 7874,
    "有回調壓": 7875,
    "回調壓力": 7876,
    "調壓力費": 7877,
    "壓力費率": 7878,
    "力費率偏": 7879,
    "費率偏低": 7880,
    "率偏低負": 7881,
    "偏低負值": 7882,
    "低負值空": 7883,
    "負值空頭": 7884,
    "值空頭情": 7885,
    "情緒過濃": 7886,
    "緒過濃市": 7887,
    "過濃市場": 7888,
    "濃市場超": 7889,
    "市場超賣": 7890,
    "場超賣做": 7891,
    "超賣做空": 7892,
    "賣做空者": 7893,
    "做空者持": 7894,
    "空者持續": 7895,
    "者持續付": 7896,
    "持續付費": 7897,
    "續付費空": 7898,
    "付費空頭": 7899,
    "費空頭套": 7900,
    "空頭套牢": 7901,
    "頭套牢壓": 7902,
    "套牢壓力": 7903,
    "牢壓力大": 7904,
    "壓力大可": 7905,
    "力大可能": 7906,
    "大可能對": 7907,
    "可能對應": 7908,
    "能對應底": 7909,
    "對應底部": 7910,
    "應底部區": 7911,
    "底部區域": 7912,
    "域注意多": 7913,
    "注意多頭": 7914,
    "意多頭機": 7915,
    "多頭機會": 7916,
    "頭機會策": 7917,
    "機會策略": 7918,
    "會策略運": 7919,
    "策略運用": 7920,
    "略運用高": 7921,
    "運用高資": 7922,
    "用高資金": 7923,
    "高資金費": 7924,
    "金費率下": 7925,
    "費率下避": 7926,
    "率下避免": 7927,
    "下避免新": 7928,
    "避免新開": 7929,
    "免新開多": 7930,
    "新開多單": 7931,
    "開多單或": 7932,
    "多單或縮": 7933,
    "單或縮小": 7934,
    "或縮小多": 7935,
    "縮小多倉": 7936,
    "小多倉考": 7937,
    "多倉考慮": 7938,
    "倉考慮資": 7939,
    "考慮資金": 7940,
    "慮資金費": 7941,
    "金費率套": 7942,
    "費率套利": 7943,
    "率套利現": 7944,
    "套利現貨": 7945,
    "利現貨做": 7946,
    "現貨做多": 7947,
    "貨做多合": 7948,
    "做多合約": 7949,
    "多合約做": 7950,
    "合約做空": 7951,
    "約做空對": 7952,
    "做空對沖": 7953,
    "空對沖費": 7954,
    "對沖費率": 7955,
    "沖費率收": 7956,
    "費率收益": 7957,
    "率收益模": 7958,
    "收益模型": 7959,
    "益模型將": 7960,
    "模型將資": 7961,
    "型將資金": 7962,
    "將資金費": 7963,
    "金費率納": 7964,
    "費率納入": 7965,
    "率納入維": 7966,
    "納入維特": 7967,
    "入維特徵": 7968,
    "維特徵向": 7969,
    "特徵向量": 7970,
    "徵向量中": 7971
  },
  "id_to_token": {
    "0": "[PAD]",
    "1": "[UNK]",
    "2": "[BOS]",
    "3": "[EOS]",
    "4": "[SEP]",
    "5": "[CLS]",
    "6": "[MASK]",
    "7": "\n",
    "8": " ",
    "9": ",",
    "10": "-",
    "11": ".",
    "12": "0",
    "13": "1",
    "14": "2",
    "15": "3",
    "16": "4",
    "17": "5",
    "18": "6",
    "19": "7",
    "20": "8",
    "21": "9",
    "22": ":",
    "23": "?",
    "24": "a",
    "25": "b",
    "26": "c",
    "27": "d",
    "28": "e",
    "29": "f",
    "30": "g",
    "31": "h",
    "32": "i",
    "33": "j",
    "34": "k",
    "35": "l",
    "36": "m",
    "37": "n",
    "38": "o",
    "39": "p",
    "40": "q",
    "41": "r",
    "42": "s",
    "43": "t",
    "44": "u",
    "45": "v",
    "46": "w",
    "47": "x",
    "48": "y",
    "49": "z",
    "50": "一",
    "51": "三",
    "52": "上",
    "53": "下",
    "54": "不",
    "55": "中",
    "56": "主",
    "57": "之",
    "58": "事",
    "59": "交",
    "60": "享",
    "61": "人",
    "62": "什",
    "63": "介",
    "64": "仍",
    "65": "他",
    "66": "付",
    "67": "代",
    "68": "以",
    "69": "件",
    "70": "伴",
    "71": "但",
    "72": "位",
    "73": "低",
    "74": "何",
    "75": "作",
    "76": "你",
    "77": "佳",
    "78": "使",
    "79": "來",
    "80": "例",
    "81": "依",
    "82": "保",
    "83": "信",
    "84": "倉",
    "85": "個",
    "86": "倍",
    "87": "候",
    "88": "值",
    "89": "假",
    "90": "偏",
    "91": "做",
    "92": "停",
    "93": "健",
    "94": "偵",
    "95": "傳",
    "96": "價",
    "97": "優",
    "98": "儲",
    "99": "允",
    "100": "先",
    "101": "免",
    "102": "入",
    "103": "內",
    "104": "全",
    "105": "公",
    "106": "共",
    "107": "其",
    "108": "具",
    "109": "再",
    "110": "出",
    "111": "分",
    "112": "切",
    "113": "列",
    "114": "初",
    "115": "判",
    "116": "別",
    "117": "利",
    "118": "到",
    "119": "制",
    "120": "則",
    "121": "前",
    "122": "剛",
    "123": "割",
    "124": "創",
    "125": "力",
    "126": "功",
    "127": "加",
    "128": "動",
    "129": "勢",
    "130": "包",
    "131": "化",
    "132": "區",
    "133": "即",
    "134": "原",
    "135": "參",
    "136": "叉",
    "137": "及",
    "138": "反",
    "139": "受",
    "140": "口",
    "141": "只",
    "142": "可",
    "143": "史",
    "144": "各",
    "145": "合",
    "146": "同",
    "147": "名",
    "148": "向",
    "149": "吞",
    "150": "含",
    "151": "和",
    "152": "品",
    "153": "哪",
    "154": "啟",
    "155": "單",
    "156": "器",
    "157": "噬",
    "158": "嚴",
    "159": "回",
    "160": "因",
    "161": "固",
    "162": "圈",
    "163": "圍",
    "164": "在",
    "165": "均",
    "166": "型",
    "167": "域",
    "168": "基",
    "169": "場",
    "170": "境",
    "171": "增",
    "172": "壓",
    "173": "壞",
    "174": "外",
    "175": "多",
    "176": "夜",
    "177": "夠",
    "178": "大",
    "179": "天",
    "180": "失",
    "181": "奔",
    "182": "套",
    "183": "好",
    "184": "如",
    "185": "始",
    "186": "子",
    "187": "它",
    "188": "安",
    "189": "定",
    "190": "容",
    "191": "密",
    "192": "實",
    "193": "寬",
    "194": "將",
    "195": "對",
    "196": "導",
    "197": "小",
    "198": "少",
    "199": "就",
    "200": "層",
    "201": "工",
    "202": "差",
    "203": "已",
    "204": "市",
    "205": "布",
    "206": "希",
    "207": "帳",
    "208": "帶",
    "209": "常",
    "210": "幅",
    "211": "幣",
    "212": "平",
    "213": "底",
    "214": "度",
    "215": "庫",
    "216": "建",
    "217": "式",
    "218": "引",
    "219": "弱",
    "220": "強",
    "221": "彈",
    "222": "彌",
    "223": "影",
    "224": "往",
    "225": "待",
    "226": "很",
    "227": "後",
    "228": "從",
    "229": "微",
    "230": "徵",
    "231": "心",
    "232": "快",
    "233": "怎",
    "234": "思",
    "235": "急",
    "236": "性",
    "237": "恐",
    "238": "息",
    "239": "情",
    "240": "惠",
    "241": "想",
    "242": "意",
    "243": "態",
    "244": "慌",
    "245": "慣",
    "246": "慮",
    "247": "應",
    "248": "成",
    "249": "或",
    "250": "戶",
    "251": "所",
    "252": "手",
    "253": "批",
    "254": "承",
    "255": "技",
    "256": "投",
    "257": "折",
    "258": "拉",
    "259": "括",
    "260": "持",
    "261": "指",
    "262": "掉",
    "263": "排",
    "264": "掛",
    "265": "控",
    "266": "推",
    "267": "提",
    "268": "插",
    "269": "換",
    "270": "援",
    "271": "損",
    "272": "撐",
    "273": "撤",
    "274": "擇",
    "275": "操",
    "276": "擎",
    "277": "擔",
    "278": "據",
    "279": "擠",
    "280": "擺",
    "281": "支",
    "282": "收",
    "283": "改",
    "284": "放",
    "285": "效",
    "286": "整",
    "287": "數",
    "288": "料",
    "289": "新",
    "290": "斷",
    "291": "方",
    "292": "於",
    "293": "日",
    "294": "明",
    "295": "易",
    "296": "映",
    "297": "是",
    "298": "時",
    "299": "景",
    "300": "暫",
    "301": "最",
    "302": "會",
    "303": "有",
    "304": "望",
    "305": "朝",
    "306": "期",
    "307": "未",
    "308": "本",
    "309": "析",
    "310": "林",
    "311": "果",
    "312": "某",
    "313": "查",
    "314": "核",
    "315": "根",
    "316": "格",
    "317": "桿",
    "318": "條",
    "319": "棒",
    "320": "業",
    "321": "極",
    "322": "槓",
    "323": "標",
    "324": "模",
    "325": "機",
    "326": "檢",
    "327": "權",
    "328": "次",
    "329": "止",
    "330": "正",
    "331": "歷",
    "332": "歸",
    "333": "段",
    "334": "每",
    "335": "比",
    "336": "永",
    "337": "決",
    "338": "沒",
    "339": "沖",
    "340": "沿",
    "341": "況",
    "342": "法",
    "343": "波",
    "344": "注",
    "345": "流",
    "346": "消",
    "347": "深",
    "348": "清",
    "349": "減",
    "350": "測",
    "351": "準",
    "352": "滑",
    "353": "演",
    "354": "漲",
    "355": "潤",
    "356": "濃",
    "357": "濾",
    "358": "為",
    "359": "無",
    "360": "然",
    "361": "熱",
    "362": "燈",
    "363": "爆",
    "364": "牢",
    "365": "特",
    "366": "狀",
    "367": "獨",
    "368": "獲",
    "369": "率",
    "370": "現",
    "371": "理",
    "372": "環",
    "373": "生",
    "374": "產",
    "375": "用",
    "376": "由",
    "377": "界",
    "378": "略",
    "379": "異",
    "380": "當",
    "381": "發",
    "382": "的",
    "383": "盈",
    "384": "益",
    "385": "監",
    "386": "盤",
    "387": "盪",
    "388": "目",
    "389": "盯",
    "390": "相",
    "391": "看",
    "392": "真",
    "393": "知",
    "394": "短",
    "395": "破",
    "396": "砸",
    "397": "確",
    "398": "礎",
    "399": "示",
    "400": "神",
    "401": "移",
    "402": "稍",
    "403": "種",
    "404": "穩",
    "405": "空",
    "406": "穿",
    "407": "突",
    "408": "窄",
    "409": "立",
    "410": "端",
    "411": "筆",
    "412": "等",
    "413": "策",
    "414": "算",
    "415": "管",
    "416": "範",
    "417": "簡",
    "418": "系",
    "419": "約",
    "420": "納",
    "421": "級",
    "422": "素",
    "423": "終",
    "424": "組",
    "425": "結",
    "426": "給",
    "427": "統",
    "428": "經",
    "429": "維",
    "430": "網",
    "431": "緒",
    "432": "線",
    "433": "練",
    "434": "縮",
    "435": "總",
    "436": "績",
    "437": "續",
    "438": "缺",
    "439": "置",
    "440": "美",
    "441": "義",
    "442": "習",
    "443": "考",
    "444": "者",
    "445": "而",
    "446": "耐",
    "447": "聞",
    "448": "聯",
    "449": "背",
    "450": "能",
    "451": "臨",
    "452": "自",
    "453": "致",
    "454": "與",
    "455": "般",
    "456": "良",
    "457": "若",
    "458": "著",
    "459": "處",
    "460": "號",
    "461": "虧",
    "462": "融",
    "463": "行",
    "464": "衍",
    "465": "術",
    "466": "衡",
    "467": "表",
    "468": "被",
    "469": "補",
    "470": "要",
    "471": "解",
    "472": "觸",
    "473": "訂",
    "474": "計",
    "475": "訓",
    "476": "記",
    "477": "設",
    "478": "該",
    "479": "認",
    "480": "調",
    "481": "請",
    "482": "論",
    "483": "證",
    "484": "識",
    "485": "議",
    "486": "護",
    "487": "讀",
    "488": "變",
    "489": "讓",
    "490": "負",
    "491": "貨",
    "492": "買",
    "493": "費",
    "494": "貼",
    "495": "資",
    "496": "賣",
    "497": "走",
    "498": "超",
    "499": "越",
    "500": "趨",
    "501": "足",
    "502": "跌",
    "503": "跑",
    "504": "距",
    "505": "跟",
    "506": "路",
    "507": "跳",
    "508": "蹤",
    "509": "軌",
    "510": "較",
    "511": "輯",
    "512": "轉",
    "513": "農",
    "514": "迅",
    "515": "近",
    "516": "追",
    "517": "逐",
    "518": "這",
    "519": "通",
    "520": "速",
    "521": "連",
    "522": "進",
    "523": "運",
    "524": "過",
    "525": "道",
    "526": "達",
    "527": "適",
    "528": "選",
    "529": "遺",
    "530": "避",
    "531": "邏",
    "532": "部",
    "533": "釋",
    "534": "重",
    "535": "量",
    "536": "金",
    "537": "針",
    "538": "錄",
    "539": "錘",
    "540": "鍵",
    "541": "鎖",
    "542": "長",
    "543": "開",
    "544": "間",
    "545": "關",
    "546": "防",
    "547": "限",
    "548": "階",
    "549": "際",
    "550": "隨",
    "551": "險",
    "552": "離",
    "553": "需",
    "554": "震",
    "555": "非",
    "556": "靠",
    "557": "面",
    "558": "響",
    "559": "頂",
    "560": "順",
    "561": "頭",
    "562": "額",
    "563": "顯",
    "564": "風",
    "565": "餘",
    "566": "驅",
    "567": "驗",
    "568": "高",
    "569": "鬆",
    "570": "麼",
    "571": "點",
    "572": "the",
    "573": "價格",
    "574": "止損",
    "575": "策略",
    "576": "price",
    "577": "交易",
    "578": "is",
    "579": "市場",
    "580": "成交",
    "581": "倉位",
    "582": "費率",
    "583": "突破",
    "584": "什麼",
    "585": "風險",
    "586": "stop",
    "587": "bioneuronai",
    "588": "margin",
    "589": "ai",
    "590": "資金",
    "591": "rate",
    "592": "自動",
    "593": "新聞",
    "594": "合約",
    "595": "槓桿",
    "596": "爆倉",
    "597": "for",
    "598": "價單",
    "599": "趨勢",
    "600": "futures",
    "601": "幣安",
    "602": "liquidation",
    "603": "market",
    "604": "做多",
    "605": "rsi",
    "606": "with",
    "607": "positions",
    "608": "使用",
    "609": "risk",
    "610": "保證",
    "611": "可能",
    "612": "金費",
    "613": "怎麼",
    "614": "資金費",
    "615": "金費率",
    "616": "資金費率",
    "617": "情緒",
    "618": "order",
    "619": "行情",
    "620": "and",
    "621": "leverage",
    "622": "to",
    "623": "position",
    "624": "btc",
    "625": "entry",
    "626": "macd",
    "627": "超賣",
    "628": "usdt",
    "629": "可以",
    "630": "what",
    "631": "in",
    "632": "帳戶",
    "633": "證金",
    "634": "保證金",
    "635": "虧損",
    "636": "波動",
    "637": "loss",
    "638": "多頭",
    "639": "空頭",
    "640": "long",
    "641": "系統",
    "642": "限價",
    "643": "when",
    "644": "分析",
    "645": "perpetual",
    "646": "binance",
    "647": "on",
    "648": "是什",
    "649": "是什麼",
    "650": "funding",
    "651": "最後",
    "652": "交價",
    "653": "成交價",
    "654": "倉價",
    "655": "adl",
    "656": "市價",
    "657": "市價單",
    "658": "進場",
    "659": "信號",
    "660": "融合",
    "661": "超買",
    "662": "line",
    "663": "永續",
    "664": "續合",
    "665": "永續合",
    "666": "續合約",
    "667": "永續合約",
    "668": "btcusdt",
    "669": "建議",
    "670": "use",
    "671": "損失",
    "672": "account",
    "673": "計算",
    "674": "方式",
    "675": "價值",
    "676": "how",
    "677": "it",
    "678": "實際",
    "679": "爆倉價",
    "680": "平倉",
    "681": "方向",
    "682": "情況",
    "683": "限價單",
    "684": "追蹤",
    "685": "每筆",
    "686": "rrr",
    "687": "以下",
    "688": "震盪",
    "689": "均值",
    "690": "特徵",
    "691": "api",
    "692": "推論",
    "693": "注意",
    "694": "signal",
    "695": "不同",
    "696": "持倉",
    "697": "date",
    "698": "can",
    "699": "of",
    "700": "上限",
    "701": "isolated",
    "702": "位不",
    "703": "適合",
    "704": "控制",
    "705": "作為",
    "706": "盈利",
    "707": "極端",
    "708": "or",
    "709": "balance",
    "710": "現貨",
    "711": "頭情",
    "712": "名義",
    "713": "義價",
    "714": "頭情緒",
    "715": "名義價",
    "716": "義價值",
    "717": "名義價值",
    "718": "標記",
    "719": "記價",
    "720": "標記價",
    "721": "記價格",
    "722": "標記價格",
    "723": "維持",
    "724": "做空",
    "725": "檢查",
    "726": "消息",
    "727": "時止",
    "728": "損點",
    "729": "回調",
    "730": "利潤",
    "731": "範例",
    "732": "時止損",
    "733": "止損點",
    "734": "時止損點",
    "735": "損市",
    "736": "止損市",
    "737": "損市價",
    "738": "止損市價",
    "739": "損市價單",
    "740": "重大",
    "741": "筆交",
    "742": "筆交易",
    "743": "標準",
    "744": "strategy",
    "745": "倍數",
    "746": "跟隨",
    "747": "ema",
    "748": "均線",
    "749": "強趨",
    "750": "強趨勢",
    "751": "值回",
    "752": "回歸",
    "753": "均值回",
    "754": "值回歸",
    "755": "均值回歸",
    "756": "squeeze",
    "757": "布林",
    "758": "下軌",
    "759": "收盤",
    "760": "模態",
    "761": "狀態",
    "762": "略新",
    "763": "策略新",
    "764": "略新聞",
    "765": "策略新聞",
    "766": "區域",
    "767": "crossover",
    "768": "目前",
    "769": "最大",
    "770": "contract",
    "771": "最高",
    "772": "倍槓",
    "773": "倍槓桿",
    "774": "通常",
    "775": "高槓",
    "776": "高槓桿",
    "777": "at",
    "778": "逐倉",
    "779": "有什",
    "780": "有什麼",
    "781": "cross",
    "782": "金額",
    "783": "影響",
    "784": "不會",
    "785": "的交",
    "786": "端波",
    "787": "倉位不",
    "788": "的交易",
    "789": "極端波",
    "790": "端波動",
    "791": "極端波動",
    "792": "that",
    "793": "not",
    "794": "trade",
    "795": "moves",
    "796": "better",
    "797": "率是",
    "798": "費率是",
    "799": "金費率是",
    "800": "付給",
    "801": "多單",
    "802": "成本",
    "803": "short",
    "804": "example",
    "805": "後成",
    "806": "最後成",
    "807": "後成交",
    "808": "最後成交",
    "809": "後成交價",
    "810": "流動",
    "811": "動性",
    "812": "場價",
    "813": "清算",
    "814": "不變",
    "815": "的倉",
    "816": "流動性",
    "817": "的倉位",
    "818": "開倉",
    "819": "桿維",
    "820": "持保",
    "821": "金率",
    "822": "介面",
    "823": "設定",
    "824": "損單",
    "825": "動平",
    "826": "避免",
    "827": "手續",
    "828": "續費",
    "829": "槓桿維",
    "830": "桿維持",
    "831": "維持保",
    "832": "持保證",
    "833": "證金率",
    "834": "止損單",
    "835": "手續費",
    "836": "槓桿維持",
    "837": "桿維持保",
    "838": "維持保證",
    "839": "持保證金",
    "840": "保證金率",
    "841": "maintenance",
    "842": "by",
    "843": "條件",
    "844": "limit",
    "845": "交優",
    "846": "滑點",
    "847": "適用",
    "848": "出場",
    "849": "成交優",
    "850": "you",
    "851": "above",
    "852": "markets",
    "853": "蹤止",
    "854": "麼用",
    "855": "追蹤止",
    "856": "蹤止損",
    "857": "怎麼用",
    "858": "追蹤止損",
    "859": "格下",
    "860": "下跌",
    "861": "勢行",
    "862": "情中",
    "863": "讓利",
    "864": "價格下",
    "865": "格下跌",
    "866": "趨勢行",
    "867": "勢行情",
    "868": "行情中",
    "869": "讓利潤",
    "870": "價格下跌",
    "871": "趨勢行情",
    "872": "損限",
    "873": "止損限",
    "874": "損限價",
    "875": "止損限價",
    "876": "損限價單",
    "877": "應該",
    "878": "位大",
    "879": "大小",
    "880": "每筆交",
    "881": "倉位大",
    "882": "位大小",
    "883": "每筆交易",
    "884": "倉位大小",
    "885": "reward",
    "886": "trend",
    "887": "相對",
    "888": "初始",
    "889": "始風",
    "890": "指標",
    "891": "長期",
    "892": "的倍",
    "893": "初始風",
    "894": "始風險",
    "895": "初始風險",
    "896": "時段",
    "897": "環境",
    "898": "動交",
    "899": "動交易",
    "900": "size",
    "901": "below",
    "902": "勢跟",
    "903": "略的",
    "904": "核心",
    "905": "趨勢跟",
    "906": "勢跟隨",
    "907": "策略的",
    "908": "趨勢跟隨",
    "909": "tp",
    "910": "盤整",
    "911": "歸策",
    "912": "回歸策",
    "913": "歸策略",
    "914": "值回歸策",
    "915": "回歸策略",
    "916": "明顯",
    "917": "林通",
    "918": "通道",
    "919": "準差",
    "920": "出現",
    "921": "布林通",
    "922": "林通道",
    "923": "標準差",
    "924": "布林通道",
    "925": "direction",
    "926": "change",
    "927": "dc",
    "928": "confirmed",
    "929": "假突",
    "930": "假突破",
    "931": "盤價",
    "932": "交量",
    "933": "放大",
    "934": "破後",
    "935": "回測",
    "936": "確認",
    "937": "收盤價",
    "938": "成交量",
    "939": "突破後",
    "940": "rag",
    "941": "rest",
    "942": "cli",
    "943": "主要",
    "944": "模型",
    "945": "聞情",
    "946": "緒分",
    "947": "三模",
    "948": "動態",
    "949": "新聞情",
    "950": "聞情緒",
    "951": "情緒分",
    "952": "三模態",
    "953": "新聞情緒",
    "954": "backtest",
    "955": "買超",
    "956": "超買超",
    "957": "買超賣",
    "958": "超買超賣",
    "959": "中軌",
    "960": "上軌",
    "961": "麼是",
    "962": "是永",
    "963": "什麼是",
    "964": "是永續",
    "965": "是永續合",
    "966": "是一",
    "967": "沒有",
    "968": "的加",
    "969": "加密",
    "970": "衍生",
    "971": "生品",
    "972": "需要",
    "973": "倉者",
    "974": "持有",
    "975": "安永",
    "976": "結算",
    "977": "的加密",
    "978": "衍生品",
    "979": "持倉者",
    "980": "幣安永",
    "981": "安永續",
    "982": "幣安永續",
    "983": "安永續合",
    "984": "no",
    "985": "are",
    "986": "one",
    "987": "volume",
    "988": "available",
    "989": "安合",
    "990": "以用",
    "991": "多少",
    "992": "幣安合",
    "993": "安合約",
    "994": "可以用",
    "995": "幣安合約",
    "996": "ethusdt",
    "997": "桿上",
    "998": "高倍",
    "999": "其他",
    "1000": "主流",
    "1001": "新手",
    "1002": "用倍",
    "1003": "槓桿上",
    "1004": "桿上限",
    "1005": "最高倍",
    "1006": "使用倍",
    "1007": "槓桿上限",
    "1008": "maximum",
    "1009": "trading",
    "1010": "up",
    "1011": "capped",
    "1012": "beginners",
    "1013": "should",
    "1014": "倉保",
    "1015": "全倉",
    "1016": "差別",
    "1017": "倉保證",
    "1018": "倉保證金",
    "1019": "的保",
    "1020": "金適",
    "1021": "險的",
    "1022": "易者",
    "1023": "所有",
    "1024": "損倉",
    "1025": "容易",
    "1026": "若市",
    "1027": "場極",
    "1028": "的保證",
    "1029": "位不會",
    "1030": "資金適",
    "1031": "金適合",
    "1032": "風險的",
    "1033": "交易者",
    "1034": "損倉位",
    "1035": "若市場",
    "1036": "市場極",
    "1037": "場極端",
    "1038": "的保證金",
    "1039": "倉位不會",
    "1040": "資金適合",
    "1041": "的交易者",
    "1042": "市場極端",
    "1043": "場極端波",
    "1044": "uses",
    "1045": "max",
    "1046": "your",
    "1047": "entire",
    "1048": "traders",
    "1049": "control",
    "1050": "all",
    "1051": "as",
    "1052": "profitable",
    "1053": "support",
    "1054": "multiple",
    "1055": "麼計",
    "1056": "怎麼計",
    "1057": "麼計算",
    "1058": "怎麼計算",
    "1059": "的機",
    "1060": "機制",
    "1061": "制每",
    "1062": "每小",
    "1063": "小時",
    "1064": "率為",
    "1065": "為正",
    "1066": "給空",
    "1067": "頭代",
    "1068": "代表",
    "1069": "表市",
    "1070": "場偏",
    "1071": "支付",
    "1072": "位名",
    "1073": "是影",
    "1074": "重要",
    "1075": "時間",
    "1076": "每小時",
    "1077": "費率為",
    "1078": "付給空",
    "1079": "給空頭",
    "1080": "頭代表",
    "1081": "代表市",
    "1082": "表市場",
    "1083": "市場偏",
    "1084": "多頭情",
    "1085": "空頭情",
    "1086": "倉位名",
    "1087": "位名義",
    "1088": "付給空頭",
    "1089": "頭代表市",
    "1090": "代表市場",
    "1091": "表市場偏",
    "1092": "多頭情緒",
    "1093": "空頭情緒",
    "1094": "倉位名義",
    "1095": "位名義價",
    "1096": "does",
    "1097": "every",
    "1098": "positive",
    "1099": "pay",
    "1100": "bullish",
    "1101": "sentiment",
    "1102": "bearish",
    "1103": "notional",
    "1104": "value",
    "1105": "holding",
    "1106": "cost",
    "1107": "mark",
    "1108": "約市",
    "1109": "後一",
    "1110": "一筆",
    "1111": "際成",
    "1112": "的價",
    "1113": "因短",
    "1114": "短期",
    "1115": "或操",
    "1116": "操控",
    "1117": "加權",
    "1118": "觸發",
    "1119": "短暫",
    "1120": "損益",
    "1121": "格不",
    "1122": "你的",
    "1123": "合約市",
    "1124": "約市場",
    "1125": "實際成",
    "1126": "際成交",
    "1127": "的價格",
    "1128": "或操控",
    "1129": "市場價",
    "1130": "價格不",
    "1131": "你的倉",
    "1132": "合約市場",
    "1133": "實際成交",
    "1134": "你的倉位",
    "1135": "公式",
    "1136": "價開",
    "1137": "倉均",
    "1138": "均價",
    "1139": "價槓",
    "1140": "為例",
    "1141": "安介",
    "1142": "顯示",
    "1143": "做法",
    "1144": "讓系",
    "1145": "倉價開",
    "1146": "價開倉",
    "1147": "開倉均",
    "1148": "倉均價",
    "1149": "均價槓",
    "1150": "價槓桿",
    "1151": "幣安介",
    "1152": "安介面",
    "1153": "讓系統",
    "1154": "自動平",
    "1155": "動平倉",
    "1156": "爆倉價開",
    "1157": "倉價開倉",
    "1158": "價開倉均",
    "1159": "開倉均價",
    "1160": "倉均價槓",
    "1161": "均價槓桿",
    "1162": "價槓桿維",
    "1163": "幣安介面",
    "1164": "自動平倉",
    "1165": "formula",
    "1166": "best",
    "1167": "動減",
    "1168": "減倉",
    "1169": "自動減",
    "1170": "動減倉",
    "1171": "自動減倉",
    "1172": "訂單",
    "1173": "單的",
    "1174": "超過",
    "1175": "承擔",
    "1176": "範圍",
    "1177": "會強",
    "1178": "強制",
    "1179": "利方",
    "1180": "被的",
    "1181": "越高",
    "1182": "即使",
    "1183": "的幣",
    "1184": "會強制",
    "1185": "利方向",
    "1186": "的幣安",
    "1187": "單和",
    "1188": "麼情",
    "1189": "哪個",
    "1190": "價單和",
    "1191": "什麼情",
    "1192": "麼情況",
    "1193": "什麼情況",
    "1194": "優點",
    "1195": "缺點",
    "1196": "高波",
    "1197": "進出",
    "1198": "指定",
    "1199": "定價",
    "1200": "掛單",
    "1201": "機會",
    "1202": "等待",
    "1203": "場價格",
    "1204": "交優點",
    "1205": "高波動",
    "1206": "進出場",
    "1207": "指定價",
    "1208": "定價格",
    "1209": "成交優點",
    "1210": "指定價格",
    "1211": "after",
    "1212": "trigger",
    "1213": "works",
    "1214": "automatically",
    "1215": "enter",
    "1216": "resistance",
    "1217": "蹤止損單",
    "1218": "移動",
    "1219": "調整",
    "1220": "點隨",
    "1221": "隨價",
    "1222": "格上",
    "1223": "上漲",
    "1224": "移但",
    "1225": "但價",
    "1226": "點不",
    "1227": "下移",
    "1228": "參數",
    "1229": "距離",
    "1230": "潤奔",
    "1231": "奔跑",
    "1232": "同時",
    "1233": "獲利",
    "1234": "動追",
    "1235": "損點隨",
    "1236": "點隨價",
    "1237": "隨價格",
    "1238": "價格上",
    "1239": "格上漲",
    "1240": "移但價",
    "1241": "但價格",
    "1242": "損點不",
    "1243": "點不變",
    "1244": "利潤奔",
    "1245": "潤奔跑",
    "1246": "自動追",
    "1247": "動追蹤",
    "1248": "止損點隨",
    "1249": "損點隨價",
    "1250": "點隨價格",
    "1251": "價格上漲",
    "1252": "移但價格",
    "1253": "止損點不",
    "1254": "損點不變",
    "1255": "讓利潤奔",
    "1256": "利潤奔跑",
    "1257": "自動追蹤",
    "1258": "比較",
    "1259": "大消",
    "1260": "交價格",
    "1261": "重大消",
    "1262": "大消息",
    "1263": "成交價格",
    "1264": "重大消息",
    "1265": "連續",
    "1266": "續虧",
    "1267": "大風",
    "1268": "關鍵",
    "1269": "連續虧",
    "1270": "續虧損",
    "1271": "大風險",
    "1272": "連續虧損",
    "1273": "ratio",
    "1274": "minimum",
    "1275": "profit",
    "1276": "數是",
    "1277": "倍數是",
    "1278": "衡量",
    "1279": "結果",
    "1280": "觸及",
    "1281": "平均",
    "1282": "會自",
    "1283": "會自動",
    "1284": "phaserouter",
    "1285": "發布",
    "1286": "布前",
    "1287": "前後",
    "1288": "指數",
    "1289": "不足",
    "1290": "足的",
    "1291": "限制",
    "1292": "以上",
    "1293": "發布前",
    "1294": "布前後",
    "1295": "不足的",
    "1296": "自動交",
    "1297": "發布前後",
    "1298": "自動交易",
    "1299": "do",
    "1300": "calculate",
    "1301": "quantity",
    "1302": "this",
    "1303": "隨策",
    "1304": "的核",
    "1305": "邏輯",
    "1306": "跟隨策",
    "1307": "隨策略",
    "1308": "略的核",
    "1309": "的核心",
    "1310": "勢跟隨策",
    "1311": "跟隨策略",
    "1312": "隨策略的",
    "1313": "策略的核",
    "1314": "略的核心",
    "1315": "atr",
    "1316": "多範",
    "1317": "期均",
    "1318": "強度",
    "1319": "追高",
    "1320": "損設",
    "1321": "設在",
    "1322": "支撐",
    "1323": "倍以",
    "1324": "合的",
    "1325": "的市",
    "1326": "盪盤",
    "1327": "做多範",
    "1328": "多範例",
    "1329": "期均線",
    "1330": "止損設",
    "1331": "損設在",
    "1332": "的倍以",
    "1333": "適合的",
    "1334": "合的市",
    "1335": "的市場",
    "1336": "震盪盤",
    "1337": "盪盤整",
    "1338": "做多範例",
    "1339": "止損設在",
    "1340": "適合的市",
    "1341": "合的市場",
    "1342": "強趨勢行",
    "1343": "震盪盤整",
    "1344": "mean",
    "1345": "bb",
    "1346": "strong",
    "1347": "的情",
    "1348": "event",
    "1349": "significant",
    "1350": "reversals",
    "1351": "core",
    "1352": "os",
    "1353": "early",
    "1354": "aistrategyfusion",
    "1355": "破特",
    "1356": "有回",
    "1357": "回到",
    "1358": "間內",
    "1359": "破位",
    "1360": "位以",
    "1361": "突破特",
    "1362": "破特徵",
    "1363": "突破位",
    "1364": "破位以",
    "1365": "位以下",
    "1366": "突破特徵",
    "1367": "突破位以",
    "1368": "破位以下",
    "1369": "功能",
    "1370": "nlp",
    "1371": "sharpe",
    "1372": "sortino",
    "1373": "calmar",
    "1374": "略層",
    "1375": "依市",
    "1376": "動切",
    "1377": "切換",
    "1378": "析維",
    "1379": "維市",
    "1380": "場特",
    "1381": "徵新",
    "1382": "態動",
    "1383": "態融",
    "1384": "略推",
    "1385": "論新",
    "1386": "歷史",
    "1387": "引擎",
    "1388": "易前",
    "1389": "查系",
    "1390": "策略層",
    "1391": "依市場",
    "1392": "自動切",
    "1393": "動切換",
    "1394": "分析維",
    "1395": "析維市",
    "1396": "維市場",
    "1397": "市場特",
    "1398": "場特徵",
    "1399": "特徵新",
    "1400": "徵新聞",
    "1401": "緒分析",
    "1402": "模態動",
    "1403": "態動態",
    "1404": "態融合",
    "1405": "策略推",
    "1406": "略推論",
    "1407": "推論新",
    "1408": "論新聞",
    "1409": "交易前",
    "1410": "檢查系",
    "1411": "查系統",
    "1412": "自動切換",
    "1413": "分析維市",
    "1414": "析維市場",
    "1415": "維市場特",
    "1416": "市場特徵",
    "1417": "場特徵新",
    "1418": "特徵新聞",
    "1419": "徵新聞情",
    "1420": "聞情緒分",
    "1421": "情緒分析",
    "1422": "三模態動",
    "1423": "模態動態",
    "1424": "策略推論",
    "1425": "略推論新",
    "1426": "推論新聞",
    "1427": "檢查系統",
    "1428": "start",
    "1429": "run",
    "1430": "python",
    "1431": "main",
    "1432": "py",
    "1433": "symbol",
    "1434": "interval",
    "1435": "統狀",
    "1436": "系統狀",
    "1437": "統狀態",
    "1438": "系統狀態",
    "1439": "status",
    "1440": "模組",
    "1441": "聞分",
    "1442": "資料",
    "1443": "料庫",
    "1444": "新聞分",
    "1445": "聞分析",
    "1446": "資料庫",
    "1447": "新聞分析",
    "1448": "divergence",
    "1449": "對強",
    "1450": "域可",
    "1451": "反彈",
    "1452": "背離",
    "1453": "創新",
    "1454": "新高",
    "1455": "勢市",
    "1456": "場常",
    "1457": "常在",
    "1458": "在震",
    "1459": "盪超",
    "1460": "線應",
    "1461": "應改",
    "1462": "改用",
    "1463": "相對強",
    "1464": "區域可",
    "1465": "域可能",
    "1466": "創新高",
    "1467": "勢市場",
    "1468": "市場常",
    "1469": "場常在",
    "1470": "常在震",
    "1471": "在震盪",
    "1472": "震盪超",
    "1473": "線應改",
    "1474": "應改用",
    "1475": "區域可能",
    "1476": "勢市場常",
    "1477": "市場常在",
    "1478": "場常在震",
    "1479": "常在震盪",
    "1480": "在震盪超",
    "1481": "線應改用",
    "1482": "signals",
    "1483": "crosses",
    "1484": "zero",
    "1485": "軌中",
    "1486": "軌倍",
    "1487": "倍標",
    "1488": "帶寬",
    "1489": "大行",
    "1490": "價突",
    "1491": "軌可",
    "1492": "能超",
    "1493": "頭行",
    "1494": "中價",
    "1495": "格沿",
    "1496": "軌運",
    "1497": "運行",
    "1498": "軌中軌",
    "1499": "中軌倍",
    "1500": "軌倍標",
    "1501": "倍標準",
    "1502": "大行情",
    "1503": "盤價突",
    "1504": "價突破",
    "1505": "軌可能",
    "1506": "可能超",
    "1507": "頭行情",
    "1508": "情中價",
    "1509": "中價格",
    "1510": "價格沿",
    "1511": "軌運行",
    "1512": "軌中軌倍",
    "1513": "中軌倍標",
    "1514": "軌倍標準",
    "1515": "倍標準差",
    "1516": "收盤價突",
    "1517": "盤價突破",
    "1518": "軌可能超",
    "1519": "頭行情中",
    "1520": "行情中價",
    "1521": "情中價格",
    "1522": "中價格沿",
    "1523": "率偏",
    "1524": "緒過",
    "1525": "持續",
    "1526": "續付",
    "1527": "對應",
    "1528": "部區",
    "1529": "域注",
    "1530": "壓力",
    "1531": "費率偏",
    "1532": "情緒過",
    "1533": "持續付",
    "1534": "部區域",
    "1535": "區域注",
    "1536": "域注意",
    "1537": "頭情緒過",
    "1538": "部區域注",
    "1539": "區域注意",
    "1540": "麼是永",
    "1541": "什麼是永",
    "1542": "麼是永續",
    "1543": "約是",
    "1544": "一種",
    "1545": "種沒",
    "1546": "有到",
    "1547": "到期",
    "1548": "期日",
    "1549": "日的",
    "1550": "密貨",
    "1551": "貨幣",
    "1552": "幣衍",
    "1553": "品與",
    "1554": "與傳",
    "1555": "傳統",
    "1556": "統期",
    "1557": "期貨",
    "1558": "貨不",
    "1559": "同它",
    "1560": "它不",
    "1561": "不需",
    "1562": "要在",
    "1563": "在固",
    "1564": "固定",
    "1565": "定日",
    "1566": "日期",
    "1567": "期交",
    "1568": "交割",
    "1569": "割持",
    "1570": "者可",
    "1571": "以無",
    "1572": "無限",
    "1573": "限期",
    "1574": "期持",
    "1575": "有幣",
    "1576": "約以",
    "1577": "以計",
    "1578": "計價",
    "1579": "價和",
    "1580": "和結",
    "1581": "算是",
    "1582": "是目",
    "1583": "前交",
    "1584": "易量",
    "1585": "量最",
    "1586": "大的",
    "1587": "密衍",
    "1588": "品之",
    "1589": "之一",
    "1590": "合約是",
    "1591": "約是一",
    "1592": "是一種",
    "1593": "一種沒",
    "1594": "種沒有",
    "1595": "沒有到",
    "1596": "有到期",
    "1597": "到期日",
    "1598": "期日的",
    "1599": "日的加",
    "1600": "加密貨",
    "1601": "密貨幣",
    "1602": "貨幣衍",
    "1603": "幣衍生",
    "1604": "生品與",
    "1605": "品與傳",
    "1606": "與傳統",
    "1607": "傳統期",
    "1608": "統期貨",
    "1609": "期貨不",
    "1610": "貨不同",
    "1611": "不同它",
    "1612": "同它不",
    "1613": "它不需",
    "1614": "不需要",
    "1615": "需要在",
    "1616": "要在固",
    "1617": "在固定",
    "1618": "固定日",
    "1619": "定日期",
    "1620": "日期交",
    "1621": "期交割",
    "1622": "交割持",
    "1623": "割持倉",
    "1624": "倉者可",
    "1625": "者可以",
    "1626": "可以無",
    "1627": "以無限",
    "1628": "無限期",
    "1629": "限期持",
    "1630": "期持有",
    "1631": "持有幣",
    "1632": "有幣安",
    "1633": "合約以",
    "1634": "約以計",
    "1635": "以計價",
    "1636": "計價和",
    "1637": "價和結",
    "1638": "和結算",
    "1639": "結算是",
    "1640": "算是目",
    "1641": "是目前",
    "1642": "目前交",
    "1643": "前交易",
    "1644": "交易量",
    "1645": "易量最",
    "1646": "量最大",
    "1647": "最大的",
    "1648": "大的加",
    "1649": "加密衍",
    "1650": "密衍生",
    "1651": "生品之",
    "1652": "品之一",
    "1653": "續合約是",
    "1654": "合約是一",
    "1655": "約是一種",
    "1656": "是一種沒",
    "1657": "一種沒有",
    "1658": "種沒有到",
    "1659": "沒有到期",
    "1660": "有到期日",
    "1661": "到期日的",
    "1662": "期日的加",
    "1663": "日的加密",
    "1664": "的加密貨",
    "1665": "加密貨幣",
    "1666": "密貨幣衍",
    "1667": "貨幣衍生",
    "1668": "幣衍生品",
    "1669": "衍生品與",
    "1670": "生品與傳",
    "1671": "品與傳統",
    "1672": "與傳統期",
    "1673": "傳統期貨",
    "1674": "統期貨不",
    "1675": "期貨不同",
    "1676": "貨不同它",
    "1677": "不同它不",
    "1678": "同它不需",
    "1679": "它不需要",
    "1680": "不需要在",
    "1681": "需要在固",
    "1682": "要在固定",
    "1683": "在固定日",
    "1684": "固定日期",
    "1685": "定日期交",
    "1686": "日期交割",
    "1687": "期交割持",
    "1688": "交割持倉",
    "1689": "割持倉者",
    "1690": "持倉者可",
    "1691": "倉者可以",
    "1692": "者可以無",
    "1693": "可以無限",
    "1694": "以無限期",
    "1695": "無限期持",
    "1696": "限期持有",
    "1697": "期持有幣",
    "1698": "持有幣安",
    "1699": "有幣安永",
    "1700": "續合約以",
    "1701": "合約以計",
    "1702": "約以計價",
    "1703": "以計價和",
    "1704": "計價和結",
    "1705": "價和結算",
    "1706": "和結算是",
    "1707": "結算是目",
    "1708": "算是目前",
    "1709": "是目前交",
    "1710": "目前交易",
    "1711": "前交易量",
    "1712": "交易量最",
    "1713": "易量最大",
    "1714": "量最大的",
    "1715": "最大的加",
    "1716": "大的加密",
    "1717": "的加密衍",
    "1718": "加密衍生",
    "1719": "密衍生品",
    "1720": "衍生品之",
    "1721": "生品之一",
    "1722": "derivative",
    "1723": "product",
    "1724": "expiration",
    "1725": "unlike",
    "1726": "traditional",
    "1727": "there",
    "1728": "fixed",
    "1729": "settlement",
    "1730": "be",
    "1731": "held",
    "1732": "indefinitely",
    "1733": "denominated",
    "1734": "settled",
    "1735": "making",
    "1736": "them",
    "1737": "highest",
    "1738": "crypto",
    "1739": "derivatives",
    "1740": "約最",
    "1741": "高可",
    "1742": "用多",
    "1743": "少倍",
    "1744": "合約最",
    "1745": "約最高",
    "1746": "最高可",
    "1747": "高可以",
    "1748": "以用多",
    "1749": "用多少",
    "1750": "多少倍",
    "1751": "少倍槓",
    "1752": "安合約最",
    "1753": "合約最高",
    "1754": "約最高可",
    "1755": "最高可以",
    "1756": "高可以用",
    "1757": "可以用多",
    "1758": "以用多少",
    "1759": "用多少倍",
    "1760": "多少倍槓",
    "1761": "少倍槓桿",
    "1762": "約的",
    "1763": "的槓",
    "1764": "限依",
    "1765": "依幣",
    "1766": "幣種",
    "1767": "種而",
    "1768": "而異",
    "1769": "異最",
    "1770": "倍最",
    "1771": "倍其",
    "1772": "他主",
    "1773": "流幣",
    "1774": "幣通",
    "1775": "常倍",
    "1776": "倍新",
    "1777": "新帳",
    "1778": "戶開",
    "1779": "開戶",
    "1780": "戶天",
    "1781": "天內",
    "1782": "內槓",
    "1783": "限為",
    "1784": "為倍",
    "1785": "倍建",
    "1786": "議新",
    "1787": "手使",
    "1788": "桿高",
    "1789": "桿會",
    "1790": "會大",
    "1791": "大幅",
    "1792": "幅提",
    "1793": "提高",
    "1794": "高爆",
    "1795": "倉風",
    "1796": "合約的",
    "1797": "約的槓",
    "1798": "的槓桿",
    "1799": "上限依",
    "1800": "限依幣",
    "1801": "依幣種",
    "1802": "幣種而",
    "1803": "種而異",
    "1804": "而異最",
    "1805": "異最高",
    "1806": "高倍最",
    "1807": "倍最高",
    "1808": "高倍其",
    "1809": "倍其他",
    "1810": "其他主",
    "1811": "他主流",
    "1812": "主流幣",
    "1813": "流幣通",
    "1814": "幣通常",
    "1815": "通常倍",
    "1816": "常倍新",
    "1817": "倍新帳",
    "1818": "新帳戶",
    "1819": "帳戶開",
    "1820": "戶開戶",
    "1821": "開戶天",
    "1822": "戶天內",
    "1823": "天內槓",
    "1824": "內槓桿",
    "1825": "上限為",
    "1826": "限為倍",
    "1827": "為倍建",
    "1828": "倍建議",
    "1829": "建議新",
    "1830": "議新手",
    "1831": "新手使",
    "1832": "手使用",
    "1833": "用倍槓",
    "1834": "槓桿高",
    "1835": "桿高槓",
    "1836": "槓桿會",
    "1837": "桿會大",
    "1838": "會大幅",
    "1839": "大幅提",
    "1840": "幅提高",
    "1841": "提高爆",
    "1842": "高爆倉",
    "1843": "爆倉風",
    "1844": "倉風險",
    "1845": "安合約的",
    "1846": "合約的槓",
    "1847": "約的槓桿",
    "1848": "的槓桿上",
    "1849": "桿上限依",
    "1850": "上限依幣",
    "1851": "限依幣種",
    "1852": "依幣種而",
    "1853": "幣種而異",
    "1854": "種而異最",
    "1855": "而異最高",
    "1856": "異最高倍",
    "1857": "最高倍最",
    "1858": "高倍最高",
    "1859": "倍最高倍",
    "1860": "最高倍其",
    "1861": "高倍其他",
    "1862": "倍其他主",
    "1863": "其他主流",
    "1864": "他主流幣",
    "1865": "主流幣通",
    "1866": "流幣通常",
    "1867": "幣通常倍",
    "1868": "通常倍新",
    "1869": "常倍新帳",
    "1870": "倍新帳戶",
    "1871": "新帳戶開",
    "1872": "帳戶開戶",
    "1873": "戶開戶天",
    "1874": "開戶天內",
    "1875": "戶天內槓",
    "1876": "天內槓桿",
    "1877": "內槓桿上",
    "1878": "桿上限為",
    "1879": "上限為倍",
    "1880": "限為倍建",
    "1881": "為倍建議",
    "1882": "倍建議新",
    "1883": "建議新手",
    "1884": "議新手使",
    "1885": "新手使用",
    "1886": "手使用倍",
    "1887": "使用倍槓",
    "1888": "用倍槓桿",
    "1889": "倍槓桿高",
    "1890": "槓桿高槓",
    "1891": "桿高槓桿",
    "1892": "高槓桿會",
    "1893": "槓桿會大",
    "1894": "桿會大幅",
    "1895": "會大幅提",
    "1896": "大幅提高",
    "1897": "幅提高爆",
    "1898": "提高爆倉",
    "1899": "高爆倉風",
    "1900": "爆倉風險",
    "1901": "depends",
    "1902": "pair",
    "1903": "most",
    "1904": "altcoins",
    "1905": "accounts",
    "1906": "newer",
    "1907": "than",
    "1908": "days",
    "1909": "high",
    "1910": "dramatically",
    "1911": "increases",
    "1912": "金和",
    "1913": "和全",
    "1914": "金有",
    "1915": "麼差",
    "1916": "逐倉保",
    "1917": "證金和",
    "1918": "金和全",
    "1919": "和全倉",
    "1920": "全倉保",
    "1921": "證金有",
    "1922": "金有什",
    "1923": "什麼差",
    "1924": "麼差別",
    "1925": "逐倉保證",
    "1926": "保證金和",
    "1927": "證金和全",
    "1928": "金和全倉",
    "1929": "和全倉保",
    "1930": "全倉保證",
    "1931": "保證金有",
    "1932": "證金有什",
    "1933": "金有什麼",
    "1934": "有什麼差",
    "1935": "什麼差別",
    "1936": "倉每",
    "1937": "每個",
    "1938": "個倉",
    "1939": "位使",
    "1940": "用獨",
    "1941": "獨立",
    "1942": "立的",
    "1943": "金損",
    "1944": "失上",
    "1945": "限就",
    "1946": "就是",
    "1947": "是該",
    "1948": "該倉",
    "1949": "位投",
    "1950": "投入",
    "1951": "入的",
    "1952": "的金",
    "1953": "額爆",
    "1954": "倉只",
    "1955": "只影",
    "1956": "響單",
    "1957": "單一",
    "1958": "一倉",
    "1959": "會波",
    "1960": "波及",
    "1961": "及帳",
    "1962": "戶其",
    "1963": "他資",
    "1964": "合新",
    "1965": "手或",
    "1966": "或想",
    "1967": "想嚴",
    "1968": "嚴格",
    "1969": "格控",
    "1970": "制單",
    "1971": "單筆",
    "1972": "筆風",
    "1973": "者全",
    "1974": "倉帳",
    "1975": "戶所",
    "1976": "有餘",
    "1977": "餘額",
    "1978": "額共",
    "1979": "共同",
    "1980": "同作",
    "1981": "為所",
    "1982": "有倉",
    "1983": "位的",
    "1984": "金盈",
    "1985": "利倉",
    "1986": "位可",
    "1987": "以支",
    "1988": "支援",
    "1989": "援虧",
    "1990": "不容",
    "1991": "易爆",
    "1992": "倉但",
    "1993": "但若",
    "1994": "動可",
    "1995": "能損",
    "1996": "失全",
    "1997": "全部",
    "1998": "部帳",
    "1999": "戶資",
    "2000": "合對",
    "2001": "對倉",
    "2002": "位管",
    "2003": "管理",
    "2004": "理有",
    "2005": "有經",
    "2006": "經驗",
    "2007": "驗的",
    "2008": "逐倉每",
    "2009": "倉每個",
    "2010": "每個倉",
    "2011": "個倉位",
    "2012": "倉位使",
    "2013": "位使用",
    "2014": "使用獨",
    "2015": "用獨立",
    "2016": "獨立的",
    "2017": "立的保",
    "2018": "證金損",
    "2019": "金損失",
    "2020": "損失上",
    "2021": "失上限",
    "2022": "上限就",
    "2023": "限就是",
    "2024": "就是該",
    "2025": "是該倉",
    "2026": "該倉位",
    "2027": "倉位投",
    "2028": "位投入",
    "2029": "投入的",
    "2030": "入的金",
    "2031": "的金額",
    "2032": "金額爆",
    "2033": "額爆倉",
    "2034": "爆倉只",
    "2035": "倉只影",
    "2036": "只影響",
    "2037": "影響單",
    "2038": "響單一",
    "2039": "單一倉",
    "2040": "一倉位",
    "2041": "不會波",
    "2042": "會波及",
    "2043": "波及帳",
    "2044": "及帳戶",
    "2045": "帳戶其",
    "2046": "戶其他",
    "2047": "其他資",
    "2048": "他資金",
    "2049": "適合新",
    "2050": "合新手",
    "2051": "新手或",
    "2052": "手或想",
    "2053": "或想嚴",
    "2054": "想嚴格",
    "2055": "嚴格控",
    "2056": "格控制",
    "2057": "控制單",
    "2058": "制單筆",
    "2059": "單筆風",
    "2060": "筆風險",
    "2061": "險的交",
    "2062": "易者全",
    "2063": "者全倉",
    "2064": "全倉帳",
    "2065": "倉帳戶",
    "2066": "帳戶所",
    "2067": "戶所有",
    "2068": "所有餘",
    "2069": "有餘額",
    "2070": "餘額共",
    "2071": "額共同",
    "2072": "共同作",
    "2073": "同作為",
    "2074": "作為所",
    "2075": "為所有",
    "2076": "所有倉",
    "2077": "有倉位",
    "2078": "倉位的",
    "2079": "位的保",
    "2080": "證金盈",
    "2081": "金盈利",
    "2082": "盈利倉",
    "2083": "利倉位",
    "2084": "倉位可",
    "2085": "位可以",
    "2086": "可以支",
    "2087": "以支援",
    "2088": "支援虧",
    "2089": "援虧損",
    "2090": "虧損倉",
    "2091": "位不容",
    "2092": "不容易",
    "2093": "容易爆",
    "2094": "易爆倉",
    "2095": "爆倉但",
    "2096": "倉但若",
    "2097": "但若市",
    "2098": "波動可",
    "2099": "動可能",
    "2100": "可能損",
    "2101": "能損失",
    "2102": "損失全",
    "2103": "失全部",
    "2104": "全部帳",
    "2105": "部帳戶",
    "2106": "帳戶資",
    "2107": "戶資金",
    "2108": "適合對",
    "2109": "合對倉",
    "2110": "對倉位",
    "2111": "倉位管",
    "2112": "位管理",
    "2113": "管理有",
    "2114": "理有經",
    "2115": "有經驗",
    "2116": "經驗的",
    "2117": "驗的交",
    "2118": "逐倉每個",
    "2119": "倉每個倉",
    "2120": "每個倉位",
    "2121": "個倉位使",
    "2122": "倉位使用",
    "2123": "位使用獨",
    "2124": "使用獨立",
    "2125": "用獨立的",
    "2126": "獨立的保",
    "2127": "立的保證",
    "2128": "保證金損",
    "2129": "證金損失",
    "2130": "金損失上",
    "2131": "損失上限",
    "2132": "失上限就",
    "2133": "上限就是",
    "2134": "限就是該",
    "2135": "就是該倉",
    "2136": "是該倉位",
    "2137": "該倉位投",
    "2138": "倉位投入",
    "2139": "位投入的",
    "2140": "投入的金",
    "2141": "入的金額",
    "2142": "的金額爆",
    "2143": "金額爆倉",
    "2144": "額爆倉只",
    "2145": "爆倉只影",
    "2146": "倉只影響",
    "2147": "只影響單",
    "2148": "影響單一",
    "2149": "響單一倉",
    "2150": "單一倉位",
    "2151": "一倉位不",
    "2152": "位不會波",
    "2153": "不會波及",
    "2154": "會波及帳",
    "2155": "波及帳戶",
    "2156": "及帳戶其",
    "2157": "帳戶其他",
    "2158": "戶其他資",
    "2159": "其他資金",
    "2160": "他資金適",
    "2161": "金適合新",
    "2162": "適合新手",
    "2163": "合新手或",
    "2164": "新手或想",
    "2165": "手或想嚴",
    "2166": "或想嚴格",
    "2167": "想嚴格控",
    "2168": "嚴格控制",
    "2169": "格控制單",
    "2170": "控制單筆",
    "2171": "制單筆風",
    "2172": "單筆風險",
    "2173": "筆風險的",
    "2174": "風險的交",
    "2175": "險的交易",
    "2176": "交易者全",
    "2177": "易者全倉",
    "2178": "者全倉帳",
    "2179": "全倉帳戶",
    "2180": "倉帳戶所",
    "2181": "帳戶所有",
    "2182": "戶所有餘",
    "2183": "所有餘額",
    "2184": "有餘額共",
    "2185": "餘額共同",
    "2186": "額共同作",
    "2187": "共同作為",
    "2188": "同作為所",
    "2189": "作為所有",
    "2190": "為所有倉",
    "2191": "所有倉位",
    "2192": "有倉位的",
    "2193": "倉位的保",
    "2194": "位的保證",
    "2195": "保證金盈",
    "2196": "證金盈利",
    "2197": "金盈利倉",
    "2198": "盈利倉位",
    "2199": "利倉位可",
    "2200": "倉位可以",
    "2201": "位可以支",
    "2202": "可以支援",
    "2203": "以支援虧",
    "2204": "支援虧損",
    "2205": "援虧損倉",
    "2206": "虧損倉位",
    "2207": "損倉位不",
    "2208": "倉位不容",
    "2209": "位不容易",
    "2210": "不容易爆",
    "2211": "容易爆倉",
    "2212": "易爆倉但",
    "2213": "爆倉但若",
    "2214": "倉但若市",
    "2215": "但若市場",
    "2216": "若市場極",
    "2217": "端波動可",
    "2218": "波動可能",
    "2219": "動可能損",
    "2220": "可能損失",
    "2221": "能損失全",
    "2222": "損失全部",
    "2223": "失全部帳",
    "2224": "全部帳戶",
    "2225": "部帳戶資",
    "2226": "帳戶資金",
    "2227": "戶資金適",
    "2228": "金適合對",
    "2229": "適合對倉",
    "2230": "合對倉位",
    "2231": "對倉位管",
    "2232": "倉位管理",
    "2233": "位管理有",
    "2234": "管理有經",
    "2235": "理有經驗",
    "2236": "有經驗的",
    "2237": "經驗的交",
    "2238": "驗的交易",
    "2239": "difference",
    "2240": "between",
    "2241": "each",
    "2242": "its",
    "2243": "own",
    "2244": "separate",
    "2245": "amount",
    "2246": "only",
    "2247": "affects",
    "2248": "specific",
    "2249": "recommended",
    "2250": "who",
    "2251": "want",
    "2252": "strict",
    "2253": "per",
    "2254": "shared",
    "2255": "across",
    "2256": "losing",
    "2257": "ones",
    "2258": "reducing",
    "2259": "frequency",
    "2260": "extreme",
    "2261": "wipe",
    "2262": "suited",
    "2263": "experienced",
    "2264": "managing",
    "2265": "麼怎",
    "2266": "率是什",
    "2267": "什麼怎",
    "2268": "麼怎麼",
    "2269": "費率是什",
    "2270": "率是什麼",
    "2271": "是什麼怎",
    "2272": "什麼怎麼",
    "2273": "麼怎麼計",
    "2274": "約特",
    "2275": "特有",
    "2276": "有的",
    "2277": "時結",
    "2278": "算一",
    "2279": "一次",
    "2280": "次用",
    "2281": "用來",
    "2282": "來讓",
    "2283": "讓合",
    "2284": "約價",
    "2285": "格貼",
    "2286": "貼近",
    "2287": "近現",
    "2288": "貨市",
    "2289": "場費",
    "2290": "正多",
    "2291": "頭做",
    "2292": "多方",
    "2293": "方付",
    "2294": "偏多",
    "2295": "緒費",
    "2296": "為負",
    "2297": "負空",
    "2298": "頭付",
    "2299": "給多",
    "2300": "偏空",
    "2301": "緒計",
    "2302": "算方",
    "2303": "式支",
    "2304": "付金",
    "2305": "額倉",
    "2306": "值資",
    "2307": "率例",
    "2308": "例持",
    "2309": "有多",
    "2310": "單名",
    "2311": "值費",
    "2312": "率支",
    "2313": "付付",
    "2314": "頭方",
    "2315": "方資",
    "2316": "響持",
    "2317": "倉成",
    "2318": "本的",
    "2319": "的重",
    "2320": "要因",
    "2321": "因素",
    "2322": "素長",
    "2323": "長時",
    "2324": "間持",
    "2325": "倉需",
    "2326": "需特",
    "2327": "特別",
    "2328": "別關",
    "2329": "關注",
    "2330": "率是永",
    "2331": "合約特",
    "2332": "約特有",
    "2333": "特有的",
    "2334": "有的機",
    "2335": "的機制",
    "2336": "機制每",
    "2337": "制每小",
    "2338": "小時結",
    "2339": "時結算",
    "2340": "結算一",
    "2341": "算一次",
    "2342": "一次用",
    "2343": "次用來",
    "2344": "用來讓",
    "2345": "來讓合",
    "2346": "讓合約",
    "2347": "合約價",
    "2348": "約價格",
    "2349": "價格貼",
    "2350": "格貼近",
    "2351": "貼近現",
    "2352": "近現貨",
    "2353": "現貨市",
    "2354": "貨市場",
    "2355": "市場費",
    "2356": "場費率",
    "2357": "率為正",
    "2358": "為正多",
    "2359": "正多頭",
    "2360": "多頭做",
    "2361": "頭做多",
    "2362": "做多方",
    "2363": "多方付",
    "2364": "方付給",
    "2365": "空頭代",
    "2366": "場偏多",
    "2367": "偏多頭",
    "2368": "情緒費",
    "2369": "緒費率",
    "2370": "率為負",
    "2371": "為負空",
    "2372": "負空頭",
    "2373": "空頭付",
    "2374": "頭付給",
    "2375": "付給多",
    "2376": "給多頭",
    "2377": "多頭代",
    "2378": "場偏空",
    "2379": "偏空頭",
    "2380": "情緒計",
    "2381": "緒計算",
    "2382": "計算方",
    "2383": "算方式",
    "2384": "方式支",
    "2385": "式支付",
    "2386": "支付金",
    "2387": "付金額",
    "2388": "金額倉",
    "2389": "額倉位",
    "2390": "價值資",
    "2391": "值資金",
    "2392": "費率例",
    "2393": "率例持",
    "2394": "例持有",
    "2395": "持有多",
    "2396": "有多單",
    "2397": "多單名",
    "2398": "單名義",
    "2399": "價值費",
    "2400": "值費率",
    "2401": "費率支",
    "2402": "率支付",
    "2403": "支付付",
    "2404": "付付給",
    "2405": "空頭方",
    "2406": "頭方資",
    "2407": "方資金",
    "2408": "率是影",
    "2409": "是影響",
    "2410": "影響持",
    "2411": "響持倉",
    "2412": "持倉成",
    "2413": "倉成本",
    "2414": "成本的",
    "2415": "本的重",
    "2416": "的重要",
    "2417": "重要因",
    "2418": "要因素",
    "2419": "因素長",
    "2420": "素長時",
    "2421": "長時間",
    "2422": "時間持",
    "2423": "間持倉",
    "2424": "持倉需",
    "2425": "倉需特",
    "2426": "需特別",
    "2427": "特別關",
    "2428": "別關注",
    "2429": "費率是永",
    "2430": "率是永續",
    "2431": "續合約特",
    "2432": "合約特有",
    "2433": "約特有的",
    "2434": "特有的機",
    "2435": "有的機制",
    "2436": "的機制每",
    "2437": "機制每小",
    "2438": "制每小時",
    "2439": "每小時結",
    "2440": "小時結算",
    "2441": "時結算一",
    "2442": "結算一次",
    "2443": "算一次用",
    "2444": "一次用來",
    "2445": "次用來讓",
    "2446": "用來讓合",
    "2447": "來讓合約",
    "2448": "讓合約價",
    "2449": "合約價格",
    "2450": "約價格貼",
    "2451": "價格貼近",
    "2452": "格貼近現",
    "2453": "貼近現貨",
    "2454": "近現貨市",
    "2455": "現貨市場",
    "2456": "貨市場費",
    "2457": "市場費率",
    "2458": "場費率為",
    "2459": "費率為正",
    "2460": "率為正多",
    "2461": "為正多頭",
    "2462": "正多頭做",
    "2463": "多頭做多",
    "2464": "頭做多方",
    "2465": "做多方付",
    "2466": "多方付給",
    "2467": "方付給空",
    "2468": "給空頭代",
    "2469": "空頭代表",
    "2470": "市場偏多",
    "2471": "場偏多頭",
    "2472": "偏多頭情",
    "2473": "頭情緒費",
    "2474": "情緒費率",
    "2475": "緒費率為",
    "2476": "費率為負",
    "2477": "率為負空",
    "2478": "為負空頭",
    "2479": "負空頭付",
    "2480": "空頭付給",
    "2481": "頭付給多",
    "2482": "付給多頭",
    "2483": "給多頭代",
    "2484": "多頭代表",
    "2485": "市場偏空",
    "2486": "場偏空頭",
    "2487": "偏空頭情",
    "2488": "頭情緒計",
    "2489": "情緒計算",
    "2490": "緒計算方",
    "2491": "計算方式",
    "2492": "算方式支",
    "2493": "方式支付",
    "2494": "式支付金",
    "2495": "支付金額",
    "2496": "付金額倉",
    "2497": "金額倉位",
    "2498": "額倉位名",
    "2499": "義價值資",
    "2500": "價值資金",
    "2501": "值資金費",
    "2502": "金費率例",
    "2503": "費率例持",
    "2504": "率例持有",
    "2505": "例持有多",
    "2506": "持有多單",
    "2507": "有多單名",
    "2508": "多單名義",
    "2509": "單名義價",
    "2510": "義價值費",
    "2511": "價值費率",
    "2512": "值費率支",
    "2513": "費率支付",
    "2514": "率支付付",
    "2515": "支付付給",
    "2516": "付付給空",
    "2517": "給空頭方",
    "2518": "空頭方資",
    "2519": "頭方資金",
    "2520": "方資金費",
    "2521": "費率是影",
    "2522": "率是影響",
    "2523": "是影響持",
    "2524": "影響持倉",
    "2525": "響持倉成",
    "2526": "持倉成本",
    "2527": "倉成本的",
    "2528": "成本的重",
    "2529": "本的重要",
    "2530": "的重要因",
    "2531": "重要因素",
    "2532": "要因素長",
    "2533": "因素長時",
    "2534": "素長時間",
    "2535": "長時間持",
    "2536": "時間持倉",
    "2537": "間持倉需",
    "2538": "持倉需特",
    "2539": "倉需特別",
    "2540": "需特別關",
    "2541": "特別關注",
    "2542": "work",
    "2543": "mechanism",
    "2544": "unique",
    "2545": "contracts",
    "2546": "settles",
    "2547": "hours",
    "2548": "keep",
    "2549": "aligned",
    "2550": "spot",
    "2551": "negative",
    "2552": "calculation",
    "2553": "payment",
    "2554": "paid",
    "2555": "shorts",
    "2556": "rates",
    "2557": "significantly",
    "2558": "impact",
    "2559": "overnight",
    "2560": "term",
    "2561": "格和",
    "2562": "和最",
    "2563": "價有",
    "2564": "麼不",
    "2565": "價格和",
    "2566": "格和最",
    "2567": "和最後",
    "2568": "交價有",
    "2569": "價有什",
    "2570": "什麼不",
    "2571": "麼不同",
    "2572": "記價格和",
    "2573": "價格和最",
    "2574": "格和最後",
    "2575": "和最後成",
    "2576": "成交價有",
    "2577": "交價有什",
    "2578": "價有什麼",
    "2579": "有什麼不",
    "2580": "什麼不同",
    "2581": "last",
    "2582": "價合",
    "2583": "場中",
    "2584": "中最",
    "2585": "筆實",
    "2586": "交的",
    "2587": "格會",
    "2588": "會因",
    "2589": "期流",
    "2590": "性或",
    "2591": "控而",
    "2592": "而波",
    "2593": "動標",
    "2594": "格由",
    "2595": "由幣",
    "2596": "安根",
    "2597": "根據",
    "2598": "據多",
    "2599": "多個",
    "2600": "個主",
    "2601": "流現",
    "2602": "貨交",
    "2603": "易所",
    "2604": "所的",
    "2605": "格加",
    "2606": "權計",
    "2607": "算反",
    "2608": "反映",
    "2609": "映公",
    "2610": "公允",
    "2611": "允市",
    "2612": "值幣",
    "2613": "安使",
    "2614": "用標",
    "2615": "格來",
    "2616": "來觸",
    "2617": "發爆",
    "2618": "倉防",
    "2619": "防止",
    "2620": "止因",
    "2621": "暫插",
    "2622": "插針",
    "2623": "針或",
    "2624": "控引",
    "2625": "引發",
    "2626": "發不",
    "2627": "不公",
    "2628": "公平",
    "2629": "平清",
    "2630": "算計",
    "2631": "算未",
    "2632": "未實",
    "2633": "實現",
    "2634": "現損",
    "2635": "益實",
    "2636": "際例",
    "2637": "例子",
    "2638": "子若",
    "2639": "若有",
    "2640": "有人",
    "2641": "人在",
    "2642": "在合",
    "2643": "場砸",
    "2644": "砸盤",
    "2645": "盤導",
    "2646": "導致",
    "2647": "致最",
    "2648": "價短",
    "2649": "暫大",
    "2650": "大跌",
    "2651": "跌但",
    "2652": "但現",
    "2653": "貨價",
    "2654": "格正",
    "2655": "正常",
    "2656": "常標",
    "2657": "變你",
    "2658": "會被",
    "2659": "被清",
    "2660": "交價合",
    "2661": "價合約",
    "2662": "市場中",
    "2663": "場中最",
    "2664": "中最後",
    "2665": "最後一",
    "2666": "後一筆",
    "2667": "一筆實",
    "2668": "筆實際",
    "2669": "成交的",
    "2670": "交的價",
    "2671": "價格會",
    "2672": "格會因",
    "2673": "會因短",
    "2674": "因短期",
    "2675": "短期流",
    "2676": "期流動",
    "2677": "動性或",
    "2678": "性或操",
    "2679": "操控而",
    "2680": "控而波",
    "2681": "而波動",
    "2682": "波動標",
    "2683": "動標記",
    "2684": "價格由",
    "2685": "格由幣",
    "2686": "由幣安",
    "2687": "幣安根",
    "2688": "安根據",
    "2689": "根據多",
    "2690": "據多個",
    "2691": "多個主",
    "2692": "個主流",
    "2693": "主流現",
    "2694": "流現貨",
    "2695": "現貨交",
    "2696": "貨交易",
    "2697": "交易所",
    "2698": "易所的",
    "2699": "所的價",
    "2700": "價格加",
    "2701": "格加權",
    "2702": "加權計",
    "2703": "權計算",
    "2704": "計算反",
    "2705": "算反映",
    "2706": "反映公",
    "2707": "映公允",
    "2708": "公允市",
    "2709": "允市場",
    "2710": "場價值",
    "2711": "價值幣",
    "2712": "值幣安",
    "2713": "幣安使",
    "2714": "安使用",
    "2715": "使用標",
    "2716": "用標記",
    "2717": "價格來",
    "2718": "格來觸",
    "2719": "來觸發",
    "2720": "觸發爆",
    "2721": "發爆倉",
    "2722": "爆倉防",
    "2723": "倉防止",
    "2724": "防止因",
    "2725": "止因短",
    "2726": "因短暫",
    "2727": "短暫插",
    "2728": "暫插針",
    "2729": "插針或",
    "2730": "針或操",
    "2731": "操控引",
    "2732": "控引發",
    "2733": "引發不",
    "2734": "發不公",
    "2735": "不公平",
    "2736": "公平清",
    "2737": "平清算",
    "2738": "清算計",
    "2739": "算計算",
    "2740": "計算未",
    "2741": "算未實",
    "2742": "未實現",
    "2743": "實現損",
    "2744": "現損益",
    "2745": "損益實",
    "2746": "益實際",
    "2747": "實際例",
    "2748": "際例子",
    "2749": "例子若",
    "2750": "子若有",
    "2751": "若有人",
    "2752": "有人在",
    "2753": "人在合",
    "2754": "在合約",
    "2755": "市場砸",
    "2756": "場砸盤",
    "2757": "砸盤導",
    "2758": "盤導致",
    "2759": "導致最",
    "2760": "致最後",
    "2761": "交價短",
    "2762": "價短暫",
    "2763": "短暫大",
    "2764": "暫大跌",
    "2765": "大跌但",
    "2766": "跌但現",
    "2767": "但現貨",
    "2768": "現貨價",
    "2769": "貨價格",
    "2770": "價格正",
    "2771": "格正常",
    "2772": "正常標",
    "2773": "常標記",
    "2774": "格不變",
    "2775": "不變你",
    "2776": "變你的",
    "2777": "不會被",
    "2778": "會被清",
    "2779": "被清算",
    "2780": "成交價合",
    "2781": "交價合約",
    "2782": "價合約市",
    "2783": "約市場中",
    "2784": "市場中最",
    "2785": "場中最後",
    "2786": "中最後一",
    "2787": "最後一筆",
    "2788": "後一筆實",
    "2789": "一筆實際",
    "2790": "筆實際成",
    "2791": "際成交的",
    "2792": "成交的價",
    "2793": "交的價格",
    "2794": "的價格會",
    "2795": "價格會因",
    "2796": "格會因短",
    "2797": "會因短期",
    "2798": "因短期流",
    "2799": "短期流動",
    "2800": "期流動性",
    "2801": "流動性或",
    "2802": "動性或操",
    "2803": "性或操控",
    "2804": "或操控而",
    "2805": "操控而波",
    "2806": "控而波動",
    "2807": "而波動標",
    "2808": "波動標記",
    "2809": "動標記價",
    "2810": "記價格由",
    "2811": "價格由幣",
    "2812": "格由幣安",
    "2813": "由幣安根",
    "2814": "幣安根據",
    "2815": "安根據多",
    "2816": "根據多個",
    "2817": "據多個主",
    "2818": "多個主流",
    "2819": "個主流現",
    "2820": "主流現貨",
    "2821": "流現貨交",
    "2822": "現貨交易",
    "2823": "貨交易所",
    "2824": "交易所的",
    "2825": "易所的價",
    "2826": "所的價格",
    "2827": "的價格加",
    "2828": "價格加權",
    "2829": "格加權計",
    "2830": "加權計算",
    "2831": "權計算反",
    "2832": "計算反映",
    "2833": "算反映公",
    "2834": "反映公允",
    "2835": "映公允市",
    "2836": "公允市場",
    "2837": "允市場價",
    "2838": "市場價值",
    "2839": "場價值幣",
    "2840": "價值幣安",
    "2841": "值幣安使",
    "2842": "幣安使用",
    "2843": "安使用標",
    "2844": "使用標記",
    "2845": "用標記價",
    "2846": "記價格來",
    "2847": "價格來觸",
    "2848": "格來觸發",
    "2849": "來觸發爆",
    "2850": "觸發爆倉",
    "2851": "發爆倉防",
    "2852": "爆倉防止",
    "2853": "倉防止因",
    "2854": "防止因短",
    "2855": "止因短暫",
    "2856": "因短暫插",
    "2857": "短暫插針",
    "2858": "暫插針或",
    "2859": "插針或操",
    "2860": "針或操控",
    "2861": "或操控引",
    "2862": "操控引發",
    "2863": "控引發不",
    "2864": "引發不公",
    "2865": "發不公平",
    "2866": "不公平清",
    "2867": "公平清算",
    "2868": "平清算計",
    "2869": "清算計算",
    "2870": "算計算未",
    "2871": "計算未實",
    "2872": "算未實現",
    "2873": "未實現損",
    "2874": "實現損益",
    "2875": "現損益實",
    "2876": "損益實際",
    "2877": "益實際例",
    "2878": "實際例子",
    "2879": "際例子若",
    "2880": "例子若有",
    "2881": "子若有人",
    "2882": "若有人在",
    "2883": "有人在合",
    "2884": "人在合約",
    "2885": "在合約市",
    "2886": "約市場砸",
    "2887": "市場砸盤",
    "2888": "場砸盤導",
    "2889": "砸盤導致",
    "2890": "盤導致最",
    "2891": "導致最後",
    "2892": "致最後成",
    "2893": "成交價短",
    "2894": "交價短暫",
    "2895": "價短暫大",
    "2896": "短暫大跌",
    "2897": "暫大跌但",
    "2898": "大跌但現",
    "2899": "跌但現貨",
    "2900": "但現貨價",
    "2901": "現貨價格",
    "2902": "貨價格正",
    "2903": "價格正常",
    "2904": "格正常標",
    "2905": "正常標記",
    "2906": "常標記價",
    "2907": "記價格不",
    "2908": "價格不變",
    "2909": "格不變你",
    "2910": "不變你的",
    "2911": "變你的倉",
    "2912": "的倉位不",
    "2913": "位不會被",
    "2914": "不會被清",
    "2915": "會被清算",
    "2916": "格怎",
    "2917": "倉價格",
    "2918": "價格怎",
    "2919": "格怎麼",
    "2920": "爆倉價格",
    "2921": "倉價格怎",
    "2922": "價格怎麼",
    "2923": "格怎麼計",
    "2924": "倉模",
    "2925": "模式",
    "2926": "式下",
    "2927": "下的",
    "2928": "的簡",
    "2929": "簡化",
    "2930": "化公",
    "2931": "式做",
    "2932": "多爆",
    "2933": "率做",
    "2934": "空爆",
    "2935": "率以",
    "2936": "以多",
    "2937": "單為",
    "2938": "例開",
    "2939": "價倍",
    "2940": "率約",
    "2941": "約爆",
    "2942": "價實",
    "2943": "際爆",
    "2944": "價請",
    "2945": "請以",
    "2946": "以幣",
    "2947": "面顯",
    "2948": "示為",
    "2949": "為準",
    "2950": "準公",
    "2951": "式因",
    "2952": "因倉",
    "2953": "位層",
    "2954": "層級",
    "2955": "級而",
    "2956": "而略",
    "2957": "略有",
    "2958": "有不",
    "2959": "同最",
    "2960": "最佳",
    "2961": "佳做",
    "2962": "法設",
    "2963": "定止",
    "2964": "單讓",
    "2965": "統在",
    "2966": "在爆",
    "2967": "倉前",
    "2968": "前自",
    "2969": "倉避",
    "2970": "免清",
    "2971": "算手",
    "2972": "費約",
    "2973": "約倉",
    "2974": "值的",
    "2975": "逐倉模",
    "2976": "倉模式",
    "2977": "模式下",
    "2978": "式下的",
    "2979": "下的簡",
    "2980": "的簡化",
    "2981": "簡化公",
    "2982": "化公式",
    "2983": "公式做",
    "2984": "式做多",
    "2985": "做多爆",
    "2986": "多爆倉",
    "2987": "金率做",
    "2988": "率做空",
    "2989": "做空爆",
    "2990": "空爆倉",
    "2991": "金率以",
    "2992": "率以多",
    "2993": "以多單",
    "2994": "多單為",
    "2995": "單為例",
    "2996": "為例開",
    "2997": "例開倉",
    "2998": "開倉價",
    "2999": "倉價倍",
    "3000": "價倍槓",
    "3001": "金率約",
    "3002": "率約爆",
    "3003": "約爆倉",
    "3004": "倉價實",
    "3005": "價實際",
    "3006": "實際爆",
    "3007": "際爆倉",
    "3008": "倉價請",
    "3009": "價請以",
    "3010": "請以幣",
    "3011": "以幣安",
    "3012": "介面顯",
    "3013": "面顯示",
    "3014": "顯示為",
    "3015": "示為準",
    "3016": "為準公",
    "3017": "準公式",
    "3018": "公式因",
    "3019": "式因倉",
    "3020": "因倉位",
    "3021": "倉位層",
    "3022": "位層級",
    "3023": "層級而",
    "3024": "級而略",
    "3025": "而略有",
    "3026": "略有不",
    "3027": "有不同",
    "3028": "不同最",
    "3029": "同最佳",
    "3030": "最佳做",
    "3031": "佳做法",
    "3032": "做法設",
    "3033": "法設定",
    "3034": "設定止",
    "3035": "定止損",
    "3036": "損單讓",
    "3037": "單讓系",
    "3038": "系統在",
    "3039": "統在爆",
    "3040": "在爆倉",
    "3041": "爆倉前",
    "3042": "倉前自",
    "3043": "前自動",
    "3044": "平倉避",
    "3045": "倉避免",
    "3046": "避免清",
    "3047": "免清算",
    "3048": "清算手",
    "3049": "算手續",
    "3050": "續費約",
    "3051": "費約倉",
    "3052": "約倉位",
    "3053": "價值的",
    "3054": "逐倉模式",
    "3055": "倉模式下",
    "3056": "模式下的",
    "3057": "式下的簡",
    "3058": "下的簡化",
    "3059": "的簡化公",
    "3060": "簡化公式",
    "3061": "化公式做",
    "3062": "公式做多",
    "3063": "式做多爆",
    "3064": "做多爆倉",
    "3065": "多爆倉價",
    "3066": "證金率做",
    "3067": "金率做空",
    "3068": "率做空爆",
    "3069": "做空爆倉",
    "3070": "空爆倉價",
    "3071": "證金率以",
    "3072": "金率以多",
    "3073": "率以多單",
    "3074": "以多單為",
    "3075": "多單為例",
    "3076": "單為例開",
    "3077": "為例開倉",
    "3078": "例開倉價",
    "3079": "開倉價倍",
    "3080": "倉價倍槓",
    "3081": "價倍槓桿",
    "3082": "倍槓桿維",
    "3083": "證金率約",
    "3084": "金率約爆",
    "3085": "率約爆倉",
    "3086": "約爆倉價",
    "3087": "爆倉價實",
    "3088": "倉價實際",
    "3089": "價實際爆",
    "3090": "實際爆倉",
    "3091": "際爆倉價",
    "3092": "爆倉價請",
    "3093": "倉價請以",
    "3094": "價請以幣",
    "3095": "請以幣安",
    "3096": "以幣安介",
    "3097": "安介面顯",
    "3098": "介面顯示",
    "3099": "面顯示為",
    "3100": "顯示為準",
    "3101": "示為準公",
    "3102": "為準公式",
    "3103": "準公式因",
    "3104": "公式因倉",
    "3105": "式因倉位",
    "3106": "因倉位層",
    "3107": "倉位層級",
    "3108": "位層級而",
    "3109": "層級而略",
    "3110": "級而略有",
    "3111": "而略有不",
    "3112": "略有不同",
    "3113": "有不同最",
    "3114": "不同最佳",
    "3115": "同最佳做",
    "3116": "最佳做法",
    "3117": "佳做法設",
    "3118": "做法設定",
    "3119": "法設定止",
    "3120": "設定止損",
    "3121": "定止損單",
    "3122": "止損單讓",
    "3123": "損單讓系",
    "3124": "單讓系統",
    "3125": "讓系統在",
    "3126": "系統在爆",
    "3127": "統在爆倉",
    "3128": "在爆倉前",
    "3129": "爆倉前自",
    "3130": "倉前自動",
    "3131": "前自動平",
    "3132": "動平倉避",
    "3133": "平倉避免",
    "3134": "倉避免清",
    "3135": "避免清算",
    "3136": "免清算手",
    "3137": "清算手續",
    "3138": "算手續費",
    "3139": "手續費約",
    "3140": "續費約倉",
    "3141": "費約倉位",
    "3142": "約倉位名",
    "3143": "義價值的",
    "3144": "calculated",
    "3145": "simplified",
    "3146": "always",
    "3147": "check",
    "3148": "exact",
    "3149": "interface",
    "3150": "varies",
    "3151": "tier",
    "3152": "practice",
    "3153": "set",
    "3154": "close",
    "3155": "before",
    "3156": "avoid",
    "3157": "penalty",
    "3158": "是自",
    "3159": "麼是自",
    "3160": "是自動",
    "3161": "什麼是自",
    "3162": "麼是自動",
    "3163": "是自動減",
    "3164": "auto",
    "3165": "deleveraging",
    "3166": "bankruptcy",
    "3167": "倉是",
    "3168": "是幣",
    "3169": "安的",
    "3170": "的最",
    "3171": "後手",
    "3172": "手段",
    "3173": "段機",
    "3174": "制當",
    "3175": "當某",
    "3176": "某個",
    "3177": "個爆",
    "3178": "倉訂",
    "3179": "的損",
    "3180": "失超",
    "3181": "過保",
    "3182": "保險",
    "3183": "險基",
    "3184": "基金",
    "3185": "金能",
    "3186": "能承",
    "3187": "擔的",
    "3188": "的範",
    "3189": "圍時",
    "3190": "時幣",
    "3191": "安會",
    "3192": "制對",
    "3193": "對盈",
    "3194": "向的",
    "3195": "的持",
    "3196": "者部",
    "3197": "部分",
    "3198": "分平",
    "3199": "倉來",
    "3200": "來彌",
    "3201": "彌補",
    "3202": "補虧",
    "3203": "損方",
    "3204": "方的",
    "3205": "的缺",
    "3206": "缺口",
    "3207": "口被",
    "3208": "的條",
    "3209": "件排",
    "3210": "排名",
    "3211": "名越",
    "3212": "越靠",
    "3213": "靠前",
    "3214": "前越",
    "3215": "越容",
    "3216": "易被",
    "3217": "被選",
    "3218": "選中",
    "3219": "中盈",
    "3220": "利越",
    "3221": "桿使",
    "3222": "用越",
    "3223": "高被",
    "3224": "被不",
    "3225": "不收",
    "3226": "收手",
    "3227": "費但",
    "3228": "但會",
    "3229": "制以",
    "3230": "以破",
    "3231": "破產",
    "3232": "產價",
    "3233": "格平",
    "3234": "倉即",
    "3235": "使你",
    "3236": "位是",
    "3237": "是盈",
    "3238": "利的",
    "3239": "面有",
    "3240": "有風",
    "3241": "險燈",
    "3242": "燈顯",
    "3243": "示你",
    "3244": "你目",
    "3245": "前被",
    "3246": "機率",
    "3247": "率建",
    "3248": "議定",
    "3249": "定期",
    "3250": "期檢",
    "3251": "減倉是",
    "3252": "倉是幣",
    "3253": "是幣安",
    "3254": "幣安的",
    "3255": "安的最",
    "3256": "的最後",
    "3257": "最後手",
    "3258": "後手段",
    "3259": "手段機",
    "3260": "段機制",
    "3261": "機制當",
    "3262": "制當某",
    "3263": "當某個",
    "3264": "某個爆",
    "3265": "個爆倉",
    "3266": "爆倉訂",
    "3267": "倉訂單",
    "3268": "訂單的",
    "3269": "單的損",
    "3270": "的損失",
    "3271": "損失超",
    "3272": "失超過",
    "3273": "超過保",
    "3274": "過保險",
    "3275": "保險基",
    "3276": "險基金",
    "3277": "基金能",
    "3278": "金能承",
    "3279": "能承擔",
    "3280": "承擔的",
    "3281": "擔的範",
    "3282": "的範圍",
    "3283": "範圍時",
    "3284": "圍時幣",
    "3285": "時幣安",
    "3286": "幣安會",
    "3287": "安會強",
    "3288": "強制對",
    "3289": "制對盈",
    "3290": "對盈利",
    "3291": "盈利方",
    "3292": "方向的",
    "3293": "向的持",
    "3294": "的持倉",
    "3295": "倉者部",
    "3296": "者部分",
    "3297": "部分平",
    "3298": "分平倉",
    "3299": "平倉來",
    "3300": "倉來彌",
    "3301": "來彌補",
    "3302": "彌補虧",
    "3303": "補虧損",
    "3304": "虧損方",
    "3305": "損方的",
    "3306": "方的缺",
    "3307": "的缺口",
    "3308": "缺口被",
    "3309": "口被的",
    "3310": "被的條",
    "3311": "的條件",
    "3312": "條件排",
    "3313": "件排名",
    "3314": "排名越",
    "3315": "名越靠",
    "3316": "越靠前",
    "3317": "靠前越",
    "3318": "前越容",
    "3319": "越容易",
    "3320": "容易被",
    "3321": "易被選",
    "3322": "被選中",
    "3323": "選中盈",
    "3324": "中盈利",
    "3325": "盈利越",
    "3326": "利越高",
    "3327": "越高槓",
    "3328": "槓桿使",
    "3329": "桿使用",
    "3330": "使用越",
    "3331": "用越高",
    "3332": "越高被",
    "3333": "高被不",
    "3334": "被不收",
    "3335": "不收手",
    "3336": "收手續",
    "3337": "續費但",
    "3338": "費但會",
    "3339": "但會強",
    "3340": "強制以",
    "3341": "制以破",
    "3342": "以破產",
    "3343": "破產價",
    "3344": "產價格",
    "3345": "價格平",
    "3346": "格平倉",
    "3347": "平倉即",
    "3348": "倉即使",
    "3349": "即使你",
    "3350": "使你的",
    "3351": "倉位是",
    "3352": "位是盈",
    "3353": "是盈利",
    "3354": "盈利的",
    "3355": "利的幣",
    "3356": "介面有",
    "3357": "面有風",
    "3358": "有風險",
    "3359": "風險燈",
    "3360": "險燈顯",
    "3361": "燈顯示",
    "3362": "顯示你",
    "3363": "示你目",
    "3364": "你目前",
    "3365": "目前被",
    "3366": "前被的",
    "3367": "被的機",
    "3368": "的機率",
    "3369": "機率建",
    "3370": "率建議",
    "3371": "建議定",
    "3372": "議定期",
    "3373": "定期檢",
    "3374": "期檢查",
    "3375": "動減倉是",
    "3376": "減倉是幣",
    "3377": "倉是幣安",
    "3378": "是幣安的",
    "3379": "幣安的最",
    "3380": "安的最後",
    "3381": "的最後手",
    "3382": "最後手段",
    "3383": "後手段機",
    "3384": "手段機制",
    "3385": "段機制當",
    "3386": "機制當某",
    "3387": "制當某個",
    "3388": "當某個爆",
    "3389": "某個爆倉",
    "3390": "個爆倉訂",
    "3391": "爆倉訂單",
    "3392": "倉訂單的",
    "3393": "訂單的損",
    "3394": "單的損失",
    "3395": "的損失超",
    "3396": "損失超過",
    "3397": "失超過保",
    "3398": "超過保險",
    "3399": "過保險基",
    "3400": "保險基金",
    "3401": "險基金能",
    "3402": "基金能承",
    "3403": "金能承擔",
    "3404": "能承擔的",
    "3405": "承擔的範",
    "3406": "擔的範圍",
    "3407": "的範圍時",
    "3408": "範圍時幣",
    "3409": "圍時幣安",
    "3410": "時幣安會",
    "3411": "幣安會強",
    "3412": "安會強制",
    "3413": "會強制對",
    "3414": "強制對盈",
    "3415": "制對盈利",
    "3416": "對盈利方",
    "3417": "盈利方向",
    "3418": "利方向的",
    "3419": "方向的持",
    "3420": "向的持倉",
    "3421": "的持倉者",
    "3422": "持倉者部",
    "3423": "倉者部分",
    "3424": "者部分平",
    "3425": "部分平倉",
    "3426": "分平倉來",
    "3427": "平倉來彌",
    "3428": "倉來彌補",
    "3429": "來彌補虧",
    "3430": "彌補虧損",
    "3431": "補虧損方",
    "3432": "虧損方的",
    "3433": "損方的缺",
    "3434": "方的缺口",
    "3435": "的缺口被",
    "3436": "缺口被的",
    "3437": "口被的條",
    "3438": "被的條件",
    "3439": "的條件排",
    "3440": "條件排名",
    "3441": "件排名越",
    "3442": "排名越靠",
    "3443": "名越靠前",
    "3444": "越靠前越",
    "3445": "靠前越容",
    "3446": "前越容易",
    "3447": "越容易被",
    "3448": "容易被選",
    "3449": "易被選中",
    "3450": "被選中盈",
    "3451": "選中盈利",
    "3452": "中盈利越",
    "3453": "盈利越高",
    "3454": "利越高槓",
    "3455": "越高槓桿",
    "3456": "高槓桿使",
    "3457": "槓桿使用",
    "3458": "桿使用越",
    "3459": "使用越高",
    "3460": "用越高被",
    "3461": "越高被不",
    "3462": "高被不收",
    "3463": "被不收手",
    "3464": "不收手續",
    "3465": "收手續費",
    "3466": "手續費但",
    "3467": "續費但會",
    "3468": "費但會強",
    "3469": "但會強制",
    "3470": "會強制以",
    "3471": "強制以破",
[...]
